{
  "version": "1.0",
  "truncation": {
    "direction": "Right",
    "max_length": 128,
    "strategy": "LongestFirst",
    "stride": 0
  },
  "padding": {
    "strategy": {
      "Fixed": 128
    },
    "direction": "Right",
    "pad_to_multiple_of": null,
    "pad_id": 0,
    "pad_type_id": 0,
    "pad_token": "[PAD]"
  },
  "added_tokens": [
    {
      "id": 0,
      "content": "[PAD]",
      "single_word": false,
      "lstrip": false,
      "rstrip": false,
      "normalized": false,
      "special": true
    },
    {
      "id": 1,
      "content": "[UNK]",
      "single_word": false,
      "lstrip": false,
      "rstrip": false,
      "normalized": false,
      "special": true
    },
    {
      "id": 2,
      "content": "[CLS]",
      "single_word": false,
      "lstrip": false,
      "rstrip": false,
      "normalized": false,
      "special": true
    },
    {
      "id": 3,
      "content": "[SEP]",
      "single_word": false,
      "lstrip": false,
      "rstrip": false,
      "normalized": false,
      "special": true
    },
    {
      "id": 4,
      "content": "[MASK]",
      "single_word": false,
      "lstrip": false,
      "rstrip": false,
      "normalized": false,
      "special": true
    }
  ],
  "normalizer": {
    "type": "BertNormalizer",
    "clean_text": true,
    "handle_chinese_chars": true,
    "strip_accents": null,
    "lowercase": true
  },
  "pre_tokenizer": {
    "type": "BertPreTokenizer"
  },
  "post_processor": null,
  "decoder": {
    "type": "WordPiece",
    "prefix": "##",
    "cleanup": true
  },
  "model": {
    "type": "WordPiece",
    "unk_token": "[UNK]",
    "continuing_subword_prefix": "##",
    "max_input_chars_per_word": 100,
    "vocab": {
      "[PAD]": 0,
      "[UNK]": 1,
      "[CLS]": 2,
      "[SEP]": 3,
      "[MASK]": 4,
      "!": 5,
      "#": 6,
      "$": 7,
      "%": 8,
      "&": 9,
      "(": 10,
      ")": 11,
      "*": 12,
      "+": 13,
      ",": 14,
      "-": 15,
      ".": 16,
      "/": 17,
      "0": 18,
      "1": 19,
      "2": 20,
      "3": 21,
      "4": 22,
      "5": 23,
      "6": 24,
      "7": 25,
      "8": 26,
      "9": 27,
      ":": 28,
      ";": 29,
      "=": 30,
      "?": 31,
      "[": 32,
      "\\": 33,
      "]": 34,
      "^": 35,
      "_": 36,
      "`": 37,
      "a": 38,
      "b": 39,
      "c": 40,
      "d": 41,
      "e": 42,
      "f": 43,
      "g": 44,
      "h": 45,
      "i": 46,
      "j": 47,
      "k": 48,
      "l": 49,
      "m": 50,
      "n": 51,
      "o": 52,
      "p": 53,
      "q": 54,
      "r": 55,
      "s": 56,
      "t": 57,
      "u": 58,
      "v": 59,
      "w": 60,
      "x": 61,
      "y": 62,
      "z": 63,
      "{": 64,
      "|": 65,
      "}": 66,
      "~": 67,
      "¡": 68,
      "¥": 69,
      "©": 70,
      "«": 71,
      "°": 72,
      "±": 73,
      "²": 74,
      "³": 75,
      "´": 76,
      "¹": 77,
      "º": 78,
      "»": 79,
      "¿": 80,
      "×": 81,
      "ß": 82,
      "÷": 83,
      "ı": 84,
      "ɑ": 85,
      "ə": 86,
      "ɛ": 87,
      "ɱ": 88,
      "ʌ": 89,
      "α": 90,
      "β": 91,
      "γ": 92,
      "ε": 93,
      "η": 94,
      "ι": 95,
      "κ": 96,
      "λ": 97,
      "μ": 98,
      "ο": 99,
      "ρ": 100,
      "ς": 101,
      "τ": 102,
      "χ": 103,
      "ω": 104,
      "а": 105,
      "б": 106,
      "в": 107,
      "г": 108,
      "д": 109,
      "е": 110,
      "ж": 111,
      "з": 112,
      "и": 113,
      "к": 114,
      "л": 115,
      "м": 116,
      "н": 117,
      "о": 118,
      "п": 119,
      "р": 120,
      "с": 121,
      "т": 122,
      "у": 123,
      "ф": 124,
      "х": 125,
      "ц": 126,
      "ч": 127,
      "ш": 128,
      "щ": 129,
      "ъ": 130,
      "ы": 131,
      "ь": 132,
      "э": 133,
      "ю": 134,
      "я": 135,
      "є": 136,
      "і": 137,
      "ґ": 138,
      "ғ": 139,
      "қ": 140,
      "ҡ": 141,
      "ң": 142,
      "ү": 143,
      "ҳ": 144,
      "һ": 145,
      "ҽ": 146,
      "ӏ": 147,
      "ә": 148,
      "ө": 149,
      "ԋ": 150,
      "գ": 151,
      "ի": 152,
      "հ": 153,
      "ո": 154,
      "չ": 155,
      "ց": 156,
      "ւ": 157,
      "ا": 158,
      "ب": 159,
      "ت": 160,
      "ح": 161,
      "خ": 162,
      "د": 163,
      "ض": 164,
      "ع": 165,
      "غ": 166,
      "ك": 167,
      "ل": 168,
      "م": 169,
      "ن": 170,
      "ه": 171,
      "و": 172,
      "ي": 173,
      "۞": 174,
      "۩": 175,
      "ܨ": 176,
      "ஜ": 177,
      "ಥ": 178,
      "๑": 179,
      "ა": 180,
      "ბ": 181,
      "დ": 182,
      "ე": 183,
      "ვ": 184,
      "ი": 185,
      "კ": 186,
      "მ": 187,
      "ნ": 188,
      "ო": 189,
      "რ": 190,
      "ს": 191,
      "ქ": 192,
      "ღ": 193,
      "შ": 194,
      "ხ": 195,
      "ᴀ": 196,
      "ᴇ": 197,
      "ᴘ": 198,
      "‐": 199,
      "‑": 200,
      "–": 201,
      "—": 202,
      "―": 203,
      "‘": 204,
      "’": 205,
      "“": 206,
      "”": 207,
      "„": 208,
      "•": 209,
      "…": 210,
      "‼": 211,
      "‿": 212,
      "⁃": 213,
      "⁉": 214,
      "⁰": 215,
      "⁴": 216,
      "⁵": 217,
      "⁶": 218,
      "⁷": 219,
      "⁸": 220,
      "⁹": 221,
      "€": 222,
      "₽": 223,
      "⃣": 224,
      "℅": 225,
      "ℒ": 226,
      "№": 227,
      "ℭ": 228,
      "−": 229,
      "≛": 230,
      "⌨": 231,
      "⏫": 232,
      "⏬": 233,
      "⏰": 234,
      "═": 235,
      "▬": 236,
      "▶": 237,
      "►": 238,
      "◄": 239,
      "●": 240,
      "☀": 241,
      "☁": 242,
      "☆": 243,
      "☎": 244,
      "☑": 245,
      "☔": 246,
      "☕": 247,
      "☘": 248,
      "☚": 249,
      "☛": 250,
      "☝": 251,
      "☠": 252,
      "☢": 253,
      "☣": 254,
      "☦": 255,
      "☯": 256,
      "☸": 257,
      "☹": 258,
      "☺": 259,
      "☻": 260,
      "♀": 261,
      "♂": 262,
      "♉": 263,
      "♋": 264,
      "♐": 265,
      "♕": 266,
      "♛": 267,
      "♟": 268,
      "♡": 269,
      "♥": 270,
      "♨": 271,
      "♻": 272,
      "⚓": 273,
      "⚕": 274,
      "⚖": 275,
      "⚘": 276,
      "⚜": 277,
      "⚠": 278,
      "⚡": 279,
      "⚪": 280,
      "⚫": 281,
      "⚰": 282,
      "⚽": 283,
      "⚾": 284,
      "⛈": 285,
      "⛔": 286,
      "⛪": 287,
      "⛰": 288,
      "⛲": 289,
      "⛵": 290,
      "⛸": 291,
      "⛹": 292,
      "⛺": 293,
      "✂": 294,
      "✅": 295,
      "✈": 296,
      "✉": 297,
      "✊": 298,
      "✋": 299,
      "✌": 300,
      "✍": 301,
      "✏": 302,
      "✓": 303,
      "✔": 304,
      "✖": 305,
      "✝": 306,
      "✨": 307,
      "✳": 308,
      "✴": 309,
      "✾": 310,
      "✿": 311,
      "❄": 312,
      "❇": 313,
      "❌": 314,
      "❓": 315,
      "❔": 316,
      "❗": 317,
      "❣": 318,
      "❤": 319,
      "❧": 320,
      "➊": 321,
      "➋": 322,
      "➌": 323,
      "➕": 324,
      "➟": 325,
      "➡": 326,
      "➿": 327,
      "⠀": 328,
      "⤴": 329,
      "⬅": 330,
      "⬆": 331,
      "⬇": 332,
      "⭐": 333,
      "《": 334,
      "》": 335,
      "〰": 336,
      "ツ": 337,
      "弾": 338,
      "檬": 339,
      "檸": 340,
      "爆": 341,
      "ﷺ": 342,
      "！": 343,
      "（": 344,
      "）": 345,
      "，": 346,
      "－": 347,
      "＝": 348,
      "？": 349,
      "￼": 350,
      "𝔊": 351,
      "𝔞": 352,
      "𝔢": 353,
      "𝔬": 354,
      "𝔯": 355,
      "𝔱": 356,
      "𝔳": 357,
      "🃏": 358,
      "🆗": 359,
      "🆘": 360,
      "🇦": 361,
      "🇧": 362,
      "🇨": 363,
      "🇩": 364,
      "🇪": 365,
      "🇬": 366,
      "🇮": 367,
      "🇯": 368,
      "🇰": 369,
      "🇱": 370,
      "🇲": 371,
      "🇳": 372,
      "🇷": 373,
      "🇸": 374,
      "🇹": 375,
      "🇺": 376,
      "🇾": 377,
      "🇿": 378,
      "🌀": 379,
      "🌂": 380,
      "🌃": 381,
      "🌄": 382,
      "🌅": 383,
      "🌆": 384,
      "🌇": 385,
      "🌈": 386,
      "🌉": 387,
      "🌊": 388,
      "🌋": 389,
      "🌌": 390,
      "🌍": 391,
      "🌎": 392,
      "🌏": 393,
      "🌐": 394,
      "🌔": 395,
      "🌕": 396,
      "🌖": 397,
      "🌘": 398,
      "🌙": 399,
      "🌚": 400,
      "🌜": 401,
      "🌝": 402,
      "🌞": 403,
      "🌟": 404,
      "🌠": 405,
      "🌥": 406,
      "🌧": 407,
      "🌫": 408,
      "🌰": 409,
      "🌱": 410,
      "🌲": 411,
      "🌳": 412,
      "🌴": 413,
      "🌵": 414,
      "🌶": 415,
      "🌷": 416,
      "🌸": 417,
      "🌹": 418,
      "🌺": 419,
      "🌻": 420,
      "🌼": 421,
      "🌽": 422,
      "🌾": 423,
      "🌿": 424,
      "🍀": 425,
      "🍁": 426,
      "🍂": 427,
      "🍃": 428,
      "🍄": 429,
      "🍅": 430,
      "🍆": 431,
      "🍇": 432,
      "🍈": 433,
      "🍉": 434,
      "🍊": 435,
      "🍋": 436,
      "🍌": 437,
      "🍍": 438,
      "🍎": 439,
      "🍏": 440,
      "🍐": 441,
      "🍑": 442,
      "🍒": 443,
      "🍓": 444,
      "🍔": 445,
      "🍕": 446,
      "🍖": 447,
      "🍗": 448,
      "🍚": 449,
      "🍛": 450,
      "🍝": 451,
      "🍞": 452,
      "🍟": 453,
      "🍡": 454,
      "🍣": 455,
      "🍤": 456,
      "🍦": 457,
      "🍧": 458,
      "🍨": 459,
      "🍩": 460,
      "🍫": 461,
      "🍬": 462,
      "🍭": 463,
      "🍯": 464,
      "🍰": 465,
      "🍱": 466,
      "🍲": 467,
      "🍳": 468,
      "🍴": 469,
      "🍵": 470,
      "🍶": 471,
      "🍷": 472,
      "🍸": 473,
      "🍹": 474,
      "🍺": 475,
      "🍻": 476,
      "🍽": 477,
      "🍾": 478,
      "🍿": 479,
      "🎀": 480,
      "🎁": 481,
      "🎂": 482,
      "🎃": 483,
      "🎄": 484,
      "🎅": 485,
      "🎆": 486,
      "🎈": 487,
      "🎉": 488,
      "🎊": 489,
      "🎌": 490,
      "🎐": 491,
      "🎒": 492,
      "🎓": 493,
      "🎖": 494,
      "🎠": 495,
      "🎡": 496,
      "🎢": 497,
      "🎤": 498,
      "🎥": 499,
      "🎧": 500,
      "🎨": 501,
      "🎩": 502,
      "🎭": 503,
      "🎯": 504,
      "🎲": 505,
      "🎵": 506,
      "🎶": 507,
      "🎷": 508,
      "🎸": 509,
      "🎹": 510,
      "🎺": 511,
      "🎻": 512,
      "🎼": 513,
      "🎾": 514,
      "🏁": 515,
      "🏃": 516,
      "🏅": 517,
      "🏆": 518,
      "🏊": 519,
      "🏍": 520,
      "🏎": 521,
      "🏐": 522,
      "🏒": 523,
      "🏓": 524,
      "🏕": 525,
      "🏖": 526,
      "🏙": 527,
      "🏚": 528,
      "🏝": 529,
      "🏞": 530,
      "🏠": 531,
      "🏡": 532,
      "🏢": 533,
      "🏤": 534,
      "🏥": 535,
      "🏩": 536,
      "🏭": 537,
      "🏰": 538,
      "🏳": 539,
      "🏴": 540,
      "🏵": 541,
      "🏻": 542,
      "🏼": 543,
      "🏽": 544,
      "🏾": 545,
      "🏿": 546,
      "🐀": 547,
      "🐁": 548,
      "🐂": 549,
      "🐃": 550,
      "🐄": 551,
      "🐅": 552,
      "🐆": 553,
      "🐈": 554,
      "🐉": 555,
      "🐋": 556,
      "🐌": 557,
      "🐍": 558,
      "🐎": 559,
      "🐏": 560,
      "🐐": 561,
      "🐑": 562,
      "🐒": 563,
      "🐓": 564,
      "🐔": 565,
      "🐕": 566,
      "🐖": 567,
      "🐗": 568,
      "🐘": 569,
      "🐚": 570,
      "🐜": 571,
      "🐝": 572,
      "🐞": 573,
      "🐟": 574,
      "🐠": 575,
      "🐣": 576,
      "🐥": 577,
      "🐦": 578,
      "🐧": 579,
      "🐬": 580,
      "🐭": 581,
      "🐯": 582,
      "🐰": 583,
      "🐱": 584,
      "🐲": 585,
      "🐴": 586,
      "🐶": 587,
      "🐷": 588,
      "🐸": 589,
      "🐹": 590,
      "🐺": 591,
      "🐻": 592,
      "🐼": 593,
      "🐽": 594,
      "🐾": 595,
      "🐿": 596,
      "👀": 597,
      "👁": 598,
      "👂": 599,
      "👃": 600,
      "👄": 601,
      "👅": 602,
      "👆": 603,
      "👇": 604,
      "👈": 605,
      "👉": 606,
      "👊": 607,
      "👋": 608,
      "👌": 609,
      "👍": 610,
      "👎": 611,
      "👏": 612,
      "👐": 613,
      "👑": 614,
      "👒": 615,
      "👕": 616,
      "👖": 617,
      "👗": 618,
      "👘": 619,
      "👙": 620,
      "👚": 621,
      "👛": 622,
      "👜": 623,
      "👟": 624,
      "👠": 625,
      "👡": 626,
      "👣": 627,
      "👤": 628,
      "👥": 629,
      "👦": 630,
      "👧": 631,
      "👨": 632,
      "👩": 633,
      "👪": 634,
      "👫": 635,
      "👬": 636,
      "👭": 637,
      "👮": 638,
      "👯": 639,
      "👰": 640,
      "👲": 641,
      "👴": 642,
      "👵": 643,
      "👶": 644,
      "👷": 645,
      "👸": 646,
      "👹": 647,
      "👺": 648,
      "👻": 649,
      "👼": 650,
      "👽": 651,
      "👿": 652,
      "💀": 653,
      "💁": 654,
      "💃": 655,
      "💄": 656,
      "💅": 657,
      "💇": 658,
      "💈": 659,
      "💉": 660,
      "💋": 661,
      "💌": 662,
      "💍": 663,
      "💎": 664,
      "💐": 665,
      "💑": 666,
      "💒": 667,
      "💓": 668,
      "💔": 669,
      "💕": 670,
      "💖": 671,
      "💗": 672,
      "💘": 673,
      "💙": 674,
      "💚": 675,
      "💛": 676,
      "💜": 677,
      "💝": 678,
      "💞": 679,
      "💟": 680,
      "💡": 681,
      "💣": 682,
      "💤": 683,
      "💥": 684,
      "💦": 685,
      "💧": 686,
      "💨": 687,
      "💩": 688,
      "💪": 689,
      "💫": 690,
      "💬": 691,
      "💭": 692,
      "💮": 693,
      "💯": 694,
      "💰": 695,
      "💲": 696,
      "💳": 697,
      "💴": 698,
      "💵": 699,
      "💶": 700,
      "💸": 701,
      "💻": 702,
      "💼": 703,
      "💽": 704,
      "💾": 705,
      "💿": 706,
      "📌": 707,
      "📍": 708,
      "📎": 709,
      "📕": 710,
      "📖": 711,
      "📗": 712,
      "📚": 713,
      "📝": 714,
      "📞": 715,
      "📡": 716,
      "📢": 717,
      "📣": 718,
      "📦": 719,
      "📩": 720,
      "📱": 721,
      "📲": 722,
      "📳": 723,
      "📷": 724,
      "📸": 725,
      "📹": 726,
      "📺": 727,
      "📼": 728,
      "📽": 729,
      "🔆": 730,
      "🔇": 731,
      "🔊": 732,
      "🔎": 733,
      "🔑": 734,
      "🔒": 735,
      "🔔": 736,
      "🔖": 737,
      "🔝": 738,
      "🔞": 739,
      "🔥": 740,
      "🔨": 741,
      "🔪": 742,
      "🔫": 743,
      "🔬": 744,
      "🔮": 745,
      "🔯": 746,
      "🔰": 747,
      "🔴": 748,
      "🔵": 749,
      "🔷": 750,
      "🔺": 751,
      "🕊": 752,
      "🕋": 753,
      "🕌": 754,
      "🕒": 755,
      "🕯": 756,
      "🕴": 757,
      "🕶": 758,
      "🕷": 759,
      "🖋": 760,
      "🖐": 761,
      "🖒": 762,
      "🖕": 763,
      "🖖": 764,
      "🖤": 765,
      "🖥": 766,
      "🖱": 767,
      "🗓": 768,
      "🗣": 769,
      "🗨": 770,
      "🗯": 771,
      "🗺": 772,
      "🗽": 773,
      "🗿": 774,
      "😀": 775,
      "😁": 776,
      "😂": 777,
      "😃": 778,
      "😄": 779,
      "😅": 780,
      "😆": 781,
      "😇": 782,
      "😈": 783,
      "😉": 784,
      "😊": 785,
      "😋": 786,
      "😌": 787,
      "😍": 788,
      "😎": 789,
      "😏": 790,
      "😐": 791,
      "😑": 792,
      "😒": 793,
      "😓": 794,
      "😔": 795,
      "😕": 796,
      "😖": 797,
      "😗": 798,
      "😘": 799,
      "😙": 800,
      "😚": 801,
      "😛": 802,
      "😜": 803,
      "😝": 804,
      "😞": 805,
      "😟": 806,
      "😠": 807,
      "😡": 808,
      "😢": 809,
      "😣": 810,
      "😤": 811,
      "😥": 812,
      "😦": 813,
      "😧": 814,
      "😨": 815,
      "😩": 816,
      "😪": 817,
      "😫": 818,
      "😬": 819,
      "😭": 820,
      "😮": 821,
      "😯": 822,
      "😰": 823,
      "😱": 824,
      "😲": 825,
      "😳": 826,
      "😴": 827,
      "😵": 828,
      "😶": 829,
      "😷": 830,
      "😸": 831,
      "😹": 832,
      "😺": 833,
      "😻": 834,
      "😼": 835,
      "😽": 836,
      "😾": 837,
      "😿": 838,
      "🙀": 839,
      "🙁": 840,
      "🙂": 841,
      "🙃": 842,
      "🙄": 843,
      "🙅": 844,
      "🙆": 845,
      "🙇": 846,
      "🙈": 847,
      "🙉": 848,
      "🙊": 849,
      "🙋": 850,
      "🙌": 851,
      "🙎": 852,
      "🙏": 853,
      "🚀": 854,
      "🚂": 855,
      "🚈": 856,
      "🚉": 857,
      "🚊": 858,
      "🚌": 859,
      "🚐": 860,
      "🚑": 861,
      "🚒": 862,
      "🚕": 863,
      "🚖": 864,
      "🚗": 865,
      "🚘": 866,
      "🚙": 867,
      "🚚": 868,
      "🚜": 869,
      "🚣": 870,
      "🚤": 871,
      "🚥": 872,
      "🚦": 873,
      "🚨": 874,
      "🚩": 875,
      "🚫": 876,
      "🚬": 877,
      "🚲": 878,
      "🚶": 879,
      "🚽": 880,
      "🚿": 881,
      "🛋": 882,
      "🛍": 883,
      "🛐": 884,
      "🛑": 885,
      "🛒": 886,
      "🛩": 887,
      "🟢": 888,
      "🟣": 889,
      "🤍": 890,
      "🤎": 891,
      "🤏": 892,
      "🤐": 893,
      "🤑": 894,
      "🤒": 895,
      "🤓": 896,
      "🤔": 897,
      "🤕": 898,
      "🤗": 899,
      "🤘": 900,
      "🤙": 901,
      "🤚": 902,
      "🤛": 903,
      "🤜": 904,
      "🤝": 905,
      "🤞": 906,
      "🤟": 907,
      "🤠": 908,
      "🤡": 909,
      "🤢": 910,
      "🤣": 911,
      "🤤": 912,
      "🤥": 913,
      "🤦": 914,
      "🤧": 915,
      "🤨": 916,
      "🤩": 917,
      "🤪": 918,
      "🤫": 919,
      "🤬": 920,
      "🤭": 921,
      "🤮": 922,
      "🤯": 923,
      "🤱": 924,
      "🤲": 925,
      "🤵": 926,
      "🤷": 927,
      "🤸": 928,
      "🥀": 929,
      "🥁": 930,
      "🥂": 931,
      "🥃": 932,
      "🥇": 933,
      "🥊": 934,
      "🥐": 935,
      "🥑": 936,
      "🥒": 937,
      "🥔": 938,
      "🥕": 939,
      "🥖": 940,
      "🥗": 941,
      "🥘": 942,
      "🥙": 943,
      "🥚": 944,
      "🥝": 945,
      "🥞": 946,
      "🥤": 947,
      "🥥": 948,
      "🥦": 949,
      "🥧": 950,
      "🥨": 951,
      "🥬": 952,
      "🥮": 953,
      "🥰": 954,
      "🥱": 955,
      "🥳": 956,
      "🥴": 957,
      "🥵": 958,
      "🥶": 959,
      "🥺": 960,
      "🦀": 961,
      "🦁": 962,
      "🦂": 963,
      "🦄": 964,
      "🦆": 965,
      "🦉": 966,
      "🦊": 967,
      "🦋": 968,
      "🦌": 969,
      "🦍": 970,
      "🦎": 971,
      "🦔": 972,
      "🦜": 973,
      "🦠": 974,
      "🦢": 975,
      "🦧": 976,
      "🦩": 977,
      "🦴": 978,
      "🦶": 979,
      "🦷": 980,
      "🦺": 981,
      "🦾": 982,
      "🧁": 983,
      "🧄": 984,
      "🧅": 985,
      "🧐": 986,
      "🧑": 987,
      "🧙": 988,
      "🧚": 989,
      "🧛": 990,
      "🧟": 991,
      "🧡": 992,
      "🧤": 993,
      "🧥": 994,
      "🧦": 995,
      "🧨": 996,
      "🧲": 997,
      "🧴": 998,
      "🧵": 999,
      "🧸": 1000,
      "🧹": 1001,
      "🪀": 1002,
      "🪂": 1003,
      "🪓": 1004,
      "##m": 1005,
      "##d": 1006,
      "##с": 1007,
      "##к": 1008,
      "##о": 1009,
      "##р": 1010,
      "##б": 1011,
      "##я": 1012,
      "##т": 1013,
      "##ь": 1014,
      "##е": 1015,
      "##ж": 1016,
      "##ю": 1017,
      "##п": 1018,
      "##и": 1019,
      "##х": 1020,
      "##в": 1021,
      "##а": 1022,
      "##д": 1023,
      "##ы": 1024,
      "##л": 1025,
      "##l": 1026,
      "##o": 1027,
      "##n": 1028,
      "##a": 1029,
      "##н": 1030,
      "##м": 1031,
      "##ч": 1032,
      "##у": 1033,
      "##🙄": 1034,
      "##🤪": 1035,
      "##з": 1036,
      "##ш": 1037,
      "##e": 1038,
      "##i": 1039,
      "##ф": 1040,
      "##😂": 1041,
      "##э": 1042,
      "##☺": 1043,
      "##😡": 1044,
      "##г": 1045,
      "##r": 1046,
      "##t": 1047,
      "##7": 1048,
      "##6": 1049,
      "##0": 1050,
      "##4": 1051,
      "##3": 1052,
      "##1": 1053,
      "##9": 1054,
      "##8": 1055,
      "##💪": 1056,
      "##😢": 1057,
      "##5": 1058,
      "##ц": 1059,
      "##щ": 1060,
      "##ъ": 1061,
      "##👎": 1062,
      "##g": 1063,
      "##s": 1064,
      "##і": 1065,
      "##k": 1066,
      "##👍": 1067,
      "##🔥": 1068,
      "##b": 1069,
      "##2": 1070,
      "##🤝": 1071,
      "##🙏": 1072,
      "##🐶": 1073,
      "##❣": 1074,
      "##🎂": 1075,
      "##🎁": 1076,
      "##😠": 1077,
      "##😳": 1078,
      "##q": 1079,
      "##💕": 1080,
      "##z": 1081,
      "##🤔": 1082,
      "##🌹": 1083,
      "##👏": 1084,
      "##☯": 1085,
      "##☀": 1086,
      "##c": 1087,
      "##🤣": 1088,
      "##💋": 1089,
      "##h": 1090,
      "##p": 1091,
      "##☘": 1092,
      "##🎈": 1093,
      "##🌻": 1094,
      "##🌼": 1095,
      "##😇": 1096,
      "##💖": 1097,
      "##❤": 1098,
      "##😀": 1099,
      "##🤷": 1100,
      "##🏻": 1101,
      "##♀": 1102,
      "##🌺": 1103,
      "##😄": 1104,
      "##u": 1105,
      "##👋": 1106,
      "##😔": 1107,
      "##🧁": 1108,
      "##f": 1109,
      "##v": 1110,
      "##😁": 1111,
      "##♥": 1112,
      "##⚘": 1113,
      "##😍": 1114,
      "##😅": 1115,
      "##💐": 1116,
      "##🌙": 1117,
      "##🌸": 1118,
      "##қ": 1119,
      "##☑": 1120,
      "##😭": 1121,
      "##y": 1122,
      "##w": 1123,
      "##😌": 1124,
      "##😃": 1125,
      "##😊": 1126,
      "##👌": 1127,
      "##🤩": 1128,
      "##😜": 1129,
      "##✖": 1130,
      "##😉": 1131,
      "##🍨": 1132,
      "##🍓": 1133,
      "##ᴇ": 1134,
      "##ᴘ": 1135,
      "##ᴀ": 1136,
      "##🤬": 1137,
      "##🥳": 1138,
      "##🤧": 1139,
      "##რ": 1140,
      "##მ": 1141,
      "##ე": 1142,
      "##ნ": 1143,
      "##ა": 1144,
      "##კ": 1145,
      "##ბ": 1146,
      "##ო": 1147,
      "##🤵": 1148,
      "##👰": 1149,
      "##😋": 1150,
      "##💙": 1151,
      "##😎": 1152,
      "##x": 1153,
      "##😛": 1154,
      "##🖕": 1155,
      "##✌": 1156,
      "##×": 1157,
      "##🙈": 1158,
      "##￼": 1159,
      "##😱": 1160,
      "##🤟": 1161,
      "##🐱": 1162,
      "##😩": 1163,
      "##🍸": 1164,
      "##💰": 1165,
      "##😘": 1166,
      "##🇾": 1167,
      "##ո": 1168,
      "##հ": 1169,
      "##😏": 1170,
      "##😨": 1171,
      "##🌿": 1172,
      "##🌈": 1173,
      "##😈": 1174,
      "##✋": 1175,
      "##😆": 1176,
      "##🚕": 1177,
      "##🥰": 1178,
      "##😫": 1179,
      "##🤗": 1180,
      "##🤞": 1181,
      "##🖖": 1182,
      "##✊": 1183,
      "##🤛": 1184,
      "##😷": 1185,
      "##👻": 1186,
      "##😥": 1187,
      "##🎉": 1188,
      "##🐑": 1189,
      "##🕌": 1190,
      "##🍷": 1191,
      "##🌷": 1192,
      "##🤦": 1193,
      "##♂": 1194,
      "##👆": 1195,
      "##🌜": 1196,
      "##₽": 1197,
      "##🥺": 1198,
      "##🤥": 1199,
      "##🍴": 1200,
      "##🙂": 1201,
      "##🧐": 1202,
      "##🔫": 1203,
      "##🙁": 1204,
      "##💞": 1205,
      "##🤓": 1206,
      "##🌊": 1207,
      "##⛰": 1208,
      "##📢": 1209,
      "##🚗": 1210,
      "##❓": 1211,
      "##🙋": 1212,
      "##😞": 1213,
      "##💩": 1214,
      "##😤": 1215,
      "##j": 1216,
      "##🎧": 1217,
      "##🔆": 1218,
      "##🍰": 1219,
      "##🎖": 1220,
      "##💯": 1221,
      "##ə": 1222,
      "##🐕": 1223,
      "##🆘": 1224,
      "##🕋": 1225,
      "##😧": 1226,
      "##🏼": 1227,
      "##ı": 1228,
      "##💗": 1229,
      "##🐀": 1230,
      "##🙃": 1231,
      "##🎤": 1232,
      "##💦": 1233,
      "##⚡": 1234,
      "##☔": 1235,
      "##🇺": 1236,
      "##😻": 1237,
      "##⚜": 1238,
      "##💵": 1239,
      "##🐈": 1240,
      "##🥒": 1241,
      "##🙌": 1242,
      "##🌄": 1243,
      "##🔪": 1244,
      "##❗": 1245,
      "##☹": 1246,
      "##🇷": 1247,
      "##👩": 1248,
      "##💟": 1249,
      "##🗯": 1250,
      "##🗨": 1251,
      "##💥": 1252,
      "##🍧": 1253,
      "##💘": 1254,
      "##💓": 1255,
      "##💔": 1256,
      "##😕": 1257,
      "##🏴": 1258,
      "##☠": 1259,
      "##ο": 1260,
      "##🥶": 1261,
      "##💃": 1262,
      "##⭐": 1263,
      "##🏃": 1264,
      "##⛹": 1265,
      "##ღ": 1266,
      "##👊": 1267,
      "##🙆": 1268,
      "##☝": 1269,
      "##☕": 1270,
      "##😹": 1271,
      "##🤘": 1272,
      "##👇": 1273,
      "##🍀": 1274,
      "##😣": 1275,
      "##🔴": 1276,
      "##🎼": 1277,
      "##λ": 1278,
      "##ι": 1279,
      "##γ": 1280,
      "##ς": 1281,
      "##🤙": 1282,
      "##🥇": 1283,
      "##⚽": 1284,
      "##🏆": 1285,
      "##😒": 1286,
      "##♻": 1287,
      "##🌞": 1288,
      "##😑": 1289,
      "##α": 1290,
      "##💝": 1291,
      "##📝": 1292,
      "##🌟": 1293,
      "##😪": 1294,
      "##😽": 1295,
      "##°": 1296,
      "##🚩": 1297,
      "##🖐": 1298,
      "##😟": 1299,
      "##😮": 1300,
      "##🍡": 1301,
      "##🐯": 1302,
      "##🎹": 1303,
      "##🥁": 1304,
      "##🥵": 1305,
      "##📞": 1306,
      "##🌃": 1307,
      "##💮": 1308,
      "##💫": 1309,
      "##😚": 1310,
      "##⚾": 1311,
      "##🍝": 1312,
      "##🍲": 1313,
      "##👹": 1314,
      "##ҳ": 1315,
      "##🖥": 1316,
      "##⌨": 1317,
      "##💽": 1318,
      "##💻": 1319,
      "##💿": 1320,
      "##💾": 1321,
      "##😿": 1322,
      "##🐟": 1323,
      "##🙀": 1324,
      "##🎶": 1325,
      "##🎺": 1326,
      "##👿": 1327,
      "##🤨": 1328,
      "##🌳": 1329,
      "##🧚": 1330,
      "##＝": 1331,
      "##☛": 1332,
      "##👧": 1333,
      "##🍁": 1334,
      "##¥": 1335,
      "##💚": 1336,
      "##🙉": 1337,
      "##🤢": 1338,
      "##🤮": 1339,
      "##🤡": 1340,
      "##💣": 1341,
      "##🥴": 1342,
      "##κ": 1343,
      "##🛩": 1344,
      "##🐷": 1345,
      "##🐽": 1346,
      "##✅": 1347,
      "##😵": 1348,
      "##ل": 1349,
      "##ا": 1350,
      "##ي": 1351,
      "##غ": 1352,
      "##ت": 1353,
      "##ب": 1354,
      "##🥦": 1355,
      "##🤯": 1356,
      "##🌚": 1357,
      "##🦩": 1358,
      "##🖤": 1359,
      "##🐣": 1360,
      "##🎸": 1361,
      "##👄": 1362,
      "##🤕": 1363,
      "##😲": 1364,
      "##😝": 1365,
      "##ҡ": 1366,
      "##😬": 1367,
      "##🧑": 1368,
      "##🍇": 1369,
      "##🌧": 1370,
      "##🐾": 1371,
      "##🏅": 1372,
      "##🎊": 1373,
      "##😐": 1374,
      "##🍿": 1375,
      "##🍒": 1376,
      "##🤭": 1377,
      "##є": 1378,
      "##😖": 1379,
      "##🍺": 1380,
      "##👼": 1381,
      "##🕴": 1382,
      "##💸": 1383,
      "##💎": 1384,
      "##♨": 1385,
      "##✈": 1386,
      "##🏽": 1387,
      "##🇱": 1388,
      "##🇬": 1389,
      "##🇪": 1390,
      "##🇹": 1391,
      "##☣": 1392,
      "##🏳": 1393,
      "##⚰": 1394,
      "##🌋": 1395,
      "##🐥": 1396,
      "##🧛": 1397,
      "##🥧": 1398,
      "##⚖": 1399,
      "##❄": 1400,
      "##👈": 1401,
      "##✍": 1402,
      "##🍐": 1403,
      "##🇳": 1404,
      "##🙊": 1405,
      "##🦋": 1406,
      "##🍊": 1407,
      "##μ": 1408,
      "##🐖": 1409,
      "##🦾": 1410,
      "##🍫": 1411,
      "##🌝": 1412,
      "##💧": 1413,
      "##🥀": 1414,
      "##🔮": 1415,
      "##🍾": 1416,
      "##👦": 1417,
      "##⚕": 1418,
      "##👨": 1419,
      "##🎓": 1420,
      "##😼": 1421,
      "##🤒": 1422,
      "##😸": 1423,
      "##👣": 1424,
      "##👺": 1425,
      "##🤐": 1426,
      "##ғ": 1427,
      "##🖒": 1428,
      "##´": 1429,
      "##🔨": 1430,
      "##²": 1431,
      "##🦺": 1432,
      "##😙": 1433,
      "##💜": 1434,
      "##ҽ": 1435,
      "##👬": 1436,
      "##⁷": 1437,
      "##⁹": 1438,
      "##¹": 1439,
      "##⁵": 1440,
      "##³": 1441,
      "##⁶": 1442,
      "##⁴": 1443,
      "##🦆": 1444,
      "##😓": 1445,
      "##🔯": 1446,
      "##🤫": 1447,
      "##🤑": 1448,
      "##💴": 1449,
      "##💶": 1450,
      "##💳": 1451,
      "##🪂": 1452,
      "##🎆": 1453,
      "##º": 1454,
      "##🤲": 1455,
      "##🏡": 1456,
      "##🛒": 1457,
      "##🛍": 1458,
      "##🎭": 1459,
      "##🎩": 1460,
      "##ү": 1461,
      "##😾": 1462,
      "##±": 1463,
      "##ك": 1464,
      "##🏖": 1465,
      "##🗺": 1466,
      "##⛵": 1467,
      "##⠀": 1468,
      "##📱": 1469,
      "##🥘": 1470,
      "##🧄": 1471,
      "##🍆": 1472,
      "##💌": 1473,
      "##🍭": 1474,
      "##😗": 1475,
      "##🍏": 1476,
      "##🍎": 1477,
      "##🍉": 1478,
      "##🍅": 1479,
      "##🥬": 1480,
      "##🌽": 1481,
      "##🥕": 1482,
      "##🧅": 1483,
      "##🥔": 1484,
      "##🌾": 1485,
      "##ө": 1486,
      "##🌵": 1487,
      "##🐿": 1488,
      "##👀": 1489,
      "##🚘": 1490,
      "##🏎": 1491,
      "##😴": 1492,
      "##❌": 1493,
      "##🪓": 1494,
      "##☢": 1495,
      "##🐝": 1496,
      "##⚓": 1497,
      "##🐒": 1498,
      "##🥂": 1499,
      "##🦂": 1500,
      "##ε": 1501,
      "##№": 1502,
      "##🚒": 1503,
      "##🤱": 1504,
      "##💒": 1505,
      "##🍃": 1506,
      "##©": 1507,
      "##🇰": 1508,
      "##☸": 1509,
      "##🇸": 1510,
      "##🇧": 1511,
      "##☁": 1512,
      "##💁": 1513,
      "##⏬": 1514,
      "##🧨": 1515,
      "##😯": 1516,
      "##🐏": 1517,
      "##🎵": 1518,
      "##👁": 1519,
      "##ح": 1520,
      "##م": 1521,
      "##☦": 1522,
      "##🍱": 1523,
      "##💀": 1524,
      "##✉": 1525,
      "##📩": 1526,
      "##🚤": 1527,
      "##🥥": 1528,
      "##τ": 1529,
      "##🧹": 1530,
      "##🍕": 1531,
      "##🍹": 1532,
      "##ӏ": 1533,
      "##🐠": 1534,
      "##ه": 1535,
      "##و": 1536,
      "##🧸": 1537,
      "##🖱": 1538,
      "##🎢": 1539,
      "##η": 1540,
      "##☆": 1541,
      "##⃣": 1542,
      "##🎀": 1543,
      "##🦧": 1544,
      "##📼": 1545,
      "##📺": 1546,
      "##✨": 1547,
      "##🕊": 1548,
      "##🦍": 1549,
      "##💨": 1550,
      "##💅": 1551,
      "##💄": 1552,
      "##👃": 1553,
      "##📍": 1554,
      "##🇦": 1555,
      "##🇿": 1556,
      "##😰": 1557,
      "##💤": 1558,
      "##🐌": 1559,
      "##😦": 1560,
      "##ი": 1561,
      "##შ": 1562,
      "##🚑": 1563,
      "##🎐": 1564,
      "##🐭": 1565,
      "##🏢": 1566,
      "##ә": 1567,
      "##🙅": 1568,
      "##👯": 1569,
      "##🚙": 1570,
      "##🚶": 1571,
      "##💛": 1572,
      "##🌅": 1573,
      "##👫": 1574,
      "##═": 1575,
      "##◄": 1576,
      "##✾": 1577,
      "##🤤": 1578,
      "##🌂": 1579,
      "##ქ": 1580,
      "##ვ": 1581,
      "##🏵": 1582,
      "##►": 1583,
      "##●": 1584,
      "##🍚": 1585,
      "##🍛": 1586,
      "##🍦": 1587,
      "##💍": 1588,
      "##👛": 1589,
      "##🥞": 1590,
      "##🗣": 1591,
      "##🍄": 1592,
      "##🪀": 1593,
      "##🎾": 1594,
      "##📌": 1595,
      "##🐅": 1596,
      "##🍻": 1597,
      "##🧦": 1598,
      "##🧤": 1599,
      "##👜": 1600,
      "##🌱": 1601,
      "##🏞": 1602,
      "##ց": 1603,
      "##ւ": 1604,
      "##ի": 1605,
      "##չ": 1606,
      "##һ": 1607,
      "##⛲": 1608,
      "##👽": 1609,
      "##🏚": 1610,
      "##🛑": 1611,
      "##👕": 1612,
      "##👖": 1613,
      "##👗": 1614,
      "##🧥": 1615,
      "##🧵": 1616,
      "##⬇": 1617,
      "##🍩": 1618,
      "##🥐": 1619,
      "##🤎": 1620,
      "##🌏": 1621,
      "##🌍": 1622,
      "##👙": 1623,
      "##👭": 1624,
      "##🏾": 1625,
      "##🔵": 1626,
      "##🟣": 1627,
      "##۩": 1628,
      "##۞": 1629,
      "##ஜ": 1630,
      "##▬": 1631,
      "##ω": 1632,
      "##👑": 1633,
      "##🍬": 1634,
      "##🎡": 1635,
      "##€": 1636,
      "##🕯": 1637,
      "##🏩": 1638,
      "##🇮": 1639,
      "##🤜": 1640,
      "##🏿": 1641,
      "##🌥": 1642,
      "##😺": 1643,
      "##🏒": 1644,
      "##➡": 1645,
      "##💉": 1646,
      "##👐": 1647,
      "##🦉": 1648,
      "##÷": 1649,
      "##🍔": 1650,
      "##🥮": 1651,
      "##🏝": 1652,
      "##🍍": 1653,
      "##🐗": 1654,
      "##🕒": 1655,
      "##🍖": 1656,
      "##🌴": 1657,
      "##🍳": 1658,
      "##💼": 1659,
      "##🤠": 1660,
      "##🍑": 1661,
      "##👠": 1662,
      "##👡": 1663,
      "##👟": 1664,
      "##🌆": 1665,
      "##🔔": 1666,
      "##🍋": 1667,
      "##📸": 1668,
      "##🔊": 1669,
      "##🐲": 1670,
      "##🐃": 1671,
      "##🐂": 1672,
      "##🐄": 1673,
      "##🎨": 1674,
      "##🐔": 1675,
      "##🐰": 1676,
      "##🚲": 1677,
      "##🚚": 1678,
      "##ع": 1679,
      "##ض": 1680,
      "##🙎": 1681,
      "##👉": 1682,
      "##🐓": 1683,
      "##🐦": 1684,
      "##🦜": 1685,
      "##🦢": 1686,
      "##💈": 1687,
      "##🏥": 1688,
      "##🙇": 1689,
      "##⚪": 1690,
      "##👪": 1691,
      "##🏍": 1692,
      "##✝": 1693,
      "##✿": 1694,
      "##🤍": 1695,
      "##👶": 1696,
      "##🥗": 1697,
      "##🥙": 1698,
      "##🧙": 1699,
      "##🏠": 1700,
      "##📎": 1701,
      "##🏐": 1702,
      "##🏓": 1703,
      "##🎃": 1704,
      "##⛸": 1705,
      "##🎄": 1706,
      "##♟": 1707,
      "##🍽": 1708,
      "##🍞": 1709,
      "##📣": 1710,
      "##📕": 1711,
      "##📖": 1712,
      "##☎": 1713,
      "##🐧": 1714,
      "##🦔": 1715,
      "##🌌": 1716,
      "##⚠": 1717,
      "##🍗": 1718,
      "##💑": 1719,
      "##🐍": 1720,
      "##℅": 1721,
      "##🌀": 1722,
      "##๑": 1723,
      "##🥊": 1724,
      "##🤏": 1725,
      "##🚣": 1726,
      "##🛐": 1727,
      "##☻": 1728,
      "##🧡": 1729,
      "##🦶": 1730,
      "##🇨": 1731,
      "##👤": 1732,
      "##🇲": 1733,
      "##𝔬": 1734,
      "##𝔯": 1735,
      "##𝔞": 1736,
      "##𝔢": 1737,
      "##𝔳": 1738,
      "##ρ": 1739,
      "##χ": 1740,
      "##👮": 1741,
      "##ß": 1742,
      "##👸": 1743,
      "##✂": 1744,
      "##🥃": 1745,
      "##🎥": 1746,
      "##🦄": 1747,
      "##🐐": 1748,
      "##🍟": 1749,
      "##🇯": 1750,
      "##🔰": 1751,
      "##🐸": 1752,
      "##♛": 1753,
      "##🎅": 1754,
      "##🌶": 1755,
      "##🇩": 1756,
      "##👲": 1757,
      "##👅": 1758,
      "##🍌": 1759,
      "##🦠": 1760,
      "##🚖": 1761,
      "##🍯": 1762,
      "##💲": 1763,
      "##β": 1764,
      "##💭": 1765,
      "##🥝": 1766,
      "##🍈": 1767,
      "##🤚": 1768,
      "##ɛ": 1769,
      "##ɱ": 1770,
      "##ʌ": 1771,
      "##ɑ": 1772,
      "##ԋ": 1773,
      "##📡": 1774,
      "##🕶": 1775,
      "##🦁": 1776,
      "##−": 1777,
      "##🍂": 1778,
      "##ن": 1779,
      "##ґ": 1780,
      "##🥤": 1781,
      "##خ": 1782,
      "##🐴": 1783,
      "##🦷": 1784,
      "##🐋": 1785,
      "##🐘": 1786,
      "##🥱": 1787,
      "##🥑": 1788,
      "##🃏": 1789,
      "##✔": 1790,
      "##🦊": 1791,
      "##🐺": 1792,
      "##🥖": 1793,
      "##🗽": 1794,
      "##🖋": 1795,
      "##🐻": 1796,
      "##𝔱": 1797,
      "##د": 1798,
      "##❧": 1799,
      "##♕": 1800,
      "##⚫": 1801,
      "##🐬": 1802,
      "##🦌": 1803,
      "##🐆": 1804,
      "##🦀": 1805,
      "##🔞": 1806,
      "##👘": 1807,
      "##ს": 1808,
      "##ხ": 1809,
      "##⬆": 1810,
      "##ң": 1811,
      "##🐹": 1812,
      "##🥨": 1813,
      "##⬅": 1814,
      "##🔝": 1815,
      "##🌐": 1816,
      "##🏕": 1817,
      "##то": 1818,
      "##ть": 1819,
      "по": 1820,
      "##ро": 1821,
      "##но": 1822,
      "##ра": 1823,
      "на": 1824,
      "##ен": 1825,
      "не": 1826,
      "##ли": 1827,
      "##ет": 1828,
      "##ст": 1829,
      "##ак": 1830,
      "##ла": 1831,
      "##ер": 1832,
      "##ва": 1833,
      "##ол": 1834,
      "##ит": 1835,
      "##го": 1836,
      "##ка": 1837,
      "##ни": 1838,
      "##ко": 1839,
      "##да": 1840,
      "##на": 1841,
      "##во": 1842,
      "##ем": 1843,
      "##ло": 1844,
      "за": 1845,
      "##ри": 1846,
      "##ны": 1847,
      "##ки": 1848,
      "##ся": 1849,
      "##до": 1850,
      "##ль": 1851,
      "ко": 1852,
      "##де": 1853,
      "что": 1854,
      "вс": 1855,
      "##ре": 1856,
      "##ам": 1857,
      "это": 1858,
      "##от": 1859,
      "про": 1860,
      "##ас": 1861,
      "то": 1862,
      "так": 1863,
      "как": 1864,
      "бы": 1865,
      "##ди": 1866,
      "##ите": 1867,
      "вы": 1868,
      "мо": 1869,
      "все": 1870,
      "до": 1871,
      "##ти": 1872,
      "##ру": 1873,
      "от": 1874,
      "ра": 1875,
      "##ля": 1876,
      "##не": 1877,
      "##та": 1878,
      "##ле": 1879,
      "да": 1880,
      "##оль": 1881,
      "со": 1882,
      "при": 1883,
      "##же": 1884,
      "##сь": 1885,
      "##ви": 1886,
      "##ма": 1887,
      "##ени": 1888,
      "##еб": 1889,
      "во": 1890,
      "##ку": 1891,
      "##си": 1892,
      "##бо": 1893,
      "##сть": 1894,
      "##ми": 1895,
      "но": 1896,
      "го": 1897,
      "##ше": 1898,
      "##ду": 1899,
      "##ве": 1900,
      "##ень": 1901,
      "##ну": 1902,
      "##чи": 1903,
      "ни": 1904,
      "##ста": 1905,
      "##ши": 1906,
      "##ры": 1907,
      "##ес": 1908,
      "##еи": 1909,
      "##ать": 1910,
      "##ют": 1911,
      "хо": 1912,
      "ро": 1913,
      "лю": 1914,
      "бу": 1915,
      "об": 1916,
      "##мо": 1917,
      "##му": 1918,
      "##ча": 1919,
      "##ще": 1920,
      "##лу": 1921,
      "##сто": 1922,
      "ка": 1923,
      "пи": 1924,
      "жи": 1925,
      "##ез": 1926,
      "##га": 1927,
      "сп": 1928,
      "де": 1929,
      "##жно": 1930,
      "##оло": 1931,
      "##те": 1932,
      "##хо": 1933,
      "ма": 1934,
      "##ги": 1935,
      "##олько": 1936,
      "##ныи": 1937,
      "##ня": 1938,
      "##вы": 1939,
      "ты": 1940,
      "##за": 1941,
      "##ци": 1942,
      "##сти": 1943,
      "раз": 1944,
      "##гда": 1945,
      "##би": 1946,
      "##жи": 1947,
      "ну": 1948,
      "##ные": 1949,
      "##ба": 1950,
      "ст": 1951,
      "##рав": 1952,
      "##ере": 1953,
      "под": 1954,
      "##ме": 1955,
      "##ров": 1956,
      "сво": 1957,
      "же": 1958,
      "##дет": 1959,
      "##по": 1960,
      "из": 1961,
      "##са": 1962,
      "##ят": 1963,
      "##жа": 1964,
      "##вать": 1965,
      "##пи": 1966,
      "пу": 1967,
      "##че": 1968,
      "##ву": 1969,
      "##со": 1970,
      "бо": 1971,
      "##шь": 1972,
      "##ная": 1973,
      "су": 1974,
      "оч": 1975,
      "##вет": 1976,
      "##льно": 1977,
      "ве": 1978,
      "сам": 1979,
      "##ды": 1980,
      "##сли": 1981,
      "надо": 1982,
      "че": 1983,
      "##па": 1984,
      "ру": 1985,
      "##щи": 1986,
      "те": 1987,
      "ли": 1988,
      "пре": 1989,
      "##ется": 1990,
      "##ты": 1991,
      "он": 1992,
      "##ои": 1993,
      "кра": 1994,
      "только": 1995,
      "##дно": 1996,
      "ви": 1997,
      "теб": 1998,
      "ку": 1999,
      "если": 2000,
      "еще": 2001,
      "кто": 2002,
      "##лы": 2003,
      "вот": 2004,
      "##бы": 2005,
      "ста": 2006,
      "па": 2007,
      "##ту": 2008,
      "ва": 2009,
      "есть": 2010,
      "ду": 2011,
      "##гу": 2012,
      "##чно": 2013,
      "##ения": 2014,
      "##лю": 2015,
      "очень": 2016,
      "ба": 2017,
      "##ски": 2018,
      "##ша": 2019,
      "ми": 2020,
      "##ья": 2021,
      "нет": 2022,
      "##ке": 2023,
      "##ря": 2024,
      "таки": 2025,
      "дру": 2026,
      "ме": 2027,
      "вам": 2028,
      "##ска": 2029,
      "мы": 2030,
      "##пе": 2031,
      "для": 2032,
      "уже": 2033,
      "##еня": 2034,
      "боль": 2035,
      "##ение": 2036,
      "##бот": 2037,
      "му": 2038,
      "##дь": 2039,
      "будет": 2040,
      "##раз": 2041,
      "они": 2042,
      "пос": 2043,
      "си": 2044,
      "##ного": 2045,
      "нас": 2046,
      "ре": 2047,
      "##вер": 2048,
      "его": 2049,
      "##ное": 2050,
      "##нь": 2051,
      "мне": 2052,
      "или": 2053,
      "##ца": 2054,
      "##час": 2055,
      "##00": 2056,
      "хоро": 2057,
      "можно": 2058,
      "зна": 2059,
      "##ут": 2060,
      "##ско": 2061,
      "дет": 2062,
      "##ая": 2063,
      "было": 2064,
      "сто": 2065,
      "##ете": 2066,
      "меня": 2067,
      "##сси": 2068,
      "просто": 2069,
      "пере": 2070,
      "##рем": 2071,
      "##аси": 2072,
      "##зы": 2073,
      "##ных": 2074,
      "##бу": 2075,
      "без": 2076,
      "где": 2077,
      "их": 2078,
      "##тер": 2079,
      "##ха": 2080,
      "##мер": 2081,
      "дол": 2082,
      "##нои": 2083,
      "##пу": 2084,
      "стра": 2085,
      "здо": 2086,
      "##сс": 2087,
      "рас": 2088,
      "##ться": 2089,
      "##ита": 2090,
      "##чем": 2091,
      "ин": 2092,
      "когда": 2093,
      "моло": 2094,
      "##ков": 2095,
      "##об": 2096,
      "эти": 2097,
      "спаси": 2098,
      "##зи": 2099,
      "##жет": 2100,
      "там": 2101,
      "##ство": 2102,
      "работ": 2103,
      "##мот": 2104,
      "свои": 2105,
      "тоже": 2106,
      "ска": 2107,
      "доб": 2108,
      "вас": 2109,
      "спасибо": 2110,
      "кото": 2111,
      "##он": 2112,
      "##мен": 2113,
      "день": 2114,
      "зак": 2115,
      "росси": 2116,
      "лу": 2117,
      "##зо": 2118,
      "ск": 2119,
      "жиз": 2120,
      "бе": 2121,
      "себ": 2122,
      "дела": 2123,
      "се": 2124,
      "са": 2125,
      "##лись": 2126,
      "##нов": 2127,
      "##нима": 2128,
      "##ции": 2129,
      "##це": 2130,
      "##ое": 2131,
      "##ена": 2132,
      "полу": 2133,
      "##цы": 2134,
      "пер": 2135,
      "##су": 2136,
      "##ится": 2137,
      "##лся": 2138,
      "##том": 2139,
      "##лове": 2140,
      "##сы": 2141,
      "##род": 2142,
      "##ству": 2143,
      "лет": 2144,
      "всем": 2145,
      "здоров": 2146,
      "тебя": 2147,
      "##кра": 2148,
      "##ние": 2149,
      "##пер": 2150,
      "челове": 2151,
      "##кои": 2152,
      "##вно": 2153,
      "чем": 2154,
      "##мы": 2155,
      "##ск": 2156,
      "##дите": 2157,
      "##гра": 2158,
      "##чка": 2159,
      "вер": 2160,
      "оста": 2161,
      "##вои": 2162,
      "##дела": 2163,
      "воз": 2164,
      "она": 2165,
      "##драв": 2166,
      "всех": 2167,
      "ле": 2168,
      "##про": 2169,
      "тебе": 2170,
      "ху": 2171,
      "##пла": 2172,
      "кон": 2173,
      "может": 2174,
      "##рави": 2175,
      "ту": 2176,
      "врем": 2177,
      "##зя": 2178,
      "кла": 2179,
      "чу": 2180,
      "сло": 2181,
      "##ств": 2182,
      "фо": 2183,
      "та": 2184,
      "##рои": 2185,
      "##ком": 2186,
      "люди": 2187,
      "##ами": 2188,
      "сеи": 2189,
      "##дут": 2190,
      "здоровья": 2191,
      "##лось": 2192,
      "хот": 2193,
      "сеичас": 2194,
      "##ром": 2195,
      "помо": 2196,
      "им": 2197,
      "##лась": 2198,
      "##стре": 2199,
      "##ую": 2200,
      "пла": 2201,
      "##дни": 2202,
      "ав": 2203,
      "поз": 2204,
      "##вор": 2205,
      "сколько": 2206,
      "га": 2207,
      "##деи": 2208,
      "##се": 2209,
      "##вали": 2210,
      "ее": 2211,
      "##шо": 2212,
      "##ния": 2213,
      "краси": 2214,
      "нужно": 2215,
      "##ход": 2216,
      "луч": 2217,
      "каж": 2218,
      "##бе": 2219,
      "##ным": 2220,
      "пидо": 2221,
      "пока": 2222,
      "даже": 2223,
      "чтобы": 2224,
      "##ин": 2225,
      "прода": 2226,
      "##лен": 2227,
      "##рь": 2228,
      "##чу": 2229,
      "##ща": 2230,
      "гла": 2231,
      "жа": 2232,
      "пусть": 2233,
      "пути": 2234,
      "чер": 2235,
      "которы": 2236,
      "такои": 2237,
      "какои": 2238,
      "соб": 2239,
      "##сте": 2240,
      "после": 2241,
      "##выи": 2242,
      "##тов": 2243,
      "ком": 2244,
      "мои": 2245,
      "##ешь": 2246,
      "##лять": 2247,
      "одно": 2248,
      "##шка": 2249,
      "голо": 2250,
      "##жд": 2251,
      "##дар": 2252,
      "кар": 2253,
      "##скии": 2254,
      "##леи": 2255,
      "много": 2256,
      "таких": 2257,
      "##чки": 2258,
      "был": 2259,
      "##чего": 2260,
      "##рать": 2261,
      "интер": 2262,
      "класс": 2263,
      "##енно": 2264,
      "##вают": 2265,
      "такие": 2266,
      "ло": 2267,
      "##вает": 2268,
      "##вая": 2269,
      "##оле": 2270,
      "##чь": 2271,
      "##ять": 2272,
      "россии": 2273,
      "##чес": 2274,
      "##дить": 2275,
      "крас": 2276,
      "слу": 2277,
      "##фи": 2278,
      "пол": 2279,
      "фото": 2280,
      "время": 2281,
      "##ную": 2282,
      "оп": 2283,
      "сдела": 2284,
      "##тель": 2285,
      "больше": 2286,
      "реб": 2287,
      "##зать": 2288,
      "люб": 2289,
      "пе": 2290,
      "##пол": 2291,
      "тва": 2292,
      "##нем": 2293,
      "дума": 2294,
      "оо": 2295,
      "нуж": 2296,
      "##сту": 2297,
      "##дин": 2298,
      "себя": 2299,
      "##стоя": 2300,
      "##ствуите": 2301,
      "почем": 2302,
      "здрав": 2303,
      "прав": 2304,
      "гру": 2305,
      "доро": 2306,
      "ско": 2307,
      "##фо": 2308,
      "лучше": 2309,
      "всегда": 2310,
      "ха": 2311,
      "##ие": 2312,
      "ла": 2313,
      "ник": 2314,
      "людеи": 2315,
      "ус": 2316,
      "напи": 2317,
      "бла": 2318,
      "хорошо": 2319,
      "##👍👍": 2320,
      "##дец": 2321,
      "почему": 2322,
      "вла": 2323,
      "##ран": 2324,
      "##ник": 2325,
      "сер": 2326,
      "здравствуите": 2327,
      "этот": 2328,
      "жен": 2329,
      "потом": 2330,
      "нам": 2331,
      "##часть": 2332,
      "ему": 2333,
      "##дер": 2334,
      "смот": 2335,
      "##нии": 2336,
      "##ху": 2337,
      "работа": 2338,
      "этого": 2339,
      "##ства": 2340,
      "##жу": 2341,
      "##вя": 2342,
      "пиз": 2343,
      "тем": 2344,
      "##вые": 2345,
      "ди": 2346,
      "вооб": 2347,
      "##дом": 2348,
      "##гла": 2349,
      "##ню": 2350,
      "счасть": 2351,
      "##рма": 2352,
      "сем": 2353,
      "быть": 2354,
      "мам": 2355,
      "##ция": 2356,
      "##шки": 2357,
      "##став": 2358,
      "##ако": 2359,
      "руб": 2360,
      "##ити": 2361,
      "ум": 2362,
      "##кии": 2363,
      "ис": 2364,
      "вообще": 2365,
      "##шу": 2366,
      "какая": 2367,
      "была": 2368,
      "##чит": 2369,
      "##дя": 2370,
      "были": 2371,
      "##тра": 2372,
      "ничего": 2373,
      "##ые": 2374,
      "ки": 2375,
      "тру": 2376,
      "добры": 2377,
      "фи": 2378,
      "##ене": 2379,
      "##тому": 2380,
      "них": 2381,
      "##ская": 2382,
      "пожа": 2383,
      "пред": 2384,
      "##дов": 2385,
      "жизни": 2386,
      "жизнь": 2387,
      "##хи": 2388,
      "интерес": 2389,
      "##зна": 2390,
      "##итель": 2391,
      "бес": 2392,
      "нико": 2393,
      "тут": 2394,
      "##чет": 2395,
      "##ев": 2396,
      "##тор": 2397,
      "##неи": 2398,
      "##рода": 2399,
      "кол": 2400,
      "##рова": 2401,
      "##вить": 2402,
      "могу": 2403,
      "наши": 2404,
      "бог": 2405,
      "народ": 2406,
      "##ого": 2407,
      "один": 2408,
      "##спо": 2409,
      "пло": 2410,
      "##нет": 2411,
      "гра": 2412,
      "##ются": 2413,
      "пом": 2414,
      "прави": 2415,
      "люби": 2416,
      "чи": 2417,
      "мас": 2418,
      "##ении": 2419,
      "##пера": 2420,
      "ар": 2421,
      "хва": 2422,
      "##бои": 2423,
      "человек": 2424,
      "##нее": 2425,
      "##ге": 2426,
      "молодец": 2427,
      "уби": 2428,
      "##ан": 2429,
      "уж": 2430,
      "##тно": 2431,
      "##жда": 2432,
      "поня": 2433,
      "##лет": 2434,
      "себе": 2435,
      "##бер": 2436,
      "##год": 2437,
      "чтоб": 2438,
      "чего": 2439,
      "сы": 2440,
      "уда": 2441,
      "благо": 2442,
      "##чен": 2443,
      "детеи": 2444,
      "еба": 2445,
      "##пы": 2446,
      "##луи": 2447,
      "муж": 2448,
      "такое": 2449,
      "##жать": 2450,
      "##сты": 2451,
      "##дит": 2452,
      "##ники": 2453,
      "коне": 2454,
      "##итесь": 2455,
      "##ские": 2456,
      "##чку": 2457,
      "тепер": 2458,
      "наш": 2459,
      "эту": 2460,
      "будут": 2461,
      "сле": 2462,
      "##шеи": 2463,
      "теперь": 2464,
      "20": 2465,
      "получа": 2466,
      "пен": 2467,
      "говор": 2468,
      "##ден": 2469,
      "##ом": 2470,
      "##есто": 2471,
      "сла": 2472,
      "цен": 2473,
      "красот": 2474,
      "кого": 2475,
      "рожд": 2476,
      "ак": 2477,
      "##вори": 2478,
      "деньги": 2479,
      "##реть": 2480,
      "пра": 2481,
      "##лек": 2482,
      "##ками": 2483,
      "бля": 2484,
      "свое": 2485,
      "жела": 2486,
      "тогда": 2487,
      "##скои": 2488,
      "женщи": 2489,
      "##кры": 2490,
      "##ном": 2491,
      "какие": 2492,
      "##тив": 2493,
      "теле": 2494,
      "##жите": 2495,
      "##ющи": 2496,
      "долж": 2497,
      "днем": 2498,
      "сказа": 2499,
      "опера": 2500,
      "##вь": 2501,
      "##шии": 2502,
      "##кус": 2503,
      "дер": 2504,
      "пожалуи": 2505,
      "привет": 2506,
      "##нок": 2507,
      "ти": 2508,
      "##лем": 2509,
      "этом": 2510,
      "##дем": 2511,
      "##ствен": 2512,
      "од": 2513,
      "##вал": 2514,
      "##вар": 2515,
      "зем": 2516,
      "##тельно": 2517,
      "сов": 2518,
      "мраз": 2519,
      "##нова": 2520,
      "пенси": 2521,
      "ru": 2522,
      "##вод": 2523,
      "пожалуиста": 2524,
      "спо": 2525,
      "##нуть": 2526,
      "зачем": 2527,
      "други": 2528,
      "##стви": 2529,
      "##нут": 2530,
      "##юсь": 2531,
      "##дать": 2532,
      "года": 2533,
      "##рии": 2534,
      "гор": 2535,
      "тер": 2536,
      "виде": 2537,
      "бра": 2538,
      "свет": 2539,
      "##сать": 2540,
      "такая": 2541,
      "этих": 2542,
      "##ар": 2543,
      "сами": 2544,
      "##шего": 2545,
      "счастья": 2546,
      "хоть": 2547,
      "путин": 2548,
      "хуи": 2549,
      "15": 2550,
      "##ака": 2551,
      "##еби": 2552,
      "вся": 2553,
      "укра": 2554,
      "##прав": 2555,
      "конечно": 2556,
      "ок": 2557,
      "эта": 2558,
      "точно": 2559,
      "добро": 2560,
      "час": 2561,
      "пои": 2562,
      "любо": 2563,
      "##сов": 2564,
      "##чита": 2565,
      "##част": 2566,
      "##ел": 2567,
      "обо": 2568,
      "ведь": 2569,
      "##годня": 2570,
      "##разу": 2571,
      "навер": 2572,
      "которые": 2573,
      "##рет": 2574,
      "рус": 2575,
      "##доб": 2576,
      "сегодня": 2577,
      "##ыи": 2578,
      "10": 2579,
      "##стра": 2580,
      "вос": 2581,
      "этои": 2582,
      "поли": 2583,
      "прои": 2584,
      "куда": 2585,
      "##ника": 2586,
      "кому": 2587,
      "вз": 2588,
      "вра": 2589,
      "рождения": 2590,
      "него": 2591,
      "име": 2592,
      "жо": 2593,
      "##ить": 2594,
      "кор": 2595,
      "##ните": 2596,
      "кажды": 2597,
      "всего": 2598,
      "друго": 2599,
      "##нить": 2600,
      "дево": 2601,
      "пар": 2602,
      "тво": 2603,
      "ответ": 2604,
      "посмот": 2605,
      "еи": 2606,
      "##цу": 2607,
      "даи": 2608,
      "иг": 2609,
      "прекра": 2610,
      "дети": 2611,
      "родите": 2612,
      "тра": 2613,
      "##тя": 2614,
      "дома": 2615,
      "ад": 2616,
      "##ов": 2617,
      "89": 2618,
      "вкус": 2619,
      "##стро": 2620,
      "##кая": 2621,
      "госпо": 2622,
      "##лов": 2623,
      "##десь": 2624,
      "заб": 2625,
      "ht": 2626,
      "ан": 2627,
      "##кие": 2628,
      "получи": 2629,
      "##tp": 2630,
      "##кла": 2631,
      "хозя": 2632,
      "##зыва": 2633,
      "вопро": 2634,
      "сразу": 2635,
      "##ходи": 2636,
      "ос": 2637,
      "ча": 2638,
      "##ему": 2639,
      "хочу": 2640,
      "жить": 2641,
      "ры": 2642,
      "больш": 2643,
      "http": 2644,
      "понима": 2645,
      "19": 2646,
      "пам": 2647,
      "здесь": 2648,
      "кро": 2649,
      "уб": 2650,
      "##рен": 2651,
      "##бира": 2652,
      "кру": 2653,
      "вои": 2654,
      "мало": 2655,
      "##дума": 2656,
      "расстре": 2657,
      "друз": 2658,
      "зака": 2659,
      "иди": 2660,
      "правильно": 2661,
      "пиш": 2662,
      "##шел": 2663,
      "кре": 2664,
      "ут": 2665,
      "##ление": 2666,
      "##сить": 2667,
      "роди": 2668,
      "##ительно": 2669,
      "##чина": 2670,
      "обра": 2671,
      "через": 2672,
      "похо": 2673,
      "ша": 2674,
      "авто": 2675,
      "супер": 2676,
      "сме": 2677,
      "стоит": 2678,
      "##мет": 2679,
      "добрыи": 2680,
      "каждыи": 2681,
      "род": 2682,
      "##шие": 2683,
      "потому": 2684,
      "##ика": 2685,
      "прекрас": 2686,
      "гу": 2687,
      "ува": 2688,
      "номер": 2689,
      "##ского": 2690,
      "груп": 2691,
      "бли": 2692,
      "##ред": 2693,
      "того": 2694,
      "сука": 2695,
      "давно": 2696,
      "##дят": 2697,
      "##вых": 2698,
      "коро": 2699,
      "##рт": 2700,
      "##ску": 2701,
      "глав": 2702,
      "##каза": 2703,
      "цена": 2704,
      "поздрав": 2705,
      "свою": 2706,
      "мужи": 2707,
      "твои": 2708,
      "поло": 2709,
      "никто": 2710,
      "##ность": 2711,
      "##вля": 2712,
      "всю": 2713,
      "##рю": 2714,
      "##дели": 2715,
      "##рос": 2716,
      "бан": 2717,
      "це": 2718,
      "##ница": 2719,
      "операции": 2720,
      "ok": 2721,
      "##рга": 2722,
      "##цию": 2723,
      "ваши": 2724,
      "##ман": 2725,
      "##лом": 2726,
      "еб": 2727,
      "пря": 2728,
      "##шен": 2729,
      "авгу": 2730,
      "слова": 2731,
      "молод": 2732,
      "##сем": 2733,
      "##при": 2734,
      "##ье": 2735,
      "ог": 2736,
      "своих": 2737,
      "##ально": 2738,
      "##ления": 2739,
      "красиво": 2740,
      "##реи": 2741,
      "ге": 2742,
      "ря": 2743,
      "говори": 2744,
      "нача": 2745,
      "свя": 2746,
      "уро": 2747,
      "тварь": 2748,
      "боле": 2749,
      "##чныи": 2750,
      "руки": 2751,
      "знаю": 2752,
      "согла": 2753,
      "тех": 2754,
      "написа": 2755,
      "кры": 2756,
      "праз": 2757,
      "##можно": 2758,
      "##шая": 2759,
      "##соб": 2760,
      "буду": 2761,
      "ал": 2762,
      "россия": 2763,
      "##зу": 2764,
      "делать": 2765,
      "деи": 2766,
      "деби": 2767,
      "настоя": 2768,
      "##шно": 2769,
      "##она": 2770,
      "два": 2771,
      "##ными": 2772,
      "успе": 2773,
      "##ках": 2774,
      "##ников": 2775,
      "своеи": 2776,
      "##роде": 2777,
      "купи": 2778,
      "##льные": 2779,
      "##😂😂": 2780,
      "##ток": 2781,
      "https": 2782,
      "живо": 2783,
      "##ходит": 2784,
      "доба": 2785,
      "##шать": 2786,
      "бабу": 2787,
      "##лень": 2788,
      "##им": 2789,
      "пидора": 2790,
      "нем": 2791,
      "##мента": 2792,
      "##лан": 2793,
      "100": 2794,
      "##деть": 2795,
      "##лая": 2796,
      "меся": 2797,
      "##оо": 2798,
      "интересно": 2799,
      "##льныи": 2800,
      "пида": 2801,
      "норма": 2802,
      "взя": 2803,
      "вд": 2804,
      "вто": 2805,
      "##ваться": 2806,
      "##чить": 2807,
      "##рок": 2808,
      "моя": 2809,
      "совет": 2810,
      "отли": 2811,
      "откры": 2812,
      "краса": 2813,
      "бер": 2814,
      "дере": 2815,
      "совсем": 2816,
      "тре": 2817,
      "##шли": 2818,
      "праздни": 2819,
      "би": 2820,
      "пес": 2821,
      "ребен": 2822,
      "##вала": 2823,
      "##чная": 2824,
      "##иту": 2825,
      "три": 2826,
      "##нк": 2827,
      "##чать": 2828,
      "##гие": 2829,
      "##нако": 2830,
      "##тои": 2831,
      "##щь": 2832,
      "такую": 2833,
      "отда": 2834,
      "##стве": 2835,
      "бога": 2836,
      "тро": 2837,
      "##ению": 2838,
      "хвата": 2839,
      "##пита": 2840,
      "хотя": 2841,
      "уч": 2842,
      "##гля": 2843,
      "##кого": 2844,
      "проб": 2845,
      "мно": 2846,
      "год": 2847,
      "маши": 2848,
      "игра": 2849,
      "живу": 2850,
      "сол": 2851,
      "цвет": 2852,
      "никогда": 2853,
      "пора": 2854,
      "##кам": 2855,
      "##ских": 2856,
      "##вез": 2857,
      "значит": 2858,
      "поздравля": 2859,
      "##ступ": 2860,
      "##жение": 2861,
      "##рая": 2862,
      "пор": 2863,
      "даль": 2864,
      "ев": 2865,
      "объ": 2866,
      "пидор": 2867,
      "молодцы": 2868,
      "##кол": 2869,
      "наверное": 2870,
      "##ям": 2871,
      "наде": 2872,
      "##сла": 2873,
      "##тся": 2874,
      "##жен": 2875,
      "##шло": 2876,
      "ново": 2877,
      "этим": 2878,
      "вес": 2879,
      "дура": 2880,
      "##частли": 2881,
      "мир": 2882,
      "##ии": 2883,
      "забы": 2884,
      "##чется": 2885,
      "##бли": 2886,
      "человека": 2887,
      "##дол": 2888,
      "##дои": 2889,
      "вели": 2890,
      "##лыи": 2891,
      "вме": 2892,
      "дене": 2893,
      "##ровать": 2894,
      "счастли": 2895,
      "сама": 2896,
      "##нно": 2897,
      "##ал": 2898,
      "друзья": 2899,
      "мама": 2900,
      "соглас": 2901,
      "##чер": 2902,
      "дом": 2903,
      "пода": 2904,
      "ваш": 2905,
      "скоро": 2906,
      "##лые": 2907,
      "##ких": 2908,
      "выпол": 2909,
      "долбо": 2910,
      "попро": 2911,
      "место": 2912,
      "правда": 2913,
      "красота": 2914,
      "украи": 2915,
      "##20": 2916,
      "том": 2917,
      "мразь": 2918,
      "жаль": 2919,
      "одна": 2920,
      "тот": 2921,
      "исто": 2922,
      "##будь": 2923,
      "##аки": 2924,
      "здоро": 2925,
      "прези": 2926,
      "##лько": 2927,
      "##чик": 2928,
      "главное": 2929,
      "##ваи": 2930,
      "хочется": 2931,
      "##мои": 2932,
      "тя": 2933,
      "зара": 2934,
      "##шла": 2935,
      "моз": 2936,
      "зо": 2937,
      "##док": 2938,
      "такого": 2939,
      "поддер": 2940,
      "проблем": 2941,
      "одни": 2942,
      "##жить": 2943,
      "вол": 2944,
      "ули": 2945,
      "##нен": 2946,
      "нель": 2947,
      "хватает": 2948,
      "##96": 2949,
      "наи": 2950,
      "##хать": 2951,
      "думаю": 2952,
      "нее": 2953,
      "##чек": 2954,
      "заме": 2955,
      "##ек": 2956,
      "народа": 2957,
      "##ших": 2958,
      "нельзя": 2959,
      "вместе": 2960,
      "##дох": 2961,
      "ужас": 2962,
      "ссс": 2963,
      "##вра": 2964,
      "##ятся": 2965,
      "##вание": 2966,
      "память": 2967,
      "фа": 2968,
      "над": 2969,
      "хоте": 2970,
      "##зе": 2971,
      "раи": 2972,
      "ох": 2973,
      "возможно": 2974,
      "##зор": 2975,
      "малень": 2976,
      "вами": 2977,
      "##ньше": 2978,
      "серд": 2979,
      "##три": 2980,
      "ов": 2981,
      "##пре": 2982,
      "фу": 2983,
      "##строи": 2984,
      "##ван": 2985,
      "нрав": 2986,
      "##пом": 2987,
      "сти": 2988,
      "##бор": 2989,
      "президен": 2990,
      "люблю": 2991,
      "любовь": 2992,
      "имен": 2993,
      "опять": 2994,
      "живот": 2995,
      "##яв": 2996,
      "радо": 2997,
      "против": 2998,
      "##лез": 2999,
      "плохо": 3000,
      "##шку": 3001,
      "##ваю": 3002,
      "ссср": 3003,
      "##али": 3004,
      "узна": 3005,
      "##тить": 3006,
      "раньше": 3007,
      "долбоеб": 3008,
      "квар": 3009,
      "смо": 3010,
      "поэ": 3011,
      "бело": 3012,
      "нибудь": 3013,
      "которыи": 3014,
      "глу": 3015,
      "##вается": 3016,
      "##хов": 3017,
      "лег": 3018,
      "могут": 3019,
      "неу": 3020,
      "##яза": 3021,
      "мол": 3022,
      "подска": 3023,
      "случа": 3024,
      "##что": 3025,
      "более": 3026,
      "сделать": 3027,
      "поста": 3028,
      "гре": 3029,
      "мага": 3030,
      "малы": 3031,
      "вопрос": 3032,
      "##лко": 3033,
      "спи": 3034,
      "##лить": 3035,
      "людя": 3036,
      "весь": 3037,
      "твари": 3038,
      "вез": 3039,
      "##🙏🙏": 3040,
      "потер": 3041,
      "сторо": 3042,
      "моск": 3043,
      "##ок": 3044,
      "##рия": 3045,
      "счита": 3046,
      "уви": 3047,
      "побе": 3048,
      "##стер": 3049,
      "##дешь": 3050,
      "удачи": 3051,
      "##50": 3052,
      "ше": 3053,
      "##куда": 3054,
      "##чат": 3055,
      "##дра": 3056,
      "будь": 3057,
      "самое": 3058,
      "уни": 3059,
      "госу": 3060,
      "кам": 3061,
      "св": 3062,
      "году": 3063,
      "##щии": 3064,
      "туда": 3065,
      "наро": 3066,
      "отно": 3067,
      "неи": 3068,
      "##стно": 3069,
      "неб": 3070,
      "ию": 3071,
      "##нять": 3072,
      "огром": 3073,
      "##щать": 3074,
      "расстрелять": 3075,
      "##ндо": 3076,
      "зави": 3077,
      "ублю": 3078,
      "дня": 3079,
      "зво": 3080,
      "поч": 3081,
      "карты": 3082,
      "##om": 3083,
      "власти": 3084,
      "столько": 3085,
      "перед": 3086,
      "замеча": 3087,
      "бол": 3088,
      "мож": 3089,
      "нужна": 3090,
      "рез": 3091,
      "прос": 3092,
      "##рите": 3093,
      "живет": 3094,
      "хаба": 3095,
      "магази": 3096,
      "ды": 3097,
      "спе": 3098,
      "##вое": 3099,
      "таким": 3100,
      "закон": 3101,
      "##дки": 3102,
      "##воз": 3103,
      "своим": 3104,
      "##цеп": 3105,
      "##чера": 3106,
      "видно": 3107,
      "##тит": 3108,
      "пидара": 3109,
      "кварти": 3110,
      "##ске": 3111,
      "филь": 3112,
      "рот": 3113,
      "##торы": 3114,
      "поку": 3115,
      "поса": 3116,
      "дальше": 3117,
      "##ваите": 3118,
      "рядом": 3119,
      "смер": 3120,
      "##учи": 3121,
      "##лин": 3122,
      "оби": 3123,
      "друг": 3124,
      "сви": 3125,
      "##ью": 3126,
      "##оне": 3127,
      "пет": 3128,
      "бро": 3129,
      "##слу": 3130,
      "мое": 3131,
      "сты": 3132,
      "хорошии": 3133,
      "##еха": 3134,
      "преда": 3135,
      "поэтому": 3136,
      "##стов": 3137,
      "денег": 3138,
      "желаю": 3139,
      "##вед": 3140,
      "поздравляю": 3141,
      "соз": 3142,
      "благодар": 3143,
      "зав": 3144,
      "##стои": 3145,
      "##дили": 3146,
      "обяза": 3147,
      "государ": 3148,
      "##льная": 3149,
      "##цев": 3150,
      "##14": 3151,
      "##бить": 3152,
      "женщина": 3153,
      "очере": 3154,
      "знает": 3155,
      "хозяи": 3156,
      "алек": 3157,
      "глаза": 3158,
      "именно": 3159,
      "##лли": 3160,
      "лес": 3161,
      "##вым": 3162,
      "путина": 3163,
      "хабаров": 3164,
      "##нка": 3165,
      "расска": 3166,
      "закры": 3167,
      "дерев": 3168,
      "##дел": 3169,
      "мер": 3170,
      "зар": 3171,
      "##ением": 3172,
      "будем": 3173,
      "тол": 3174,
      "маль": 3175,
      "чита": 3176,
      "##мина": 3177,
      "мя": 3178,
      "##ственно": 3179,
      "вну": 3180,
      "##рали": 3181,
      "лично": 3182,
      "##🌹🌹": 3183,
      "людям": 3184,
      "стране": 3185,
      "кот": 3186,
      "сказать": 3187,
      "##кро": 3188,
      "дело": 3189,
      "сум": 3190,
      "нужен": 3191,
      "город": 3192,
      "##жал": 3193,
      "👍👍👍": 3194,
      "опла": 3195,
      "долго": 3196,
      "##рить": 3197,
      "обы": 3198,
      "нравится": 3199,
      "##лит": 3200,
      "ои": 3201,
      "доста": 3202,
      "телефо": 3203,
      "##ним": 3204,
      "девочки": 3205,
      "##пло": 3206,
      "мор": 3207,
      "##ское": 3208,
      "зарпла": 3209,
      "##сом": 3210,
      "большое": 3211,
      "размер": 3212,
      "##хуи": 3213,
      "##прави": 3214,
      "образ": 3215,
      "подо": 3216,
      "##днои": 3217,
      "равно": 3218,
      "ши": 3219,
      "слов": 3220,
      "##аа": 3221,
      "уме": 3222,
      "##ица": 3223,
      "##чии": 3224,
      "страны": 3225,
      "##жил": 3226,
      "помощь": 3227,
      "ур": 3228,
      "##олот": 3229,
      "##ствительно": 3230,
      "красивая": 3231,
      "ги": 3232,
      "##ro": 3233,
      "##дель": 3234,
      "##клю": 3235,
      "прост": 3236,
      "стро": 3237,
      "бед": 3238,
      "12": 3239,
      "рецеп": 3240,
      "этому": 3241,
      "отве": 3242,
      "##вич": 3243,
      "господи": 3244,
      "хох": 3245,
      "сооб": 3246,
      "помню": 3247,
      "##вили": 3248,
      "особ": 3249,
      "##нныи": 3250,
      "поль": 3251,
      "ребенка": 3252,
      "##in": 3253,
      "нашеи": 3254,
      "види": 3255,
      "возра": 3256,
      "беспла": 3257,
      "30": 3258,
      "стре": 3259,
      "каждо": 3260,
      "деиствительно": 3261,
      "##🤣🤣": 3262,
      "##ях": 3263,
      "##стить": 3264,
      "##вом": 3265,
      "спра": 3266,
      "све": 3267,
      "##чные": 3268,
      "деву": 3269,
      "##нки": 3270,
      "##👎👎": 3271,
      "##сан": 3272,
      "наза": 3273,
      "##мени": 3274,
      "своего": 3275,
      "90": 3276,
      "нужны": 3277,
      "рублеи": 3278,
      "завтра": 3279,
      "##жит": 3280,
      "##шите": 3281,
      "сосе": 3282,
      "уг": 3283,
      "выпла": 3284,
      "тор": 3285,
      "##вую": 3286,
      "раст": 3287,
      "язы": 3288,
      "сбер": 3289,
      "какое": 3290,
      "матер": 3291,
      "слы": 3292,
      "##щу": 3293,
      "само": 3294,
      "страна": 3295,
      "##ставля": 3296,
      "вдв": 3297,
      "неко": 3298,
      "подскажите": 3299,
      "позво": 3300,
      "##гли": 3301,
      "работать": 3302,
      "власть": 3303,
      "##вания": 3304,
      "##вого": 3305,
      "обе": 3306,
      "августа": 3307,
      "попа": 3308,
      "кур": 3309,
      "начина": 3310,
      "##пута": 3311,
      "##лья": 3312,
      "##жаю": 3313,
      "жопу": 3314,
      "##нение": 3315,
      "смотреть": 3316,
      "земля": 3317,
      "золот": 3318,
      "##дро": 3319,
      "##лки": 3320,
      "назад": 3321,
      "##вари": 3322,
      "##ряд": 3323,
      "амер": 3324,
      "учи": 3325,
      "##лка": 3326,
      "праздником": 3327,
      "##кло": 3328,
      "##нес": 3329,
      "зада": 3330,
      "##цен": 3331,
      "##щие": 3332,
      "доброе": 3333,
      "идет": 3334,
      "должны": 3335,
      "ри": 3336,
      "кончен": 3337,
      "работы": 3338,
      "коммента": 3339,
      "внима": 3340,
      "счет": 3341,
      "сли": 3342,
      "прият": 3343,
      "спас": 3344,
      "##кое": 3345,
      "##енок": 3346,
      "запа": 3347,
      "жалко": 3348,
      "месте": 3349,
      "##рам": 3350,
      "мед": 3351,
      "талан": 3352,
      "отправ": 3353,
      "##гает": 3354,
      "##гов": 3355,
      "других": 3356,
      "##ствие": 3357,
      "коз": 3358,
      "##000": 3359,
      "гри": 3360,
      "пас": 3361,
      "бывает": 3362,
      "собира": 3363,
      "одного": 3364,
      "рес": 3365,
      "оши": 3366,
      "пы": 3367,
      "##тро": 3368,
      "говорят": 3369,
      "утро": 3370,
      "##чески": 3371,
      "живут": 3372,
      "везде": 3373,
      "##ята": 3374,
      "должен": 3375,
      "послед": 3376,
      "пон": 3377,
      "идиот": 3378,
      "уров": 3379,
      "##жения": 3380,
      "приду": 3381,
      "##вести": 3382,
      "##гих": 3383,
      "мень": 3384,
      "шо": 3385,
      "блядь": 3386,
      "кроме": 3387,
      "сна": 3388,
      "сек": 3389,
      "сберба": 3390,
      "твор": 3391,
      "цар": 3392,
      "##хот": 3393,
      "##зки": 3394,
      "##79": 3395,
      "##36": 3396,
      "пример": 3397,
      "##нул": 3398,
      "##шим": 3399,
      "бере": 3400,
      "##руг": 3401,
      "жив": 3402,
      "##зм": 3403,
      "##рус": 3404,
      "бб": 3405,
      "##фе": 3406,
      "позор": 3407,
      "понятно": 3408,
      "##le": 3409,
      "##гать": 3410,
      "страну": 3411,
      "купить": 3412,
      "##фон": 3413,
      "особенно": 3414,
      "##сит": 3415,
      "##вол": 3416,
      "##нные": 3417,
      "самыи": 3418,
      "любви": 3419,
      "##ум": 3420,
      "пизда": 3421,
      "эк": 3422,
      "гото": 3423,
      "инфо": 3424,
      "##шек": 3425,
      "счастье": 3426,
      "##жки": 3427,
      "ним": 3428,
      "##te": 3429,
      "души": 3430,
      "50": 3431,
      "выб": 3432,
      "писать": 3433,
      "мет": 3434,
      "##иты": 3435,
      "выра": 3436,
      "всеи": 3437,
      "разве": 3438,
      "##ском": 3439,
      "##бло": 3440,
      "недо": 3441,
      "чув": 3442,
      "знако": 3443,
      "хле": 3444,
      "нес": 3445,
      "##чество": 3446,
      "орга": 3447,
      "чет": 3448,
      "наз": 3449,
      "обла": 3450,
      "##сят": 3451,
      "##кую": 3452,
      "##рот": 3453,
      "небес": 3454,
      "россию": 3455,
      "хотят": 3456,
      "собак": 3457,
      "мужчи": 3458,
      "никак": 3459,
      "принима": 3460,
      "##шение": 3461,
      "##38": 3462,
      "##щен": 3463,
      "##ности": 3464,
      "##ницы": 3465,
      "##рес": 3466,
      "##нуты": 3467,
      "шк": 3468,
      "сказал": 3469,
      "ино": 3470,
      "##лина": 3471,
      "мар": 3472,
      "##10": 3473,
      "##рани": 3474,
      "##емся": 3475,
      "отды": 3476,
      "ребенок": 3477,
      "дву": 3478,
      "##нется": 3479,
      "доку": 3480,
      "родители": 3481,
      "##жду": 3482,
      "##шке": 3483,
      "видео": 3484,
      "ез": 3485,
      "холо": 3486,
      "##щение": 3487,
      "уничто": 3488,
      "рабо": 3489,
      "уди": 3490,
      "ребята": 3491,
      "вечер": 3492,
      "##зывать": 3493,
      "креп": 3494,
      "созда": 3495,
      "##чке": 3496,
      "тыся": 3497,
      "вчера": 3498,
      "меч": 3499,
      "сбербанк": 3500,
      "откуда": 3501,
      "##тая": 3502,
      "##щая": 3503,
      "наших": 3504,
      "гражда": 3505,
      "работает": 3506,
      "##вка": 3507,
      "называ": 3508,
      "вещи": 3509,
      "пишите": 3510,
      "ски": 3511,
      "##гом": 3512,
      "первыи": 3513,
      "слава": 3514,
      "преле": 3515,
      "скажите": 3516,
      "пле": 3517,
      "любимы": 3518,
      "##ливать": 3519,
      "друга": 3520,
      "стыдно": 3521,
      "##лям": 3522,
      "##щее": 3523,
      "мать": 3524,
      "занима": 3525,
      "##am": 3526,
      "##фа": 3527,
      "дале": 3528,
      "большои": 3529,
      "оно": 3530,
      "##жка": 3531,
      "наше": 3532,
      "информа": 3533,
      "пого": 3534,
      "##дим": 3535,
      "##яти": 3536,
      "##или": 3537,
      "##лаин": 3538,
      "pro": 3539,
      "рем": 3540,
      "##gd": 3541,
      "лишь": 3542,
      "лука": 3543,
      "гни": 3544,
      "##рал": 3545,
      "также": 3546,
      "другие": 3547,
      "адми": 3548,
      "кри": 3549,
      "##👏👏": 3550,
      "##рую": 3551,
      "##чала": 3552,
      "чудо": 3553,
      "красави": 3554,
      "комп": 3555,
      "другои": 3556,
      "##щения": 3557,
      "хорошего": 3558,
      "меньше": 3559,
      "##вил": 3560,
      "месяц": 3561,
      "##ики": 3562,
      "зато": 3563,
      "продол": 3564,
      "##um": 3565,
      "голову": 3566,
      "встре": 3567,
      "##уль": 3568,
      "мусо": 3569,
      "хватит": 3570,
      "ого": 3571,
      "наша": 3572,
      "##19": 3573,
      "##рее": 3574,
      "kin": 3575,
      "наити": 3576,
      "ску": 3577,
      "##рит": 3578,
      "говорит": 3579,
      "##gdom": 3580,
      "kingdom": 3581,
      "16": 3582,
      "ана": 3583,
      "##цо": 3584,
      "непо": 3585,
      "согласна": 3586,
      "al": 3587,
      "##тина": 3588,
      "поми": 3589,
      "хочет": 3590,
      "работу": 3591,
      "урод": 3592,
      "##еры": 3593,
      "##мент": 3594,
      "гря": 3595,
      "сред": 3596,
      "##ил": 3597,
      "##дую": 3598,
      "милли": 3599,
      "многие": 3600,
      "##рина": 3601,
      "##вели": 3602,
      "посмотреть": 3603,
      "тупо": 3604,
      "своло": 3605,
      "сра": 3606,
      "уста": 3607,
      "запи": 3608,
      "места": 3609,
      "##пас": 3610,
      "##жешь": 3611,
      "##70": 3612,
      "##льное": 3613,
      "##fi": 3614,
      "##пор": 3615,
      "однои": 3616,
      "нахуи": 3617,
      "города": 3618,
      "произ": 3619,
      "каз": 3620,
      "либо": 3621,
      "гол": 3622,
      "лен": 3623,
      "##пать": 3624,
      "##ваются": 3625,
      "почти": 3626,
      "##поль": 3627,
      "подоб": 3628,
      "##нули": 3629,
      "писа": 3630,
      "оде": 3631,
      "##пере": 3632,
      "зако": 3633,
      "дорога": 3634,
      "##сло": 3635,
      "##16": 3636,
      "##яс": 3637,
      "зе": 3638,
      "тю": 3639,
      "чмо": 3640,
      "лит": 3641,
      "получается": 3642,
      "alb": 3643,
      "##чение": 3644,
      "сою": 3645,
      "##скую": 3646,
      "album": 3647,
      "##жили": 3648,
      "брать": 3649,
      "сда": 3650,
      "душе": 3651,
      "##❤❤": 3652,
      "пове": 3653,
      "моеи": 3654,
      "сдох": 3655,
      "##доволь": 3656,
      "##ьи": 3657,
      "##мя": 3658,
      "сох": 3659,
      "profi": 3660,
      "profile": 3661,
      "##чится": 3662,
      "спокои": 3663,
      "##ели": 3664,
      "##чеи": 3665,
      "##нец": 3666,
      "руко": 3667,
      "##пуска": 3668,
      "самого": 3669,
      "сре": 3670,
      "##сол": 3671,
      "подума": 3672,
      "##шения": 3673,
      "пов": 3674,
      "пидоры": 3675,
      "здорово": 3676,
      "##12": 3677,
      "##так": 3678,
      "##ницу": 3679,
      "прово": 3680,
      "делают": 3681,
      "терп": 3682,
      "ссы": 3683,
      "##рм": 3684,
      "##рки": 3685,
      "времени": 3686,
      "ооо": 3687,
      "наб": 3688,
      "браво": 3689,
      "##ющии": 3690,
      "можете": 3691,
      "##ame": 3692,
      "##кт": 3693,
      "евро": 3694,
      "кита": 3695,
      "##72": 3696,
      "обязательно": 3697,
      "ны": 3698,
      "влади": 3699,
      "постоя": 3700,
      "дорого": 3701,
      "талант": 3702,
      "девочка": 3703,
      "ук": 3704,
      "состоя": 3705,
      "воспита": 3706,
      "взять": 3707,
      "##18": 3708,
      "вкусно": 3709,
      "тяже": 3710,
      "##ети": 3711,
      "реши": 3712,
      "стать": 3713,
      "40": 3714,
      "game": 3715,
      "вроде": 3716,
      "##лку": 3717,
      "быстро": 3718,
      "##сили": 3719,
      "маи": 3720,
      "продам": 3721,
      "своими": 3722,
      "семья": 3723,
      "умни": 3724,
      "##tem": 3725,
      "item": 3726,
      "##30": 3727,
      "защ": 3728,
      "телефон": 3729,
      "сердце": 3730,
      "14": 3731,
      "##льных": 3732,
      "депута": 3733,
      "##ностью": 3734,
      "прелесть": 3735,
      "##рко": 3736,
      "##щих": 3737,
      "##жо": 3738,
      "##лои": 3739,
      "суки": 3740,
      "ред": 3741,
      "1596": 3742,
      "воло": 3743,
      "##гре": 3744,
      "право": 3745,
      "прям": 3746,
      "видимо": 3747,
      "##ющих": 3748,
      "нормально": 3749,
      "кг": 3750,
      "поб": 3751,
      "воды": 3752,
      "дев": 3753,
      "понрави": 3754,
      "еди": 3755,
      "##76": 3756,
      "##тора": 3757,
      "неск": 3758,
      "цену": 3759,
      "яица": 3760,
      "детям": 3761,
      "бред": 3762,
      "##тин": 3763,
      "##етесь": 3764,
      "которо": 3765,
      "нах": 3766,
      "##ходят": 3767,
      "##нах": 3768,
      "выгля": 3769,
      "##щего": 3770,
      "немного": 3771,
      "##ева": 3772,
      "##нит": 3773,
      "##15": 3774,
      "придет": 3775,
      "##жели": 3776,
      "меди": 3777,
      "сих": 3778,
      "уважа": 3779,
      "напишите": 3780,
      "мужик": 3781,
      "две": 3782,
      "пот": 3783,
      "выполнен": 3784,
      "ап": 3785,
      "понимаю": 3786,
      "fr": 3787,
      "тобои": 3788,
      "##писа": 3789,
      "##итин": 3790,
      "##дил": 3791,
      "оте": 3792,
      "изви": 3793,
      "которая": 3794,
      "нач": 3795,
      "##стью": 3796,
      "винова": 3797,
      "##ант": 3798,
      "чо": 3799,
      "раду": 3800,
      "плате": 3801,
      "пья": 3802,
      "провер": 3803,
      "добрые": 3804,
      "жили": 3805,
      "##баты": 3806,
      "должно": 3807,
      "свобо": 3808,
      "нена": 3809,
      "##ваем": 3810,
      "##нию": 3811,
      "правитель": 3812,
      "##езжа": 3813,
      "##пить": 3814,
      "##шее": 3815,
      "200": 3816,
      "взрос": 3817,
      "фаши": 3818,
      "зи": 3819,
      "##бас": 3820,
      "##75": 3821,
      "смы": 3822,
      "уча": 3823,
      "фе": 3824,
      "##бки": 3825,
      "##78": 3826,
      "алексан": 3827,
      "##вле": 3828,
      "зб": 3829,
      "ци": 3830,
      "хорош": 3831,
      "осталось": 3832,
      "некоторы": 3833,
      "##хва": 3834,
      "говорить": 3835,
      "##тия": 3836,
      "потеря": 3837,
      "##рб": 3838,
      "##тки": 3839,
      "сделал": 3840,
      "##дера": 3841,
      "##него": 3842,
      "игру": 3843,
      "чб": 3844,
      "выру": 3845,
      "бре": 3846,
      "##хом": 3847,
      "ами": 3848,
      "##зации": 3849,
      "цены": 3850,
      "##ющие": 3851,
      "##ствия": 3852,
      "сте": 3853,
      "##лия": 3854,
      "коман": 3855,
      "блять": 3856,
      "##итуа": 3857,
      "##нови": 3858,
      "онлаин": 3859,
      "##дка": 3860,
      "какую": 3861,
      "##мить": 3862,
      "##чие": 3863,
      "оз": 3864,
      "поги": 3865,
      "деле": 3866,
      "важно": 3867,
      "делает": 3868,
      "хотите": 3869,
      "##сле": 3870,
      "днеи": 3871,
      "##шком": 3872,
      "##гами": 3873,
      "##ствует": 3874,
      "белору": 3875,
      "аб": 3876,
      "ради": 3877,
      "выс": 3878,
      "##тили": 3879,
      "годы": 3880,
      "слово": 3881,
      "сро": 3882,
      "##нать": 3883,
      "соба": 3884,
      "##рень": 3885,
      "суще": 3886,
      "покупа": 3887,
      "кли": 3888,
      "ситуа": 3889,
      "повер": 3890,
      "##чешь": 3891,
      "вашеи": 3892,
      "страш": 3893,
      "продаж": 3894,
      "золотые": 3895,
      "поро": 3896,
      "личку": 3897,
      "18": 3898,
      "оказа": 3899,
      "##пра": 3900,
      "##гите": 3901,
      "##щеи": 3902,
      "нечего": 3903,
      "выбо": 3904,
      "##ган": 3905,
      "трудно": 3906,
      "жу": 3907,
      "посту": 3908,
      "##щаться": 3909,
      "комментарии": 3910,
      "наход": 3911,
      "тел": 3912,
      "мальчи": 3913,
      "80": 3914,
      "вм": 3915,
      "улы": 3916,
      "поя": 3917,
      "посо": 3918,
      "##ота": 3919,
      "пропа": 3920,
      "бук": 3921,
      "строи": 3922,
      "школ": 3923,
      "##гур": 3924,
      "реально": 3925,
      "##тяб": 3926,
      "несколько": 3927,
      "причем": 3928,
      "куп": 3929,
      "между": 3930,
      "саха": 3931,
      "чуть": 3932,
      "кажется": 3933,
      "см": 3934,
      "##бол": 3935,
      "##ским": 3936,
      "забрать": 3937,
      "благодарю": 3938,
      "дес": 3939,
      "пси": 3940,
      "##ор": 3941,
      "##др": 3942,
      "##лер": 3943,
      "##ета": 3944,
      "самые": 3945,
      "ремон": 3946,
      "высо": 3947,
      "собака": 3948,
      "похоже": 3949,
      "вста": 3950,
      "##роб": 3951,
      "замечатель": 3952,
      "25": 3953,
      "##их": 3954,
      "плат": 3955,
      "красивые": 3956,
      "получатель": 3957,
      "##💋💋": 3958,
      "нака": 3959,
      "нако": 3960,
      "ната": 3961,
      "ума": 3962,
      "придума": 3963,
      "##няя": 3964,
      "##помина": 3965,
      "площа": 3966,
      "фак": 3967,
      "шлю": 3968,
      "ноги": 3969,
      "владими": 3970,
      "офи": 3971,
      "утра": 3972,
      "##кон": 3973,
      "мире": 3974,
      "сильно": 3975,
      "мужчина": 3976,
      "образо": 3977,
      "аминь": 3978,
      "##жь": 3979,
      "##74": 3980,
      "##13": 3981,
      "заво": 3982,
      "##дишь": 3983,
      "перевод": 3984,
      "##рах": 3985,
      "неде": 3986,
      "проти": 3987,
      "испол": 3988,
      "капита": 3989,
      "##шенко": 3990,
      "матери": 3991,
      "крем": 3992,
      "буд": 3993,
      "хорошая": 3994,
      "##дали": 3995,
      "вечная": 3996,
      "##юда": 3997,
      "##чения": 3998,
      "какого": 3999,
      "##стан": 4000,
      "##пусти": 4001,
      "снима": 4002,
      "##28": 4003,
      "ночь": 4004,
      "попробу": 4005,
      "малыш": 4006,
      "новыи": 4007,
      "мест": 4008,
      "должна": 4009,
      "##ых": 4010,
      "необ": 4011,
      "мини": 4012,
      "##графи": 4013,
      "огромное": 4014,
      "##ися": 4015,
      "раза": 4016,
      "хуже": 4017,
      "неужели": 4018,
      "стен": 4019,
      "фор": 4020,
      "##тик": 4021,
      "страшно": 4022,
      "органи": 4023,
      "мнение": 4024,
      "видела": 4025,
      "##лых": 4026,
      "заработ": 4027,
      "достои": 4028,
      "резуль": 4029,
      "рецепт": 4030,
      "доброго": 4031,
      "уроды": 4032,
      "ор": 4033,
      "сту": 4034,
      "судь": 4035,
      "отлично": 4036,
      "пти": 4037,
      "готов": 4038,
      "пара": 4039,
      "знают": 4040,
      "стои": 4041,
      "возь": 4042,
      "посадить": 4043,
      "##работ": 4044,
      "##рию": 4045,
      "##мая": 4046,
      "бела": 4047,
      "результа": 4048,
      "##щем": 4049,
      "##неш": 4050,
      "узнать": 4051,
      "##шко": 4052,
      "нали": 4053,
      "##дает": 4054,
      "##есси": 4055,
      "пенсии": 4056,
      "глаз": 4057,
      "##ческии": 4058,
      "пенсион": 4059,
      "второи": 4060,
      "кни": 4061,
      "##стри": 4062,
      "спро": 4063,
      "##тура": 4064,
      "##зов": 4065,
      "показа": 4066,
      "прямо": 4067,
      "мак": 4068,
      "##жде": 4069,
      "поря": 4070,
      "боже": 4071,
      "собои": 4072,
      "иск": 4073,
      "##били": 4074,
      "автор": 4075,
      "кем": 4076,
      "##пеи": 4077,
      "##тии": 4078,
      "папа": 4079,
      "хорошие": 4080,
      "родителеи": 4081,
      "герои": 4082,
      "сначала": 4083,
      "прошло": 4084,
      "##воль": 4085,
      "написано": 4086,
      "будешь": 4087,
      "наверно": 4088,
      "красавица": 4089,
      "сделали": 4090,
      "сказали": 4091,
      "сумма": 4092,
      "иде": 4093,
      "стары": 4094,
      "##олез": 4095,
      "проду": 4096,
      "низ": 4097,
      "##кола": 4098,
      "##гии": 4099,
      "стали": 4100,
      "здоровье": 4101,
      "красивыи": 4102,
      "заслу": 4103,
      "вспом": 4104,
      "бч": 4105,
      "сот": 4106,
      "##кли": 4107,
      "гос": 4108,
      "##чаите": 4109,
      "сказано": 4110,
      "##нам": 4111,
      "кана": 4112,
      "соболез": 4113,
      "масло": 4114,
      "знать": 4115,
      "##зывают": 4116,
      "##грам": 4117,
      "##клады": 4118,
      "удоволь": 4119,
      "##голо": 4120,
      "проис": 4121,
      "иногда": 4122,
      "выше": 4123,
      "убивать": 4124,
      "народу": 4125,
      "##дают": 4126,
      "двух": 4127,
      "отправи": 4128,
      "старо": 4129,
      "сын": 4130,
      "зат": 4131,
      "пришли": 4132,
      "предло": 4133,
      "вет": 4134,
      "нало": 4135,
      "тому": 4136,
      "сожал": 4137,
      "##шить": 4138,
      "арми": 4139,
      "настоящии": 4140,
      "13": 4141,
      "ул": 4142,
      "бар": 4143,
      "держать": 4144,
      "##цион": 4145,
      "нашего": 4146,
      "##ниц": 4147,
      "будьте": 4148,
      "цве": 4149,
      "##oi": 4150,
      "##цов": 4151,
      "хотелось": 4152,
      "фурга": 4153,
      "уго": 4154,
      "городе": 4155,
      "твареи": 4156,
      "##вались": 4157,
      "##ик": 4158,
      "настро": 4159,
      "вижу": 4160,
      "расс": 4161,
      "женщины": 4162,
      "сожалению": 4163,
      "##рами": 4164,
      "достав": 4165,
      "##ольше": 4166,
      "разные": 4167,
      "##ьте": 4168,
      "покло": 4169,
      "бесплатно": 4170,
      "##того": 4171,
      "коми": 4172,
      "##ходить": 4173,
      "карту": 4174,
      "##сно": 4175,
      "##нят": 4176,
      "стало": 4177,
      "тур": 4178,
      "специ": 4179,
      "совер": 4180,
      "##мов": 4181,
      "удоб": 4182,
      "уеб": 4183,
      "##кти": 4184,
      "##гло": 4185,
      "разме": 4186,
      "шу": 4187,
      "нео": 4188,
      "##лага": 4189,
      "##👍👍👍": 4190,
      "##евна": 4191,
      "пенсию": 4192,
      "##тыи": 4193,
      "долба": 4194,
      "пишут": 4195,
      "близ": 4196,
      "##лови": 4197,
      "домои": 4198,
      "горо": 4199,
      "обще": 4200,
      "актер": 4201,
      "господь": 4202,
      "зу": 4203,
      "хер": 4204,
      "##45": 4205,
      "##стеи": 4206,
      "##ссия": 4207,
      "твоя": 4208,
      "умничка": 4209,
      "##дила": 4210,
      "мрази": 4211,
      "гряз": 4212,
      "##пот": 4213,
      "##ливо": 4214,
      "каза": 4215,
      "мозги": 4216,
      "каждого": 4217,
      "00": 4218,
      "плю": 4219,
      "##лии": 4220,
      "быд": 4221,
      "дож": 4222,
      "суд": 4223,
      "##рка": 4224,
      "##менты": 4225,
      "случаи": 4226,
      "голу": 4227,
      "разго": 4228,
      "муд": 4229,
      "ас": 4230,
      "убить": 4231,
      "поддержи": 4232,
      "осо": 4233,
      "##тныи": 4234,
      "выи": 4235,
      "##тели": 4236,
      "посмотрите": 4237,
      "гро": 4238,
      "ждать": 4239,
      "ина": 4240,
      "##нения": 4241,
      "растре": 4242,
      "девушка": 4243,
      "##рят": 4244,
      "замет": 4245,
      "огур": 4246,
      "море": 4247,
      "##чая": 4248,
      "белару": 4249,
      "лез": 4250,
      "##жку": 4251,
      "мира": 4252,
      "вв": 4253,
      "дво": 4254,
      "##итать": 4255,
      "полностью": 4256,
      "деше": 4257,
      "чек": 4258,
      "стар": 4259,
      "газ": 4260,
      "которых": 4261,
      "земле": 4262,
      "часто": 4263,
      "друзеи": 4264,
      "успехов": 4265,
      "дать": 4266,
      "светлая": 4267,
      "стрелять": 4268,
      "вместо": 4269,
      "скорее": 4270,
      "полити": 4271,
      "вб": 4272,
      "съ": 4273,
      "##рож": 4274,
      "##тила": 4275,
      "самая": 4276,
      "заказ": 4277,
      "дебил": 4278,
      "мечта": 4279,
      "знаете": 4280,
      "семье": 4281,
      "одну": 4282,
      "приятно": 4283,
      "китаи": 4284,
      "оли": 4285,
      "обу": 4286,
      "плать": 4287,
      "способ": 4288,
      "обожаю": 4289,
      "имеет": 4290,
      "ними": 4291,
      "##шает": 4292,
      "голосо": 4293,
      "помидо": 4294,
      "##лена": 4295,
      "##гру": 4296,
      "другим": 4297,
      "крепкого": 4298,
      "тысяч": 4299,
      "##35": 4300,
      "прожи": 4301,
      "каком": 4302,
      "понять": 4303,
      "пыта": 4304,
      "граждан": 4305,
      "шика": 4306,
      "##ия": 4307,
      "##нер": 4308,
      "приго": 4309,
      "хочешь": 4310,
      "минут": 4311,
      "умница": 4312,
      "небесное": 4313,
      "зап": 4314,
      "бом": 4315,
      "молоде": 4316,
      "фильм": 4317,
      "свер": 4318,
      "##лам": 4319,
      "каче": 4320,
      "группа": 4321,
      "лукашенко": 4322,
      "дви": 4323,
      "хи": 4324,
      "отс": 4325,
      "чуде": 4326,
      "арти": 4327,
      "##90": 4328,
      "##вила": 4329,
      "лиш": 4330,
      "стал": 4331,
      "ваше": 4332,
      "будете": 4333,
      "##зывает": 4334,
      "##руют": 4335,
      "##дете": 4336,
      "стоя": 4337,
      "огра": 4338,
      "дал": 4339,
      "отдыха": 4340,
      "постоянно": 4341,
      "##бил": 4342,
      "президент": 4343,
      "шикар": 4344,
      "кас": 4345,
      "оско": 4346,
      "##жем": 4347,
      "возвра": 4348,
      "написать": 4349,
      "зелен": 4350,
      "##нная": 4351,
      "добра": 4352,
      "адрес": 4353,
      "утром": 4354,
      "впере": 4355,
      "ль": 4356,
      "поля": 4357,
      "чему": 4358,
      "карто": 4359,
      "11": 4360,
      "пят": 4361,
      "рф": 4362,
      "##нете": 4363,
      "подар": 4364,
      "##нами": 4365,
      "##чает": 4366,
      "мастер": 4367,
      "##гар": 4368,
      "##жали": 4369,
      "##чнои": 4370,
      "русскии": 4371,
      "украине": 4372,
      "гер": 4373,
      "увер": 4374,
      "ябло": 4375,
      "пово": 4376,
      "каких": 4377,
      "ненави": 4378,
      "аль": 4379,
      "звез": 4380,
      "##кто": 4381,
      "##вки": 4382,
      "моему": 4383,
      "классно": 4384,
      "труд": 4385,
      "##нили": 4386,
      "##лье": 4387,
      "стату": 4388,
      "вклю": 4389,
      "##ело": 4390,
      "##жут": 4391,
      "бор": 4392,
      "сына": 4393,
      "мен": 4394,
      "срав": 4395,
      "##сужда": 4396,
      "##днии": 4397,
      "опы": 4398,
      "лени": 4399,
      "сни": 4400,
      "ца": 4401,
      "пожи": 4402,
      "любои": 4403,
      "самои": 4404,
      "##кова": 4405,
      "слад": 4406,
      "группы": 4407,
      "иначе": 4408,
      "##все": 4409,
      "##40": 4410,
      "##рут": 4411,
      "##чики": 4412,
      "улице": 4413,
      "😂😂😂": 4414,
      "##95": 4415,
      "##80": 4416,
      "##25": 4417,
      "молоды": 4418,
      "бабушка": 4419,
      "##нт": 4420,
      "проф": 4421,
      "дали": 4422,
      "подру": 4423,
      "друж": 4424,
      "работают": 4425,
      "семьи": 4426,
      "ост": 4427,
      "участ": 4428,
      "элек": 4429,
      "деть": 4430,
      "красоту": 4431,
      "брат": 4432,
      "##нице": 4433,
      "сом": 4434,
      "##мом": 4435,
      "дебилы": 4436,
      "##тр": 4437,
      "вок": 4438,
      "##мор": 4439,
      "переда": 4440,
      "умер": 4441,
      "эко": 4442,
      "##коль": 4443,
      "подели": 4444,
      "##няли": 4445,
      "видел": 4446,
      "дем": 4447,
      "снова": 4448,
      "##нистра": 4449,
      "такими": 4450,
      "сим": 4451,
      "простои": 4452,
      "вопросы": 4453,
      "живем": 4454,
      "##ены": 4455,
      "##лик": 4456,
      "##льник": 4457,
      "богу": 4458,
      "необходи": 4459,
      "даваите": 4460,
      "##скать": 4461,
      "чисто": 4462,
      "поклон": 4463,
      "##рала": 4464,
      "заеб": 4465,
      "далеко": 4466,
      "коло": 4467,
      "##мся": 4468,
      "##тое": 4469,
      "награ": 4470,
      "##сил": 4471,
      "##ходите": 4472,
      "любит": 4473,
      "уважаем": 4474,
      "доме": 4475,
      "##шься": 4476,
      "кло": 4477,
      "ока": 4478,
      "##вался": 4479,
      "##шин": 4480,
      "70": 4481,
      "##ями": 4482,
      "##меня": 4483,
      "##чкои": 4484,
      "##нием": 4485,
      "сил": 4486,
      "##ешься": 4487,
      "печа": 4488,
      "случае": 4489,
      "##ьез": 4490,
      "##еты": 4491,
      "верну": 4492,
      "исполь": 4493,
      "твое": 4494,
      "##нин": 4495,
      "защи": 4496,
      "##бирать": 4497,
      "телефона": 4498,
      "обеща": 4499,
      "сен": 4500,
      "##дное": 4501,
      "душа": 4502,
      "уродов": 4503,
      "##фу": 4504,
      "дата": 4505,
      "##сок": 4506,
      "став": 4507,
      "верно": 4508,
      "типа": 4509,
      "август": 4510,
      "администра": 4511,
      "бз": 4512,
      "##нда": 4513,
      "##нику": 4514,
      "##есо": 4515,
      "опре": 4516,
      "##атья": 4517,
      "знаешь": 4518,
      "никому": 4519,
      "анге": 4520,
      "##нень": 4521,
      "##рин": 4522,
      "коли": 4523,
      "стара": 4524,
      "паль": 4525,
      "неделю": 4526,
      "повы": 4527,
      "бляди": 4528,
      "школе": 4529,
      "еф": 4530,
      "митин": 4531,
      "##ктор": 4532,
      "##ьют": 4533,
      "##ехать": 4534,
      "##26": 4535,
      "##дек": 4536,
      "##жела": 4537,
      "ходить": 4538,
      "вари": 4539,
      "одним": 4540,
      "хозяистве": 4541,
      "60": 4542,
      "ура": 4543,
      "##чень": 4544,
      "смотрю": 4545,
      "блин": 4546,
      "зло": 4547,
      "читать": 4548,
      "код": 4549,
      "2020": 4550,
      "воины": 4551,
      "татья": 4552,
      "довер": 4553,
      "вода": 4554,
      "никола": 4555,
      "твою": 4556,
      "прекрасно": 4557,
      "мужики": 4558,
      "язык": 4559,
      "##лят": 4560,
      "вид": 4561,
      "мило": 4562,
      "дерь": 4563,
      "заказать": 4564,
      "месяца": 4565,
      "внимание": 4566,
      "называется": 4567,
      "детьми": 4568,
      "дого": 4569,
      "##тые": 4570,
      "ищу": 4571,
      "пошел": 4572,
      "##рито": 4573,
      "##руб": 4574,
      "##ссии": 4575,
      "посмотри": 4576,
      "500": 4577,
      "кара": 4578,
      "пару": 4579,
      "красав": 4580,
      "терпения": 4581,
      "оль": 4582,
      "##дия": 4583,
      "бара": 4584,
      "переста": 4585,
      "часть": 4586,
      "легко": 4587,
      "союз": 4588,
      "жена": 4589,
      "сб": 4590,
      "##жды": 4591,
      "##мм": 4592,
      "реги": 4593,
      "комму": 4594,
      "нашли": 4595,
      "##цам": 4596,
      "пога": 4597,
      "##рон": 4598,
      "никого": 4599,
      "##страи": 4600,
      "родителям": 4601,
      "полови": 4602,
      "##24": 4603,
      "##жала": 4604,
      "семеи": 4605,
      "любить": 4606,
      "##номи": 4607,
      "нами": 4608,
      "##ителеи": 4609,
      "подпи": 4610,
      "смешно": 4611,
      "будто": 4612,
      "##них": 4613,
      "стол": 4614,
      "интернет": 4615,
      "##фор": 4616,
      "смерть": 4617,
      "спраши": 4618,
      "золо": 4619,
      "исти": 4620,
      "уто": 4621,
      "отде": 4622,
      "мин": 4623,
      "##бка": 4624,
      "##ее": 4625,
      "##уу": 4626,
      "##нила": 4627,
      "заяв": 4628,
      "##дии": 4629,
      "восто": 4630,
      "##вест": 4631,
      "поняла": 4632,
      "##ехали": 4633,
      "дон": 4634,
      "дают": 4635,
      "смотри": 4636,
      "##ала": 4637,
      "##нев": 4638,
      "водите": 4639,
      "##выми": 4640,
      "алка": 4641,
      "добавля": 4642,
      "болез": 4643,
      "ефрем": 4644,
      "прин": 4645,
      "##жие": 4646,
      "большая": 4647,
      "помочь": 4648,
      "полныи": 4649,
      "поменя": 4650,
      "пету": 4651,
      "погиб": 4652,
      "##рена": 4653,
      "##вок": 4654,
      "подроб": 4655,
      "ебу": 4656,
      "отор": 4657,
      "сидит": 4658,
      "требу": 4659,
      "поме": 4660,
      "##ебе": 4661,
      "##нула": 4662,
      "возду": 4663,
      "документа": 4664,
      "оскорб": 4665,
      "научи": 4666,
      "##енныи": 4667,
      "надеюсь": 4668,
      "моего": 4669,
      "америка": 4670,
      "бать": 4671,
      "сша": 4672,
      "##лении": 4673,
      "##рует": 4674,
      "##жат": 4675,
      "побольше": 4676,
      "нету": 4677,
      "благопол": 4678,
      "террито": 4679,
      "животных": 4680,
      "хлеб": 4681,
      "мусор": 4682,
      "отец": 4683,
      "##♥♥": 4684,
      "##жают": 4685,
      "следу": 4686,
      "продук": 4687,
      "тран": 4688,
      "полез": 4689,
      "##лах": 4690,
      "##ема": 4691,
      "##ителя": 4692,
      "##бом": 4693,
      "своем": 4694,
      "реа": 4695,
      "красно": 4696,
      "диа": 4697,
      "выручаите": 4698,
      "17": 4699,
      "зря": 4700,
      "ид": 4701,
      "ото": 4702,
      "сва": 4703,
      "##сеи": 4704,
      "##пли": 4705,
      "##льным": 4706,
      "##ляет": 4707,
      "тыс": 4708,
      "##чного": 4709,
      "дорогие": 4710,
      "васи": 4711,
      "уз": 4712,
      "лето": 4713,
      "фотографи": 4714,
      "добавить": 4715,
      "объяс": 4716,
      "сюда": 4717,
      "штра": 4718,
      "##пая": 4719,
      "государство": 4720,
      "амери": 4721,
      "##98": 4722,
      "мат": 4723,
      "стоят": 4724,
      "находится": 4725,
      "ива": 4726,
      "оху": 4727,
      "##цем": 4728,
      "поп": 4729,
      "##вец": 4730,
      "самом": 4731,
      "гандо": 4732,
      "##читать": 4733,
      "##дю": 4734,
      "поле": 4735,
      "##кор": 4736,
      "пробо": 4737,
      "сос": 4738,
      "желез": 4739,
      "стороны": 4740,
      "магазин": 4741,
      "двер": 4742,
      "##сса": 4743,
      "##хе": 4744,
      "выход": 4745,
      "дороги": 4746,
      "пиздец": 4747,
      "медици": 4748,
      "ищ": 4749,
      "нап": 4750,
      "воду": 4751,
      "бал": 4752,
      "бло": 4753,
      "наци": 4754,
      "##класс": 4755,
      "объяв": 4756,
      "слишком": 4757,
      "нау": 4758,
      "##мать": 4759,
      "маски": 4760,
      "проблемы": 4761,
      "хотела": 4762,
      "статус": 4763,
      "хрен": 4764,
      "прис": 4765,
      "приро": 4766,
      "лицо": 4767,
      "тихо": 4768,
      "уровень": 4769,
      "десант": 4770,
      "##нил": 4771,
      "##дость": 4772,
      "говно": 4773,
      "##стати": 4774,
      "##жим": 4775,
      "другу": 4776,
      "врач": 4777,
      "основ": 4778,
      "родствен": 4779,
      "уксу": 4780,
      "шта": 4781,
      "##сер": 4782,
      "горя": 4783,
      "права": 4784,
      "08": 4785,
      "забот": 4786,
      "даваи": 4787,
      "насел": 4788,
      "вдруг": 4789,
      "удив": 4790,
      "##нат": 4791,
      "рос": 4792,
      "##вут": 4793,
      "300": 4794,
      "lo": 4795,
      "хран": 4796,
      "прош": 4797,
      "##пои": 4798,
      "тепло": 4799,
      "сидеть": 4800,
      "украин": 4801,
      "фон": 4802,
      "храни": 4803,
      "##73": 4804,
      "##мость": 4805,
      "судить": 4806,
      "##ствием": 4807,
      "8oi": 4808,
      "пр": 4809,
      "цер": 4810,
      "неда": 4811,
      "сове": 4812,
      "##дьми": 4813,
      "работе": 4814,
      "перем": 4815,
      "клу": 4816,
      "ля": 4817,
      "трав": 4818,
      "##нке": 4819,
      "##ент": 4820,
      "##сила": 4821,
      "аи": 4822,
      "ага": 4823,
      "вак": 4824,
      "дро": 4825,
      "##60": 4826,
      "кост": 4827,
      "дан": 4828,
      "##гия": 4829,
      "пуска": 4830,
      "пад": 4831,
      "сидят": 4832,
      "помога": 4833,
      "слуша": 4834,
      "взгля": 4835,
      "дам": 4836,
      "чес": 4837,
      "напри": 4838,
      "прошу": 4839,
      "воро": 4840,
      "##мут": 4841,
      "ваша": 4842,
      "музы": 4843,
      "перес": 4844,
      "согласен": 4845,
      "появи": 4846,
      "ждем": 4847,
      "##нку": 4848,
      "заи": 4849,
      "кос": 4850,
      "отка": 4851,
      "новые": 4852,
      "пиндо": 4853,
      "боя": 4854,
      "служ": 4855,
      "радость": 4856,
      "квартиру": 4857,
      "повесить": 4858,
      "заболе": 4859,
      "долбоебы": 4860,
      "долбаеб": 4861,
      "##чных": 4862,
      "проц": 4863,
      "призна": 4864,
      "##жает": 4865,
      "хотел": 4866,
      "пл": 4867,
      "##23": 4868,
      "##ститу": 4869,
      "разре": 4870,
      "краи": 4871,
      "дает": 4872,
      "##чили": 4873,
      "людьми": 4874,
      "времена": 4875,
      "игро": 4876,
      "ублюдок": 4877,
      "мужчины": 4878,
      "един": 4879,
      "кстати": 4880,
      "прок": 4881,
      "##жаи": 4882,
      "около": 4883,
      "дорогая": 4884,
      "извините": 4885,
      "повез": 4886,
      "дочь": 4887,
      "##езд": 4888,
      "хорошее": 4889,
      "продали": 4890,
      "геро": 4891,
      "уи": 4892,
      "убе": 4893,
      "##пец": 4894,
      "##нье": 4895,
      "цветы": 4896,
      "##дныи": 4897,
      "##нял": 4898,
      "##гут": 4899,
      "родину": 4900,
      "многих": 4901,
      "ожи": 4902,
      "##ваете": 4903,
      "##дая": 4904,
      "быв": 4905,
      "изде": 4906,
      "##44": 4907,
      "сосать": 4908,
      "президента": 4909,
      "##ила": 4910,
      "##фф": 4911,
      "##рела": 4912,
      "##ляют": 4913,
      "##циеи": 4914,
      "конца": 4915,
      "##рован": 4916,
      "говорю": 4917,
      "соболезнова": 4918,
      "обои": 4919,
      "уми": 4920,
      "##итут": 4921,
      "моро": 4922,
      "преступ": 4923,
      "##зии": 4924,
      "собаки": 4925,
      "чаи": 4926,
      "сволочь": 4927,
      "тюрь": 4928,
      "например": 4929,
      "фами": 4930,
      "хри": 4931,
      "##ина": 4932,
      "засу": 4933,
      "забер": 4934,
      "##тие": 4935,
      "делаю": 4936,
      "карти": 4937,
      "часов": 4938,
      "ответить": 4939,
      "любимыи": 4940,
      "жду": 4941,
      "##мите": 4942,
      "##реб": 4943,
      "другое": 4944,
      "группе": 4945,
      "знакомы": 4946,
      "благополучи": 4947,
      "внут": 4948,
      "##пет": 4949,
      "очко": 4950,
      "стари": 4951,
      "служил": 4952,
      "пидорасы": 4953,
      "солны": 4954,
      "##гам": 4955,
      "построи": 4956,
      "##водите": 4957,
      "суда": 4958,
      "сист": 4959,
      "невоз": 4960,
      "##ители": 4961,
      "привы": 4962,
      "пригла": 4963,
      "раион": 4964,
      "справед": 4965,
      "мог": 4966,
      "стер": 4967,
      "возраст": 4968,
      "##жныи": 4969,
      "##мит": 4970,
      "##геи": 4971,
      "нашу": 4972,
      "##публи": 4973,
      "жопа": 4974,
      "вашим": 4975,
      "проблема": 4976,
      "хабаровск": 4977,
      "тяжело": 4978,
      "быдло": 4979,
      "татьяна": 4980,
      "вст": 4981,
      "##кар": 4982,
      "##луч": 4983,
      "вечно": 4984,
      "имя": 4985,
      "платить": 4986,
      "нашим": 4987,
      "обычно": 4988,
      "дра": 4989,
      "нару": 4990,
      "разо": 4991,
      "практи": 4992,
      "русские": 4993,
      "ваших": 4994,
      "история": 4995,
      "области": 4996,
      "герма": 4997,
      "ах": 4998,
      "##лев": 4999,
      "разру": 5000,
      "прежде": 5001,
      "##дного": 5002,
      "всему": 5003,
      "слыша": 5004,
      "шту": 5005,
      "##65": 5006,
      "##99": 5007,
      "пожела": 5008,
      "нарко": 5009,
      "##резать": 5010,
      "подве": 5011,
      "голове": 5012,
      "мамы": 5013,
      "воиска": 5014,
      "отдам": 5015,
      "забыли": 5016,
      "некоторые": 5017,
      "происходит": 5018,
      "ито": 5019,
      "##💐💐": 5020,
      "##рук": 5021,
      "соли": 5022,
      "##мат": 5023,
      "##ством": 5024,
      "услови": 5025,
      "ебать": 5026,
      "крым": 5027,
      "солн": 5028,
      "звоните": 5029,
      "экономи": 5030,
      "сентяб": 5031,
      "##шкои": 5032,
      "##точно": 5033,
      "##стую": 5034,
      "приезжа": 5035,
      "мужа": 5036,
      "пережи": 5037,
      "долгих": 5038,
      "земли": 5039,
      "##оны": 5040,
      "вашу": 5041,
      "остальные": 5042,
      "помогает": 5043,
      "благ": 5044,
      "прочита": 5045,
      "воров": 5046,
      "##стом": 5047,
      "##зал": 5048,
      "##льнои": 5049,
      "верю": 5050,
      "любят": 5051,
      "видели": 5052,
      "иметь": 5053,
      "среди": 5054,
      "воню": 5055,
      "##теля": 5056,
      "бои": 5057,
      "чуж": 5058,
      "праздник": 5059,
      "бв": 5060,
      "##рел": 5061,
      "##ставить": 5062,
      "##тесь": 5063,
      "##пок": 5064,
      "убии": 5065,
      "ат": 5066,
      "аж": 5067,
      "гля": 5068,
      "постав": 5069,
      "моли": 5070,
      "##никам": 5071,
      "низкии": 5072,
      "идти": 5073,
      "дя": 5074,
      "ждет": 5075,
      "оди": 5076,
      "фан": 5077,
      "##еш": 5078,
      "покол": 5079,
      "человеку": 5080,
      "##ческие": 5081,
      "км": 5082,
      "пять": 5083,
      "##чите": 5084,
      "##дал": 5085,
      "##тах": 5086,
      "##ступа": 5087,
      "чинов": 5088,
      "операция": 5089,
      "##енные": 5090,
      "можешь": 5091,
      "поднима": 5092,
      "кури": 5093,
      "патри": 5094,
      "ебануты": 5095,
      "получить": 5096,
      "стихи": 5097,
      "мясо": 5098,
      "пиздабол": 5099,
      "комиссия": 5100,
      "позо": 5101,
      "##енная": 5102,
      "подсол": 5103,
      "измени": 5104,
      "сила": 5105,
      "##ствую": 5106,
      "##заться": 5107,
      "серьез": 5108,
      "благода": 5109,
      "срочно": 5110,
      "88": 5111,
      "програм": 5112,
      "выска": 5113,
      "причи": 5114,
      "ночи": 5115,
      "люд": 5116,
      "стала": 5117,
      "возле": 5118,
      "##пки": 5119,
      "##зма": 5120,
      "##ному": 5121,
      "содер": 5122,
      "##шают": 5123,
      "последнии": 5124,
      "##ственныи": 5125,
      "произо": 5126,
      "москве": 5127,
      "21": 5128,
      "мску": 5129,
      "поступ": 5130,
      "##ровали": 5131,
      "##рели": 5132,
      "отсо": 5133,
      "##лены": 5134,
      "##ждения": 5135,
      "песни": 5136,
      "царствие": 5137,
      "невозможно": 5138,
      "бить": 5139,
      "##дри": 5140,
      "##b0": 5141,
      "отпу": 5142,
      "лучшии": 5143,
      "##ческих": 5144,
      "соврем": 5145,
      "ch": 5146,
      "двои": 5147,
      "##зер": 5148,
      "##цами": 5149,
      "##ризации": 5150,
      "выз": 5151,
      "выеб": 5152,
      "##мон": 5153,
      "думать": 5154,
      "понял": 5155,
      "порядок": 5156,
      "кров": 5157,
      "пля": 5158,
      "##дку": 5159,
      "дур": 5160,
      "##зом": 5161,
      "здра": 5162,
      "фот": 5163,
      "##ур": 5164,
      "вспомина": 5165,
      "могли": 5166,
      "##тать": 5167,
      "##телеи": 5168,
      "баб": 5169,
      "рекла": 5170,
      "получилось": 5171,
      "обраща": 5172,
      "провока": 5173,
      "бю": 5174,
      "нер": 5175,
      "станов": 5176,
      "тан": 5177,
      "сказала": 5178,
      "правительство": 5179,
      "ремонт": 5180,
      "##48": 5181,
      "##ерт": 5182,
      "процен": 5183,
      "таком": 5184,
      "семью": 5185,
      "##вьте": 5186,
      "анд": 5187,
      "раионе": 5188,
      "выплаты": 5189,
      "спокоино": 5190,
      "копеи": 5191,
      "тои": 5192,
      "момент": 5193,
      "##тики": 5194,
      "соот": 5195,
      "пиши": 5196,
      "другому": 5197,
      "замечательно": 5198,
      "маида": 5199,
      "##роди": 5200,
      "женщин": 5201,
      "трех": 5202,
      "донбас": 5203,
      "встрет": 5204,
      "зч": 5205,
      "вещь": 5206,
      "детства": 5207,
      "грамот": 5208,
      "радости": 5209,
      "бесплат": 5210,
      "чудес": 5211,
      "мл": 5212,
      "замо": 5213,
      "обез": 5214,
      "вече": 5215,
      "пан": 5216,
      "душ": 5217,
      "##суль": 5218,
      "любим": 5219,
      "клю": 5220,
      "мск": 5221,
      "ть": 5222,
      "##пые": 5223,
      "##ио": 5224,
      "##ым": 5225,
      "##чко": 5226,
      "##вестно": 5227,
      "компа": 5228,
      "губер": 5229,
      "попробо": 5230,
      "талантли": 5231,
      "доволь": 5232,
      "##веи": 5233,
      "пидар": 5234,
      "##няет": 5235,
      "помощи": 5236,
      "мальчик": 5237,
      "которои": 5238,
      "маму": 5239,
      "парень": 5240,
      "песня": 5241,
      "вя": 5242,
      "##вит": 5243,
      "неве": 5244,
      "##нав": 5245,
      "##сии": 5246,
      "публи": 5247,
      "сложно": 5248,
      "##ческая": 5249,
      "смотрите": 5250,
      "мамо": 5251,
      "круп": 5252,
      "телефону": 5253,
      "рак": 5254,
      "хра": 5255,
      "вернуть": 5256,
      "поздравляем": 5257,
      "сердца": 5258,
      "професси": 5259,
      "ука": 5260,
      "##ян": 5261,
      "##еди": 5262,
      "##дви": 5263,
      "выки": 5264,
      "чушь": 5265,
      "учитель": 5266,
      "аду": 5267,
      "зв": 5268,
      "идут": 5269,
      "##кать": 5270,
      "##дам": 5271,
      "пить": 5272,
      "##пов": 5273,
      "домаш": 5274,
      "воина": 5275,
      "пишет": 5276,
      "глупо": 5277,
      "сохрани": 5278,
      "удовольствием": 5279,
      "вакци": 5280,
      "##раи": 5281,
      "##нал": 5282,
      "##тил": 5283,
      "сор": 5284,
      "##вешь": 5285,
      "##дется": 5286,
      "##сков": 5287,
      "делала": 5288,
      "родным": 5289,
      "звер": 5290,
      "##ват": 5291,
      "измен": 5292,
      "##ствовать": 5293,
      "ебану": 5294,
      "хозяин": 5295,
      "1000": 5296,
      "благополучия": 5297,
      "##гры": 5298,
      "задни": 5299,
      "##бок": 5300,
      "##поли": 5301,
      "опас": 5302,
      "телеви": 5303,
      "890": 5304,
      "##ера": 5305,
      "станет": 5306,
      "душу": 5307,
      "таи": 5308,
      "головои": 5309,
      "сергеи": 5310,
      "md": 5311,
      "мнои": 5312,
      "срок": 5313,
      "##кров": 5314,
      "##ает": 5315,
      "##зь": 5316,
      "пошли": 5317,
      "буты": 5318,
      "большин": 5319,
      "##ждение": 5320,
      "группу": 5321,
      "корона": 5322,
      "зам": 5323,
      "запла": 5324,
      "остались": 5325,
      "зарабаты": 5326,
      "маленькии": 5327,
      "состоянии": 5328,
      "иль": 5329,
      "ом": 5330,
      "хво": 5331,
      "чч": 5332,
      "##рмо": 5333,
      "##мар": 5334,
      "##ровна": 5335,
      "милая": 5336,
      "сиби": 5337,
      "написал": 5338,
      "закончи": 5339,
      "##нг": 5340,
      "##нья": 5341,
      "##ким": 5342,
      "##дова": 5343,
      "выжи": 5344,
      "##баи": 5345,
      "поздно": 5346,
      "близки": 5347,
      "медве": 5348,
      "оказалось": 5349,
      "сне": 5350,
      "хрень": 5351,
      "##дные": 5352,
      "заня": 5353,
      "честно": 5354,
      "посы": 5355,
      "памят": 5356,
      "аф": 5357,
      "член": 5358,
      "пост": 5359,
      "выпи": 5360,
      "чест": 5361,
      "##печат": 5362,
      "остальное": 5363,
      "окру": 5364,
      "июля": 5365,
      "ель": 5366,
      "однокласс": 5367,
      "ребят": 5368,
      "русских": 5369,
      "🙏🙏🙏": 5370,
      "##93": 5371,
      "##щую": 5372,
      "товари": 5373,
      "соци": 5374,
      "##льного": 5375,
      "всеми": 5376,
      "конститу": 5377,
      "видеть": 5378,
      "школу": 5379,
      "платье": 5380,
      "##рат": 5381,
      "##нике": 5382,
      "зад": 5383,
      "##рик": 5384,
      "##виду": 5385,
      "теп": 5386,
      "ставить": 5387,
      "сказо": 5388,
      "хуе": 5389,
      "получила": 5390,
      "связи": 5391,
      "хам": 5392,
      "##вные": 5393,
      "##дная": 5394,
      "##17": 5395,
      "каким": 5396,
      "горе": 5397,
      "##нус": 5398,
      "##гах": 5399,
      "35": 5400,
      "##ss": 5401,
      "заго": 5402,
      "вов": 5403,
      "зарплату": 5404,
      "результат": 5405,
      "##шенно": 5406,
      "##рев": 5407,
      "суб": 5408,
      "делали": 5409,
      "говорил": 5410,
      "пидорас": 5411,
      "очередь": 5412,
      "каждому": 5413,
      "ии": 5414,
      "##года": 5415,
      "##даль": 5416,
      "##жечь": 5417,
      "развали": 5418,
      "руку": 5419,
      "перево": 5420,
      "гнать": 5421,
      "зер": 5422,
      "поху": 5423,
      "разво": 5424,
      "своему": 5425,
      "##лым": 5426,
      "поможет": 5427,
      "классныи": 5428,
      "думала": 5429,
      "шт": 5430,
      "##жные": 5431,
      "дока": 5432,
      "приоб": 5433,
      "деся": 5434,
      "больно": 5435,
      "##бера": 5436,
      "тема": 5437,
      "кормить": 5438,
      "проститут": 5439,
      "куплю": 5440,
      "платят": 5441,
      "вокруг": 5442,
      "клоу": 5443,
      "вечером": 5444,
      "55": 5445,
      "треть": 5446,
      "##ому": 5447,
      "##лад": 5448,
      "##бов": 5449,
      "каран": 5450,
      "разу": 5451,
      "знали": 5452,
      "которую": 5453,
      "части": 5454,
      "макси": 5455,
      "американ": 5456,
      "феи": 5457,
      "школа": 5458,
      "##дости": 5459,
      "мою": 5460,
      "рост": 5461,
      "##моз": 5462,
      "речь": 5463,
      "лаики": 5464,
      "след": 5465,
      "следую": 5466,
      "пенсионе": 5467,
      "траха": 5468,
      "платеж": 5469,
      "ольга": 5470,
      "45": 5471,
      "##жении": 5472,
      "приш": 5473,
      "##чис": 5474,
      "мимо": 5475,
      "детство": 5476,
      "осень": 5477,
      "зависит": 5478,
      "четвер": 5479,
      "встреча": 5480,
      "u9": 5481,
      "устраи": 5482,
      "##валась": 5483,
      "##нешь": 5484,
      "приз": 5485,
      "словом": 5486,
      "трах": 5487,
      "получил": 5488,
      "поставить": 5489,
      "##ехал": 5490,
      "яи": 5491,
      "##рг": 5492,
      "##вших": 5493,
      "##еру": 5494,
      "##гои": 5495,
      "##ником": 5496,
      "руками": 5497,
      "мысли": 5498,
      "кип": 5499,
      "беспо": 5500,
      "восхи": 5501,
      "успешно": 5502,
      "##аких": 5503,
      "отправитель": 5504,
      "царство": 5505,
      "аг": 5506,
      "управ": 5507,
      "указа": 5508,
      "##лок": 5509,
      "моих": 5510,
      "голос": 5511,
      "слез": 5512,
      "восста": 5513,
      "твоеи": 5514,
      "машины": 5515,
      "доставка": 5516,
      "укро": 5517,
      "непро": 5518,
      "заму": 5519,
      "выро": 5520,
      "даите": 5521,
      "пухом": 5522,
      "##щим": 5523,
      "миха": 5524,
      "част": 5525,
      "вре": 5526,
      "вза": 5527,
      "ке": 5528,
      "чв": 5529,
      "пут": 5530,
      "сажать": 5531,
      "верить": 5532,
      "восп": 5533,
      "солда": 5534,
      "сторону": 5535,
      "которого": 5536,
      "помидоры": 5537,
      "али": 5538,
      "##над": 5539,
      "##вока": 5540,
      "##диться": 5541,
      "позвоните": 5542,
      "школь": 5543,
      "участи": 5544,
      "одино": 5545,
      "лас": 5546,
      "прости": 5547,
      "паца": 5548,
      "##скому": 5549,
      "маме": 5550,
      "автобу": 5551,
      "играть": 5552,
      "считаю": 5553,
      "жесто": 5554,
      "явля": 5555,
      "##шит": 5556,
      "бое": 5557,
      "суку": 5558,
      "пидоров": 5559,
      "берут": 5560,
      "ублюдки": 5561,
      "противно": 5562,
      "солнышко": 5563,
      "сере": 5564,
      "##чо": 5565,
      "##чении": 5566,
      "##чок": 5567,
      "##46": 5568,
      "##лую": 5569,
      "жел": 5570,
      "черно": 5571,
      "сделала": 5572,
      "ладно": 5573,
      "198": 5574,
      "машина": 5575,
      "велик": 5576,
      "недели": 5577,
      "запро": 5578,
      "##чаи": 5579,
      "зарплаты": 5580,
      "комплек": 5581,
      "бак": 5582,
      "пошла": 5583,
      "пришел": 5584,
      "деду": 5585,
      "лица": 5586,
      "кух": 5587,
      "хуя": 5588,
      "говорите": 5589,
      "##прияти": 5590,
      "историю": 5591,
      "государства": 5592,
      "стенке": 5593,
      "кв": 5594,
      "##77": 5595,
      "##ваешь": 5596,
      "выго": 5597,
      "обл": 5598,
      "настоящие": 5599,
      "поддержка": 5600,
      "оплатила": 5601,
      "вперед": 5602,
      "оторвать": 5603,
      "близким": 5604,
      "com": 5605,
      "захот": 5606,
      "##жии": 5607,
      "##чное": 5608,
      "##ньте": 5609,
      "##зывали": 5610,
      "##аков": 5611,
      "##аком": 5612,
      "армя": 5613,
      "нынеш": 5614,
      "виноват": 5615,
      "владимир": 5616,
      "зда": 5617,
      "фла": 5618,
      "##онов": 5619,
      "##lа": 5620,
      "малои": 5621,
      "уважение": 5622,
      "ребенку": 5623,
      "необходимо": 5624,
      "соболезнования": 5625,
      "губерна": 5626,
      "двор": 5627,
      "##вен": 5628,
      "##нос": 5629,
      "##дев": 5630,
      "##вел": 5631,
      "##нулся": 5632,
      "подъ": 5633,
      "детские": 5634,
      "##зить": 5635,
      "одном": 5636,
      "нашем": 5637,
      "трога": 5638,
      "хотели": 5639,
      "##кси": 5640,
      "пох": 5641,
      "нез": 5642,
      "##дах": 5643,
      "##рец": 5644,
      "превра": 5645,
      "сталин": 5646,
      "помогите": 5647,
      "нашла": 5648,
      "рыба": 5649,
      "написала": 5650,
      "молча": 5651,
      "очереднои": 5652,
      "дорогои": 5653,
      "понравилось": 5654,
      "##рались": 5655,
      "##лили": 5656,
      "зас": 5657,
      "##пил": 5658,
      "правду": 5659,
      "##👍👍👍👍": 5660,
      "другого": 5661,
      "повто": 5662,
      "редко": 5663,
      "наконец": 5664,
      "старыи": 5665,
      "растрелять": 5666,
      "повезло": 5667,
      "ору": 5668,
      "##обо": 5669,
      "##29": 5670,
      "##деров": 5671,
      "##стая": 5672,
      "никаких": 5673,
      "представля": 5674,
      "расстреливать": 5675,
      "живете": 5676,
      "искрен": 5677,
      "шут": 5678,
      "##тю": 5679,
      "##лете": 5680,
      "##цеи": 5681,
      "напа": 5682,
      "спать": 5683,
      "мето": 5684,
      "лета": 5685,
      "черныи": 5686,
      "полно": 5687,
      "евреи": 5688,
      "весе": 5689,
      "украины": 5690,
      "выглядит": 5691,
      "нрави": 5692,
      "##рак": 5693,
      "##стя": 5694,
      "коше": 5695,
      "карма": 5696,
      "дорогу": 5697,
      "фиг": 5698,
      "часа": 5699,
      "игры": 5700,
      "круто": 5701,
      "украина": 5702,
      "u9b0": 5703,
      "##11": 5704,
      "##енка": 5705,
      "##рил": 5706,
      "выбор": 5707,
      "##жеи": 5708,
      "##зан": 5709,
      "сан": 5710,
      "##ческои": 5711,
      "придурок": 5712,
      "##36s": 5713,
      "u9b079": 5714,
      "сми": 5715,
      "устрои": 5716,
      "##крет": 5717,
      "##рку": 5718,
      "пое": 5719,
      "наказа": 5720,
      "##олет": 5721,
      "быстре": 5722,
      "##мум": 5723,
      "жил": 5724,
      "детстве": 5725,
      "сала": 5726,
      "услу": 5727,
      "адвока": 5728,
      "можем": 5729,
      "пидарасы": 5730,
      "гнида": 5731,
      "отправить": 5732,
      "бен": 5733,
      "##ова": 5734,
      "испы": 5735,
      "наличии": 5736,
      "остров": 5737,
      "000": 5738,
      "бле": 5739,
      "##чную": 5740,
      "##нали": 5741,
      "##оти": 5742,
      "рада": 5743,
      "привя": 5744,
      "привез": 5745,
      "спа": 5746,
      "честь": 5747,
      "силы": 5748,
      "помним": 5749,
      "убрать": 5750,
      "бабушки": 5751,
      "пользу": 5752,
      "растет": 5753,
      "22": 5754,
      "##сл": 5755,
      "выло": 5756,
      "боро": 5757,
      "куль": 5758,
      "успо": 5759,
      "пидарас": 5760,
      "экс": 5761,
      "подсолн": 5762,
      "соответ": 5763,
      "гене": 5764,
      "##дина": 5765,
      "##чил": 5766,
      "##ютно": 5767,
      "##бан": 5768,
      "предлага": 5769,
      "возможность": 5770,
      "вч": 5771,
      "##гер": 5772,
      "нелю": 5773,
      "отца": 5774,
      "##лями": 5775,
      "обма": 5776,
      "сказ": 5777,
      "собствен": 5778,
      "лоша": 5779,
      "думают": 5780,
      "актив": 5781,
      "республи": 5782,
      "казнить": 5783,
      "шлюха": 5784,
      "ирина": 5785,
      "энер": 5786,
      "ясно": 5787,
      "просты": 5788,
      "похож": 5789,
      "мозгов": 5790,
      "использо": 5791,
      "поряд": 5792,
      "##ляли": 5793,
      "приходи": 5794,
      "воск": 5795,
      "рука": 5796,
      "случи": 5797,
      "##жусь": 5798,
      "интересу": 5799,
      "слабо": 5800,
      "врачи": 5801,
      "забрали": 5802,
      "##ект": 5803,
      "москва": 5804,
      "деревне": 5805,
      "наблю": 5806,
      "дерьмо": 5807,
      "пускаи": 5808,
      "##чон": 5809,
      "дав": 5810,
      "справ": 5811,
      "руках": 5812,
      "конце": 5813,
      "пизду": 5814,
      "начала": 5815,
      "##66": 5816,
      "соц": 5817,
      "гости": 5818,
      "спло": 5819,
      "большие": 5820,
      "молоко": 5821,
      "другом": 5822,
      "##😂😂😂": 5823,
      "##тре": 5824,
      "покои": 5825,
      "приколь": 5826,
      "конец": 5827,
      "обратно": 5828,
      "козел": 5829,
      "ошиб": 5830,
      "холоди": 5831,
      "платежа": 5832,
      "##стрировать": 5833,
      "елена": 5834,
      "##оля": 5835,
      "гореть": 5836,
      "##пиз": 5837,
      "база": 5838,
      "путину": 5839,
      "любимая": 5840,
      "родины": 5841,
      "отношения": 5842,
      "костю": 5843,
      "##шем": 5844,
      "##😘😘": 5845,
      "пото": 5846,
      "##рого": 5847,
      "выбира": 5848,
      "##чают": 5849,
      "друже": 5850,
      "форма": 5851,
      "оправ": 5852,
      "представ": 5853,
      "##стыи": 5854,
      "пособи": 5855,
      "справедливо": 5856,
      "пита": 5857,
      "непри": 5858,
      "##пект": 5859,
      "##чув": 5860,
      "услы": 5861,
      "добрым": 5862,
      "##ющим": 5863,
      "всякую": 5864,
      "растут": 5865,
      "александр": 5866,
      "совершенно": 5867,
      "ио": 5868,
      "сжечь": 5869,
      "##дала": 5870,
      "заж": 5871,
      "##енька": 5872,
      "жир": 5873,
      "перио": 5874,
      "жар": 5875,
      "##ровал": 5876,
      "землю": 5877,
      "потери": 5878,
      "идиоты": 5879,
      "примерно": 5880,
      "придется": 5881,
      "впечат": 5882,
      "сма": 5883,
      "увы": 5884,
      "##руса": 5885,
      "отра": 5886,
      "водо": 5887,
      "гов": 5888,
      "##чаю": 5889,
      "саите": 5890,
      "верные": 5891,
      "работал": 5892,
      "купила": 5893,
      "взяли": 5894,
      "стоимость": 5895,
      "поводу": 5896,
      "чз": 5897,
      "явно": 5898,
      "##кру": 5899,
      "натура": 5900,
      "##рили": 5901,
      "отру": 5902,
      "нос": 5903,
      "получится": 5904,
      "останов": 5905,
      "слушать": 5906,
      "понимают": 5907,
      "банки": 5908,
      "информацию": 5909,
      "сохра": 5910,
      "кле": 5911,
      "тет": 5912,
      "##где": 5913,
      "небо": 5914,
      "нежно": 5915,
      "проще": 5916,
      "##мила": 5917,
      "тек": 5918,
      "мыс": 5919,
      "умные": 5920,
      "##читы": 5921,
      "спор": 5922,
      "лы": 5923,
      "##кви": 5924,
      "##бб": 5925,
      "##теи": 5926,
      "##33": 5927,
      "##рают": 5928,
      "выво": 5929,
      "отстре": 5930,
      "новая": 5931,
      "обсужда": 5932,
      "саит": 5933,
      "##иню": 5934,
      "наталья": 5935,
      "ждут": 5936,
      "##lи": 5937,
      "##фы": 5938,
      "##55": 5939,
      "##тон": 5940,
      "##ночка": 5941,
      "тон": 5942,
      "видит": 5943,
      "видать": 5944,
      "##ленно": 5945,
      "##щает": 5946,
      "хуило": 5947,
      "обращаться": 5948,
      "похожа": 5949,
      "августе": 5950,
      "написали": 5951,
      "национа": 5952,
      "оле": 5953,
      "опу": 5954,
      "ще": 5955,
      "##дор": 5956,
      "посла": 5957,
      "тему": 5958,
      "корм": 5959,
      "биз": 5960,
      "смерти": 5961,
      "хохло": 5962,
      "никакои": 5963,
      "бюд": 5964,
      "копеики": 5965,
      "26": 5966,
      "ам": 5967,
      "есте": 5968,
      "##кнов": 5969,
      "направ": 5970,
      "доступ": 5971,
      "ката": 5972,
      "берегите": 5973,
      "удивля": 5974,
      "выборы": 5975,
      "искать": 5976,
      "наобо": 5977,
      "##енных": 5978,
      "прием": 5979,
      "вален": 5980,
      "первую": 5981,
      "голова": 5982,
      "##зывается": 5983,
      "толку": 5984,
      "информация": 5985,
      "##нр": 5986,
      "неза": 5987,
      "##дик": 5988,
      "досто": 5989,
      "##лец": 5990,
      "##образ": 5991,
      "человеком": 5992,
      "познако": 5993,
      "жало": 5994,
      "которым": 5995,
      "пенсия": 5996,
      "возрасте": 5997,
      "иу": 5998,
      "уеби": 5999,
      "##чным": 6000,
      "##22": 6001,
      "##порт": 6002,
      "##чками": 6003,
      "##ходя": 6004,
      "правы": 6005,
      "говорили": 6006,
      "простите": 6007,
      "##волю": 6008,
      "законы": 6009,
      "площади": 6010,
      "воспиты": 6011,
      "##er": 6012,
      "посте": 6013,
      "вое": 6014,
      "ног": 6015,
      "##хоз": 6016,
      "инвали": 6017,
      "сель": 6018,
      "клас": 6019,
      "##акого": 6020,
      "подарок": 6021,
      "наоборот": 6022,
      "гло": 6023,
      "щас": 6024,
      "##ьет": 6025,
      "вырос": 6026,
      "##тика": 6027,
      "вечера": 6028,
      "вирус": 6029,
      "остался": 6030,
      "поидет": 6031,
      "здоровы": 6032,
      "мяг": 6033,
      "улыб": 6034,
      "опреде": 6035,
      "фанта": 6036,
      "##тен": 6037,
      "##😍😍": 6038,
      "назна": 6039,
      "##стые": 6040,
      "##кур": 6041,
      "##няют": 6042,
      "распро": 6043,
      "идите": 6044,
      "ово": 6045,
      "ходят": 6046,
      "роднои": 6047,
      "умныи": 6048,
      "кино": 6049,
      "терпе": 6050,
      "маленькие": 6051,
      "факт": 6052,
      "114": 6053,
      "56": 6054,
      "ау": 6055,
      "##ново": 6056,
      "выклады": 6057,
      "##шед": 6058,
      "игре": 6059,
      "истории": 6060,
      "животные": 6061,
      "магазине": 6062,
      "##пасть": 6063,
      "опо": 6064,
      "уши": 6065,
      "##кре": 6066,
      "##яя": 6067,
      "##at": 6068,
      "##нд": 6069,
      "попу": 6070,
      "##лил": 6071,
      "##воря": 6072,
      "кошка": 6073,
      "бывают": 6074,
      "##жено": 6075,
      "##зала": 6076,
      "либера": 6077,
      "безо": 6078,
      "переб": 6079,
      "помоги": 6080,
      "##лета": 6081,
      "получили": 6082,
      "предатель": 6083,
      "сообщения": 6084,
      "зимои": 6085,
      "коронави": 6086,
      "великоле": 6087,
      "откро": 6088,
      "пришла": 6089,
      "новых": 6090,
      "##зали": 6091,
      "##жин": 6092,
      "##щик": 6093,
      "предо": 6094,
      "показать": 6095,
      "красоты": 6096,
      "тиши": 6097,
      "добав": 6098,
      "коммуни": 6099,
      "соло": 6100,
      "тв": 6101,
      "##88": 6102,
      "##дами": 6103,
      "##хои": 6104,
      "##ковь": 6105,
      "останется": 6106,
      "счастливы": 6107,
      "количество": 6108,
      "##комен": 6109,
      "##мах": 6110,
      "роли": 6111,
      "оба": 6112,
      "обал": 6113,
      "преду": 6114,
      "##тых": 6115,
      "вашего": 6116,
      "скры": 6117,
      "думает": 6118,
      "думаете": 6119,
      "светла": 6120,
      "охра": 6121,
      "24": 6122,
      "##вании": 6123,
      "заг": 6124,
      "баба": 6125,
      "знаем": 6126,
      "позити": 6127,
      "продается": 6128,
      "диван": 6129,
      "выполнить": 6130,
      "ленте": 6131,
      "которое": 6132,
      "ночью": 6133,
      "транспо": 6134,
      "ехать": 6135,
      "удар": 6136,
      "##нное": 6137,
      "совести": 6138,
      "##енье": 6139,
      "пласти": 6140,
      "смотря": 6141,
      "арбу": 6142,
      "желание": 6143,
      "##ствии": 6144,
      "господа": 6145,
      "хозяева": 6146,
      "##фаль": 6147,
      "затем": 6148,
      "соль": 6149,
      "##кс": 6150,
      "захва": 6151,
      "##тивно": 6152,
      "соси": 6153,
      "##ствуют": 6154,
      "школы": 6155,
      "огурцы": 6156,
      "ори": 6157,
      "эмо": 6158,
      "##рк": 6159,
      "##нду": 6160,
      "побы": 6161,
      "##раться": 6162,
      "наг": 6163,
      "навсе": 6164,
      "нев": 6165,
      "проте": 6166,
      "обес": 6167,
      "кан": 6168,
      "жила": 6169,
      "детки": 6170,
      "конкрет": 6171,
      "никакого": 6172,
      "достаточно": 6173,
      "сволочи": 6174,
      "образование": 6175,
      "попробовать": 6176,
      "порт": 6177,
      "##ватель": 6178,
      "дости": 6179,
      "прика": 6180,
      "##еба": 6181,
      "##сия": 6182,
      "##чества": 6183,
      "первых": 6184,
      "худо": 6185,
      "времен": 6186,
      "классная": 6187,
      "##нутся": 6188,
      "ублюд": 6189,
      "казах": 6190,
      "молодежь": 6191,
      "урода": 6192,
      "фут": 6193,
      "мора": 6194,
      "ходу": 6195,
      "##бин": 6196,
      "этими": 6197,
      "специально": 6198,
      "музыка": 6199,
      "еру": 6200,
      "##вшии": 6201,
      "##цом": 6202,
      "номе": 6203,
      "ниже": 6204,
      "путь": 6205,
      "знал": 6206,
      "обос": 6207,
      "##долба": 6208,
      "глазах": 6209,
      "зарплата": 6210,
      "зву": 6211,
      "##пка": 6212,
      "##лено": 6213,
      "бума": 6214,
      "##пан": 6215,
      "##град": 6216,
      "контро": 6217,
      "свете": 6218,
      "##🌹🌹🌹🌹": 6219,
      "четы": 6220,
      "сахар": 6221,
      "олигар": 6222,
      "ушел": 6223,
      "##лке": 6224,
      "##нении": 6225,
      "##вов": 6226,
      "профи": 6227,
      "бож": 6228,
      "послу": 6229,
      "странно": 6230,
      "хуесо": 6231,
      "полнои": 6232,
      "кир": 6233,
      "родные": 6234,
      "хабаровске": 6235,
      "смысл": 6236,
      "ситуации": 6237,
      "электро": 6238,
      "зз": 6239,
      "##94": 6240,
      "##вало": 6241,
      "захо": 6242,
      "##шили": 6243,
      "скажу": 6244,
      "##шок": 6245,
      "##ехала": 6246,
      "девчон": 6247,
      "абсол": 6248,
      "красавчик": 6249,
      "##ах": 6250,
      "нава": 6251,
      "##довать": 6252,
      "##тар": 6253,
      "##нуться": 6254,
      "##няюсь": 6255,
      "##жается": 6256,
      "каждои": 6257,
      "полица": 6258,
      "легче": 6259,
      "фашист": 6260,
      "совесть": 6261,
      "германии": 6262,
      "07": 6263,
      "##сю": 6264,
      "##чается": 6265,
      "дед": 6266,
      "разница": 6267,
      "##пали": 6268,
      "##бые": 6269,
      "мело": 6270,
      "первая": 6271,
      "остав": 6272,
      "работаю": 6273,
      "актри": 6274,
      "машину": 6275,
      "броса": 6276,
      "собаку": 6277,
      "окон": 6278,
      "##ненно": 6279,
      "рано": 6280,
      "прие": 6281,
      "присо": 6282,
      "ходили": 6283,
      "мая": 6284,
      "ват": 6285,
      "##ремя": 6286,
      "продают": 6287,
      "интернете": 6288,
      "запись": 6289,
      "защит": 6290,
      "опыт": 6291,
      "подвесить": 6292,
      "произошло": 6293,
      "ельци": 6294,
      "28": 6295,
      "вне": 6296,
      "ощу": 6297,
      "пры": 6298,
      "##нан": 6299,
      "доми": 6300,
      "отдать": 6301,
      "пусто": 6302,
      "север": 6303,
      "лекар": 6304,
      "собрать": 6305,
      "классные": 6306,
      "плох": 6307,
      "имеют": 6308,
      "обрат": 6309,
      "номеру": 6310,
      "месяцев": 6311,
      "респект": 6312,
      "буквы": 6313,
      "прошлом": 6314,
      "уп": 6315,
      "##жная": 6316,
      "##вныи": 6317,
      "##лова": 6318,
      "задер": 6319,
      "завод": 6320,
      "##оты": 6321,
      "пропи": 6322,
      "отказа": 6323,
      "##гают": 6324,
      "разоб": 6325,
      "заку": 6326,
      "хуиню": 6327,
      "кисло": 6328,
      "##ительныи": 6329,
      "ебаныи": 6330,
      "##ственная": 6331,
      "однако": 6332,
      "##никах": 6333,
      "родился": 6334,
      "живите": 6335,
      "запрет": 6336,
      "сомне": 6337,
      "навсегда": 6338,
      "##жением": 6339,
      "##гвар": 6340,
      "##рести": 6341,
      "каст": 6342,
      "каба": 6343,
      "известно": 6344,
      "##мыш": 6345,
      "остается": 6346,
      "##ческого": 6347,
      "расстрел": 6348,
      "короче": 6349,
      "отличныи": 6350,
      "дурак": 6351,
      "задачу": 6352,
      "литров": 6353,
      "редкая": 6354,
      "птицы": 6355,
      "армии": 6356,
      "дождь": 6357,
      "недавно": 6358,
      "лс": 6359,
      "очи": 6360,
      "🤣🤣🤣": 6361,
      "##рени": 6362,
      "##поло": 6363,
      "находи": 6364,
      "приба": 6365,
      "старая": 6366,
      "посел": 6367,
      "вкусныи": 6368,
      "маленькая": 6369,
      "мерз": 6370,
      "производ": 6371,
      "бюджет": 6372,
      "тря": 6373,
      "пона": 6374,
      "##рает": 6375,
      "кош": 6376,
      "могла": 6377,
      "##тило": 6378,
      "рома": 6379,
      "##туры": 6380,
      "знала": 6381,
      "оставить": 6382,
      "числа": 6383,
      "спорт": 6384,
      "150": 6385,
      "воину": 6386,
      "пользо": 6387,
      "##влека": 6388,
      "замечательныи": 6389,
      "настроения": 6390,
      "принци": 6391,
      "населения": 6392,
      "клуб": 6393,
      "солнце": 6394,
      "еже": 6395,
      "##вобо": 6396,
      "собы": 6397,
      "##чим": 6398,
      "##чали": 6399,
      "маг": 6400,
      "вешать": 6401,
      "жале": 6402,
      "лаи": 6403,
      "беспре": 6404,
      "прекрасныи": 6405,
      "будущее": 6406,
      "уничтожать": 6407,
      "противо": 6408,
      "заебали": 6409,
      "территории": 6410,
      "гандон": 6411,
      "31": 6412,
      "##тка": 6413,
      "##там": 6414,
      "##вато": 6415,
      "выхо": 6416,
      "пиро": 6417,
      "##вета": 6418,
      "белыи": 6419,
      "дороге": 6420,
      "пиздоб": 6421,
      "увидеть": 6422,
      "ситуация": 6423,
      "сахара": 6424,
      "суббот": 6425,
      "великолеп": 6426,
      "👎👎👎": 6427,
      "##😡😡": 6428,
      "поне": 6429,
      "почита": 6430,
      "##нина": 6431,
      "##лог": 6432,
      "проити": 6433,
      "##рых": 6434,
      "кастрировать": 6435,
      "классы": 6436,
      "физи": 6437,
      "трол": 6438,
      "греш": 6439,
      "александ": 6440,
      "продажные": 6441,
      "##нись": 6442,
      "##льную": 6443,
      "приня": 6444,
      "марина": 6445,
      "##жила": 6446,
      "##чено": 6447,
      "боятся": 6448,
      "миро": 6449,
      "долг": 6450,
      "намного": 6451,
      "квартира": 6452,
      "бедныи": 6453,
      "офици": 6454,
      "прокля": 6455,
      "четыре": 6456,
      "аре": 6457,
      "кп": 6458,
      "реи": 6459,
      "чере": 6460,
      "##нитесь": 6461,
      "##новить": 6462,
      "наж": 6463,
      "рекомен": 6464,
      "комна": 6465,
      "октяб": 6466,
      "последние": 6467,
      "готовы": 6468,
      "необы": 6469,
      "отрубить": 6470,
      "пак": 6471,
      "##они": 6472,
      "##нскии": 6473,
      "##стран": 6474,
      "##нулись": 6475,
      "судя": 6476,
      "##пал": 6477,
      "##гуля": 6478,
      "летом": 6479,
      "отношение": 6480,
      "пришлось": 6481,
      "уш": 6482,
      "хрена": 6483,
      "##рение": 6484,
      "##бри": 6485,
      "поза": 6486,
      "проходи": 6487,
      "выстав": 6488,
      "##нек": 6489,
      "вор": 6490,
      "##гал": 6491,
      "спу": 6492,
      "сутки": 6493,
      "конф": 6494,
      "##ленные": 6495,
      "##ческое": 6496,
      "света": 6497,
      "начали": 6498,
      "отнош": 6499,
      "неиз": 6500,
      "отвечать": 6501,
      "мужчин": 6502,
      "обезья": 6503,
      "быстрее": 6504,
      "познакоми": 6505,
      "опи": 6506,
      "фран": 6507,
      "хре": 6508,
      "##пля": 6509,
      "##лак": 6510,
      "поправ": 6511,
      "##рачи": 6512,
      "##стры": 6513,
      "кота": 6514,
      "##чарова": 6515,
      "##тел": 6516,
      "силь": 6517,
      "первого": 6518,
      "скор": 6519,
      "##форм": 6520,
      "держи": 6521,
      "горба": 6522,
      "связаться": 6523,
      "отдали": 6524,
      "животное": 6525,
      "ресур": 6526,
      "фотографии": 6527,
      "мене": 6528,
      "##рения": 6529,
      "##яться": 6530,
      "поко": 6531,
      "нему": 6532,
      "незна": 6533,
      "##дорож": 6534,
      "раб": 6535,
      "воо": 6536,
      "ручки": 6537,
      "хороших": 6538,
      "фотошо": 6539,
      "мозг": 6540,
      "плюс": 6541,
      "геи": 6542,
      "зоо": 6543,
      "##шет": 6544,
      "##64": 6545,
      "запом": 6546,
      "выставля": 6547,
      "вон": 6548,
      "воспо": 6549,
      "##чих": 6550,
      "обща": 6551,
      "долгие": 6552,
      "тупая": 6553,
      "дороже": 6554,
      "поняли": 6555,
      "походу": 6556,
      "берет": 6557,
      "новости": 6558,
      "состояние": 6559,
      "важного": 6560,
      "##ницеи": 6561,
      "асфаль": 6562,
      "природы": 6563,
      "становится": 6564,
      "коль": 6565,
      "##шую": 6566,
      "пооб": 6567,
      "москов": 6568,
      "##вела": 6569,
      "убил": 6570,
      "кредит": 6571,
      "уважаю": 6572,
      "название": 6573,
      "подумать": 6574,
      "едино": 6575,
      "удобно": 6576,
      "разговари": 6577,
      "2000": 6578,
      "##вши": 6579,
      "##никами": 6580,
      "##доров": 6581,
      "выпу": 6582,
      "бого": 6583,
      "продаете": 6584,
      "##рье": 6585,
      "любя": 6586,
      "украину": 6587,
      "зовут": 6588,
      "##🙏🙏🙏": 6589,
      "депутаты": 6590,
      "отсут": 6591,
      "дружеская": 6592,
      "выдер": 6593,
      "богом": 6594,
      "безмоз": 6595,
      "туа": 6596,
      "позвол": 6597,
      "оооо": 6598,
      "вашему": 6599,
      "квартиры": 6600,
      "курсе": 6601,
      "виноваты": 6602,
      "воскрес": 6603,
      "обеспе": 6604,
      "зн": 6605,
      "смен": 6606,
      "трои": 6607,
      "насто": 6608,
      "выда": 6609,
      "сочи": 6610,
      "##нулась": 6611,
      "живешь": 6612,
      "##нюю": 6613,
      "одинако": 6614,
      "рыб": 6615,
      "девушки": 6616,
      "соседи": 6617,
      "тупои": 6618,
      "решил": 6619,
      "железно": 6620,
      "внутри": 6621,
      "большинство": 6622,
      "кастрю": 6623,
      "цы": 6624,
      "шака": 6625,
      "##хх": 6626,
      "##цать": 6627,
      "задума": 6628,
      "##тировать": 6629,
      "##таж": 6630,
      "ман": 6631,
      "своя": 6632,
      "путе": 6633,
      "##тур": 6634,
      "бабки": 6635,
      "##скими": 6636,
      "молодои": 6637,
      "беда": 6638,
      "получать": 6639,
      "вранье": 6640,
      "пидорасов": 6641,
      "учеб": 6642,
      "сообщение": 6643,
      "спросить": 6644,
      "случаино": 6645,
      "основном": 6646,
      "сентября": 6647,
      "непростую": 6648,
      "интересует": 6649,
      "23": 6650,
      "кр": 6651,
      "ян": 6652,
      "##драви": 6653,
      "##нных": 6654,
      "##роят": 6655,
      "това": 6656,
      "прино": 6657,
      "##шил": 6658,
      "ходит": 6659,
      "буме": 6660,
      "пись": 6661,
      "подт": 6662,
      "надоело": 6663,
      "сад": 6664,
      "бляд": 6665,
      "самих": 6666,
      "солне": 6667,
      "надежда": 6668,
      "народом": 6669,
      "ефремов": 6670,
      "27": 6671,
      "шан": 6672,
      "яго": 6673,
      "##чез": 6674,
      "##зую": 6675,
      "заба": 6676,
      "##титься": 6677,
      "отзы": 6678,
      "##сик": 6679,
      "стрем": 6680,
      "изба": 6681,
      "баи": 6682,
      "револю": 6683,
      "полная": 6684,
      "прекрасная": 6685,
      "взяла": 6686,
      "запад": 6687,
      "фургала": 6688,
      "близких": 6689,
      "дворе": 6690,
      "ген": 6691,
      "иго": 6692,
      "хит": 6693,
      "##рене": 6694,
      "##шные": 6695,
      "##ляю": 6696,
      "##жима": 6697,
      "мел": 6698,
      "контак": 6699,
      "каждом": 6700,
      "##енность": 6701,
      "вкусные": 6702,
      "анти": 6703,
      "родина": 6704,
      "ребенком": 6705,
      "чувство": 6706,
      "уебище": 6707,
      "воспомина": 6708,
      "бас": 6709,
      "ква": 6710,
      "##вшие": 6711,
      "##шеб": 6712,
      "##41": 6713,
      "поез": 6714,
      "##лька": 6715,
      "доказа": 6716,
      "дочер": 6717,
      "отрезать": 6718,
      "собирать": 6719,
      "закона": 6720,
      "лечение": 6721,
      "перо": 6722,
      "##леты": 6723,
      "любом": 6724,
      "жополи": 6725,
      "прекрасные": 6726,
      "нормальные": 6727,
      "улица": 6728,
      "возможности": 6729,
      "возраста": 6730,
      "оказывается": 6731,
      "батька": 6732,
      "практически": 6733,
      "бумеран": 6734,
      "##тами": 6735,
      "##вку": 6736,
      "##an": 6737,
      "##85": 6738,
      "##стру": 6739,
      "точку": 6740,
      "##сах": 6741,
      "##зин": 6742,
      "любите": 6743,
      "семь": 6744,
      "корми": 6745,
      "крови": 6746,
      "долбоебов": 6747,
      "неболь": 6748,
      "хозяина": 6749,
      "документы": 6750,
      "специали": 6751,
      "зуб": 6752,
      "##чник": 6753,
      "##id": 6754,
      "неф": 6755,
      "##тан": 6756,
      "подня": 6757,
      "ведро": 6758,
      "милыи": 6759,
      "осталась": 6760,
      "соблю": 6761,
      "лап": 6762,
      "освобо": 6763,
      "родных": 6764,
      "заранее": 6765,
      "глубо": 6766,
      "свят": 6767,
      "сосед": 6768,
      "трудном": 6769,
      "симпа": 6770,
      "вете": 6771,
      "эфф": 6772,
      "##жете": 6773,
      "##ат": 6774,
      "##щении": 6775,
      "пова": 6776,
      "неме": 6777,
      "забу": 6778,
      "копи": 6779,
      "сож": 6780,
      "разбира": 6781,
      "вера": 6782,
      "купа": 6783,
      "столо": 6784,
      "##щают": 6785,
      "логи": 6786,
      "ебал": 6787,
      "ебало": 6788,
      "получают": 6789,
      "понимает": 6790,
      "начало": 6791,
      "нормальныи": 6792,
      "уголо": 6793,
      "решили": 6794,
      "начнут": 6795,
      "взгляд": 6796,
      "вку": 6797,
      "сет": 6798,
      "яр": 6799,
      "##жных": 6800,
      "##ловать": 6801,
      "запре": 6802,
      "##вид": 6803,
      "##думы": 6804,
      "разда": 6805,
      "вино": 6806,
      "895": 6807,
      "шах": 6808,
      "взял": 6809,
      "размеры": 6810,
      "мальчика": 6811,
      "психи": 6812,
      "судьба": 6813,
      "пожиз": 6814,
      "плака": 6815,
      "безопас": 6816,
      "адек": 6817,
      "гр": 6818,
      "дни": 6819,
      "ухо": 6820,
      "##21": 6821,
      "мон": 6822,
      "дожд": 6823,
      "носить": 6824,
      "##живает": 6825,
      "##туа": 6826,
      "большо": 6827,
      "решение": 6828,
      "##утся": 6829,
      "черт": 6830,
      "головы": 6831,
      "серге": 6832,
      "работали": 6833,
      "авторизации": 6834,
      "запах": 6835,
      "плеши": 6836,
      "посмотрим": 6837,
      "рам": 6838,
      "##рр": 6839,
      "##вере": 6840,
      "запу": 6841,
      "моря": 6842,
      "##руп": 6843,
      "нищ": 6844,
      "каби": 6845,
      "##жих": 6846,
      "пала": 6847,
      "сара": 6848,
      "верит": 6849,
      "тури": 6850,
      "таб": 6851,
      "грустно": 6852,
      "колбас": 6853,
      "центра": 6854,
      "мужика": 6855,
      "любовью": 6856,
      "считают": 6857,
      "бедные": 6858,
      "##менить": 6859,
      "назвать": 6860,
      "узбе": 6861,
      "благодаря": 6862,
      "ава": 6863,
      "оформ": 6864,
      "##пит": 6865,
      "##торов": 6866,
      "нашел": 6867,
      "##лон": 6868,
      "##логи": 6869,
      "женщину": 6870,
      "держ": 6871,
      "окна": 6872,
      "ближе": 6873,
      "нового": 6874,
      "увидела": 6875,
      "писал": 6876,
      "пандем": 6877,
      "зерка": 6878,
      "абсолютно": 6879,
      "нен": 6880,
      "хло": 6881,
      "##вная": 6882,
      "##лью": 6883,
      "##таи": 6884,
      "пипец": 6885,
      "картин": 6886,
      "##хуя": 6887,
      "коллек": 6888,
      "##ворить": 6889,
      "внуки": 6890,
      "торго": 6891,
      "ветер": 6892,
      "артист": 6893,
      "алкаш": 6894,
      "уксус": 6895,
      "400": 6896,
      "pr": 6897,
      "жрать": 6898,
      "осу": 6899,
      "##пен": 6900,
      "##оте": 6901,
      "прод": 6902,
      "моги": 6903,
      "##чивать": 6904,
      "развод": 6905,
      "смотрит": 6906,
      "теме": 6907,
      "исчез": 6908,
      "горжусь": 6909,
      "корот": 6910,
      "дебилов": 6911,
      "минимум": 6912,
      "настроение": 6913,
      "уебок": 6914,
      "вит": 6915,
      "юби": 6916,
      "##чнее": 6917,
      "##цени": 6918,
      "##ваюсь": 6919,
      "природа": 6920,
      "водои": 6921,
      "##чиков": 6922,
      "##ологи": 6923,
      "##живать": 6924,
      "##пили": 6925,
      "стан": 6926,
      "мину": 6927,
      "конц": 6928,
      "масса": 6929,
      "блядеи": 6930,
      "начал": 6931,
      "берем": 6932,
      "цвета": 6933,
      "великии": 6934,
      "улицы": 6935,
      "улицу": 6936,
      "существо": 6937,
      "каса": 6938,
      "водитель": 6939,
      "продукты": 6940,
      "иска": 6941,
      "сно": 6942,
      "убо": 6943,
      "фар": 6944,
      "молит": 6945,
      "##лях": 6946,
      "дадут": 6947,
      "##мати": 6948,
      "##сим": 6949,
      "инф": 6950,
      "##зили": 6951,
      "##щается": 6952,
      "алексеи": 6953,
      "руководите": 6954,
      "мудак": 6955,
      "ву": 6956,
      "##иться": 6957,
      "##43": 6958,
      "##рое": 6959,
      "##лами": 6960,
      "##льки": 6961,
      "##кура": 6962,
      "ниж": 6963,
      "кушать": 6964,
      "хули": 6965,
      "##ходится": 6966,
      "многое": 6967,
      "нашему": 6968,
      "##ственные": 6969,
      "поиму": 6970,
      "автомо": 6971,
      "творится": 6972,
      "средства": 6973,
      "беларусь": 6974,
      "##яет": 6975,
      "##ьем": 6976,
      "##гнать": 6977,
      "кошки": 6978,
      "выку": 6979,
      "живи": 6980,
      "##чее": 6981,
      "боо": 6982,
      "суп": 6983,
      "##шал": 6984,
      "расст": 6985,
      "скажи": 6986,
      "скажет": 6987,
      "##тельныи": 6988,
      "##тельная": 6989,
      "слезы": 6990,
      "ответственно": 6991,
      "памяти": 6992,
      "поставили": 6993,
      "хлеба": 6994,
      "попробуите": 6995,
      "объявление": 6996,
      "кровь": 6997,
      "дли": 6998,
      "##бра": 6999,
      "##джи": 7000,
      "##кос": 7001,
      "нож": 7002,
      "##енья": 7003,
      "капу": 7004,
      "деток": 7005,
      "мари": 7006,
      "подходит": 7007,
      "тепла": 7008,
      "милые": 7009,
      "##хали": 7010,
      "смотрят": 7011,
      "работала": 7012,
      "чаще": 7013,
      "богат": 7014,
      "новое": 7015,
      "забыть": 7016,
      "хохлы": 7017,
      "хорошень": 7018,
      "следующии": 7019,
      "высказыва": 7020,
      "хе": 7021,
      "##ov": 7022,
      "каи": 7023,
      "жест": 7024,
      "вело": 7025,
      "руси": 7026,
      "видите": 7027,
      "детскии": 7028,
      "тара": 7029,
      "коля": 7030,
      "##слать": 7031,
      "обидно": 7032,
      "федера": 7033,
      "существует": 7034,
      "молодые": 7035,
      "##нится": 7036,
      "##меи": 7037,
      "покры": 7038,
      "##матри": 7039,
      "рожа": 7040,
      "качество": 7041,
      "дели": 7042,
      "##сал": 7043,
      "боюсь": 7044,
      "##енности": 7045,
      "харак": 7046,
      "парни": 7047,
      "шала": 7048,
      "коронови": 7049,
      "добавьте": 7050,
      "умеют": 7051,
      "установ": 7052,
      "ограни": 7053,
      "33": 7054,
      "85": 7055,
      "tr": 7056,
      "опер": 7057,
      "описа": 7058,
      "пит": 7059,
      "##os": 7060,
      "##nt": 7061,
      "##енного": 7062,
      "##стят": 7063,
      "загру": 7064,
      "доби": 7065,
      "кап": 7066,
      "вести": 7067,
      "надоели": 7068,
      "перец": 7069,
      "халя": 7070,
      "искус": 7071,
      "взры": 7072,
      "твоих": 7073,
      "волшеб": 7074,
      "внуков": 7075,
      "другая": 7076,
      "руковод": 7077,
      "команди": 7078,
      "белоруссии": 7079,
      "заработать": 7080,
      "душои": 7081,
      "подтвер": 7082,
      "##хнет": 7083,
      "##гно": 7084,
      "##27": 7085,
      "##раб": 7086,
      "наво": 7087,
      "задолба": 7088,
      "давать": 7089,
      "горь": 7090,
      "##жнои": 7091,
      "мал": 7092,
      "верх": 7093,
      "грибы": 7094,
      "область": 7095,
      "депутатов": 7096,
      "демо": 7097,
      "итоге": 7098,
      "##навли": 7099,
      "терпеть": 7100,
      "##86": 7101,
      "зая": 7102,
      "вышел": 7103,
      "мочить": 7104,
      "рав": 7105,
      "давить": 7106,
      "прибы": 7107,
      "приходит": 7108,
      "розо": 7109,
      "бур": 7110,
      "##люб": 7111,
      "лечить": 7112,
      "лучшие": 7113,
      "##ительные": 7114,
      "колес": 7115,
      "ебаные": 7116,
      "целыи": 7117,
      "счастлива": 7118,
      "гриб": 7119,
      "порядо": 7120,
      "фургал": 7121,
      "вариант": 7122,
      "другую": 7123,
      "переме": 7124,
      "стерили": 7125,
      "бизнес": 7126,
      "жерт": 7127,
      "сез": 7128,
      "##lе": 7129,
      "##ar": 7130,
      "##ген": 7131,
      "##ливыи": 7132,
      "кофе": 7133,
      "моем": 7134,
      "##гина": 7135,
      "##жая": 7136,
      "##жан": 7137,
      "##пись": 7138,
      "делаете": 7139,
      "##дутся": 7140,
      "продать": 7141,
      "пожале": 7142,
      "выбро": 7143,
      "любимые": 7144,
      "заниматься": 7145,
      "профессиона": 7146,
      "запрос": 7147,
      "сх": 7148,
      "што": 7149,
      "##чков": 7150,
      "начи": 7151,
      "##енко": 7152,
      "пришло": 7153,
      "обну": 7154,
      "рук": 7155,
      "##ссе": 7156,
      "##чках": 7157,
      "помои": 7158,
      "думал": 7159,
      "скореи": 7160,
      "лучшее": 7161,
      "серде": 7162,
      "желаем": 7163,
      "ебло": 7164,
      "выбля": 7165,
      "братья": 7166,
      "волосы": 7167,
      "подарки": 7168,
      "поделиться": 7169,
      "вернуться": 7170,
      "заявление": 7171,
      "случилось": 7172,
      "ави": 7173,
      "внеш": 7174,
      "крова": 7175,
      "пя": 7176,
      "трет": 7177,
      "##слов": 7178,
      "##еннои": 7179,
      "рады": 7180,
      "##бая": 7181,
      "фигу": 7182,
      "самим": 7183,
      "купили": 7184,
      "требо": 7185,
      "лесу": 7186,
      "огонь": 7187,
      "поколение": 7188,
      "флаг": 7189,
      "железнодорож": 7190,
      "бри": 7191,
      "ибо": 7192,
      "увели": 7193,
      "эт": 7194,
      "эх": 7195,
      "##83": 7196,
      "##рище": 7197,
      "##лял": 7198,
      "##лера": 7199,
      "приви": 7200,
      "обна": 7201,
      "##гали": 7202,
      "собра": 7203,
      "одному": 7204,
      "поима": 7205,
      "автору": 7206,
      "настоящая": 7207,
      "дураков": 7208,
      "истори": 7209,
      "самому": 7210,
      "воспитание": 7211,
      "цвето": 7212,
      "##стях": 7213,
      "##лав": 7214,
      "зали": 7215,
      "забира": 7216,
      "даст": 7217,
      "##рыи": 7218,
      "любу": 7219,
      "разных": 7220,
      "духов": 7221,
      "муль": 7222,
      "реитин": 7223,
      "стран": 7224,
      "котором": 7225,
      "тупые": 7226,
      "труда": 7227,
      "мужиков": 7228,
      "цели": 7229,
      "пидары": 7230,
      "соседеи": 7231,
      "актриса": 7232,
      "фотошоп": 7233,
      "аро": 7234,
      "блю": 7235,
      "еду": 7236,
      "фер": 7237,
      "##дак": 7238,
      "пож": 7239,
      "напомина": 7240,
      "##акан": 7241,
      "зажи": 7242,
      "расти": 7243,
      "##лян": 7244,
      "состав": 7245,
      "жид": 7246,
      "живои": 7247,
      "##нятно": 7248,
      "делал": 7249,
      "##шками": 7250,
      "центр": 7251,
      "адре": 7252,
      "красивое": 7253,
      "раиона": 7254,
      "хабаровча": 7255,
      "читаю": 7256,
      "рису": 7257,
      "последнее": 7258,
      "впереди": 7259,
      "сохранить": 7260,
      "эмоции": 7261,
      "кошмар": 7262,
      "понедель": 7263,
      "двое": 7264,
      "ека": 7265,
      "##ис": 7266,
      "##ию": 7267,
      "неви": 7268,
      "##лию": 7269,
      "##рек": 7270,
      "##мого": 7271,
      "разви": 7272,
      "боли": 7273,
      "стоить": 7274,
      "пиздить": 7275,
      "москву": 7276,
      "дыря": 7277,
      "фильмы": 7278,
      "принимаю": 7279,
      "анали": 7280,
      "налоги": 7281,
      "ленин": 7282,
      "др": 7283,
      "убер": 7284,
      "япо": 7285,
      "поу": 7286,
      "##рочка": 7287,
      "наве": 7288,
      "##ванием": 7289,
      "##готов": 7290,
      "##лое": 7291,
      "##лого": 7292,
      "замен": 7293,
      "сок": 7294,
      "нор": 7295,
      "жену": 7296,
      "жизнью": 7297,
      "сыно": 7298,
      "бандеров": 7299,
      "учителя": 7300,
      "забыл": 7301,
      "смог": 7302,
      "победа": 7303,
      "шею": 7304,
      "завиду": 7305,
      "учиться": 7306,
      "секрет": 7307,
      "писали": 7308,
      "светлана": 7309,
      "дмит": 7310,
      "❤❤❤": 7311,
      "##49": 7312,
      "##нача": 7313,
      "новую": 7314,
      "жидов": 7315,
      "края": 7316,
      "##лыми": 7317,
      "пав": 7318,
      "менять": 7319,
      "странои": 7320,
      "##ственное": 7321,
      "конченыи": 7322,
      "мечты": 7323,
      "предупре": 7324,
      "пиздобол": 7325,
      "кие": 7326,
      "##см": 7327,
      "##ыы": 7328,
      "##емо": 7329,
      "##рисо": 7330,
      "прось": 7331,
      "отста": 7332,
      "##лее": 7333,
      "приве": 7334,
      "##щики": 7335,
      "делаите": 7336,
      "напиши": 7337,
      "центре": 7338,
      "начале": 7339,
      "придурки": 7340,
      "жур": 7341,
      "форму": 7342,
      "вен": 7343,
      "длин": 7344,
      "снять": 7345,
      "считать": 7346,
      "ух": 7347,
      "экра": 7348,
      "##дне": 7349,
      "небы": 7350,
      "##стит": 7351,
      "##дания": 7352,
      "##дон": 7353,
      "коп": 7354,
      "рад": 7355,
      "##шешь": 7356,
      "скла": 7357,
      "##грамот": 7358,
      "показывают": 7359,
      "##ительная": 7360,
      "хозяев": 7361,
      "поздравления": 7362,
      "машине": 7363,
      "охот": 7364,
      "сможет": 7365,
      "белорус": 7366,
      "начинается": 7367,
      "апте": 7368,
      "собачка": 7369,
      "дешевле": 7370,
      "росгвар": 7371,
      "задницу": 7372,
      "испыта": 7373,
      "250": 7374,
      "оку": 7375,
      "сбор": 7376,
      "##шники": 7377,
      "постра": 7378,
      "запо": 7379,
      "котик": 7380,
      "прикры": 7381,
      "##рыз": 7382,
      "обли": 7383,
      "обмен": 7384,
      "##мок": 7385,
      "масте": 7386,
      "##щиков": 7387,
      "##тым": 7388,
      "винов": 7389,
      "видят": 7390,
      "слома": 7391,
      "##ленных": 7392,
      "моим": 7393,
      "нужда": 7394,
      "гордость": 7395,
      "похожи": 7396,
      "евг": 7397,
      "москвы": 7398,
      "достали": 7399,
      "##льян": 7400,
      "учили": 7401,
      "поступок": 7402,
      "поддерживаю": 7403,
      "николаи": 7404,
      "отдельно": 7405,
      "падла": 7406,
      "является": 7407,
      "достоин": 7408,
      "##ела": 7409,
      "коте": 7410,
      "отдох": 7411,
      "гондо": 7412,
      "спар": 7413,
      "разбер": 7414,
      "##шали": 7415,
      "сади": 7416,
      "первом": 7417,
      "возму": 7418,
      "##ленныи": 7419,
      "добрых": 7420,
      "финан": 7421,
      "##ведения": 7422,
      "оплата": 7423,
      "угро": 7424,
      "тупоры": 7425,
      "потря": 7426,
      "некоторых": 7427,
      "##пустили": 7428,
      "затк": 7429,
      "особо": 7430,
      "андреи": 7431,
      "повторя": 7432,
      "ими": 7433,
      "ся": 7434,
      "ушла": 7435,
      "##альныи": 7436,
      "##ot": 7437,
      "##шут": 7438,
      "попо": 7439,
      "прока": 7440,
      "проходит": 7441,
      "проголо": 7442,
      "приво": 7443,
      "мараз": 7444,
      "боится": 7445,
      "##шат": 7446,
      "долла": 7447,
      "скажешь": 7448,
      "имени": 7449,
      "темпера": 7450,
      "ебаная": 7451,
      "полиция": 7452,
      "смерт": 7453,
      "образом": 7454,
      "сравни": 7455,
      "прет": 7456,
      "сбе": 7457,
      "##жник": 7458,
      "##вз": 7459,
      "##внои": 7460,
      "##чком": 7461,
      "##🌼🌼": 7462,
      "##рович": 7463,
      "отчет": 7464,
      "сук": 7465,
      "викто": 7466,
      "вернется": 7467,
      "педо": 7468,
      "границу": 7469,
      "сыну": 7470,
      "внимания": 7471,
      "марш": 7472,
      "нахер": 7473,
      "взрослые": 7474,
      "организа": 7475,
      "исклю": 7476,
      "отстреливать": 7477,
      "улуч": 7478,
      "цени": 7479,
      "##иs": 7480,
      "##идет": 7481,
      "##зво": 7482,
      "##щит": 7483,
      "##🎁🎁": 7484,
      "##това": 7485,
      "набор": 7486,
      "непло": 7487,
      "топ": 7488,
      "дар": 7489,
      "##сипе": 7490,
      "##гая": 7491,
      "стри": 7492,
      "подро": 7493,
      "чел": 7494,
      "микро": 7495,
      "посе": 7496,
      "груди": 7497,
      "##пыи": 7498,
      "имею": 7499,
      "миллиар": 7500,
      "дверь": 7501,
      "автомоби": 7502,
      "око": 7503,
      "цене": 7504,
      "##ап": 7505,
      "поси": 7506,
      "##лагает": 7507,
      "##дан": 7508,
      "##кими": 7509,
      "пропла": 7510,
      "выпуска": 7511,
      "##стья": 7512,
      "пишу": 7513,
      "века": 7514,
      "насчет": 7515,
      "перво": 7516,
      "##сыпа": 7517,
      "гаран": 7518,
      "собственно": 7519,
      "аллах": 7520,
      "библи": 7521,
      "леса": 7522,
      "электри": 7523,
      "вариан": 7524,
      "третии": 7525,
      "29": 7526,
      "48": 7527,
      "вере": 7528,
      "##аи": 7529,
      "##лением": 7530,
      "потра": 7531,
      "попасть": 7532,
      "##коне": 7533,
      "##дию": 7534,
      "говоря": 7535,
      "роз": 7536,
      "век": 7537,
      "##люсь": 7538,
      "сказки": 7539,
      "доброи": 7540,
      "каждую": 7541,
      "числе": 7542,
      "славя": 7543,
      "поликли": 7544,
      "смеш": 7545,
      "твоим": 7546,
      "покупать": 7547,
      "конченныи": 7548,
      "уровне": 7549,
      "метал": 7550,
      "штраф": 7551,
      "32": 7552,
      "жени": 7553,
      "жители": 7554,
      "хру": 7555,
      "##лизм": 7556,
      "##ери": 7557,
      "##итая": 7558,
      "прошел": 7559,
      "мошен": 7560,
      "##жек": 7561,
      "##льность": 7562,
      "кусок": 7563,
      "падаль": 7564,
      "##хал": 7565,
      "трудо": 7566,
      "сыр": 7567,
      "банку": 7568,
      "вашем": 7569,
      "тысячи": 7570,
      "повтор": 7571,
      "циф": 7572,
      "беларуси": 7573,
      "печально": 7574,
      "свадь": 7575,
      "засунуть": 7576,
      "чужои": 7577,
      "взаим": 7578,
      "екатер": 7579,
      "вряд": 7580,
      "сбо": 7581,
      "свали": 7582,
      "упо": 7583,
      "учить": 7584,
      "эли": 7585,
      "##юр": 7586,
      "##пь": 7587,
      "##дение": 7588,
      "##зам": 7589,
      "##стныи": 7590,
      "запас": 7591,
      "##сятся": 7592,
      "такому": 7593,
      "допол": 7594,
      "##жество": 7595,
      "носит": 7596,
      "буль": 7597,
      "##гаи": 7598,
      "дея": 7599,
      "##сор": 7600,
      "##фика": 7601,
      "пиздю": 7602,
      "темы": 7603,
      "помнить": 7604,
      "держит": 7605,
      "основа": 7606,
      "началь": 7607,
      "красавец": 7608,
      "закрыть": 7609,
      "конченная": 7610,
      "внимательно": 7611,
      "принимать": 7612,
      "псих": 7613,
      "уксуса": 7614,
      "естественно": 7615,
      "велосипе": 7616,
      "шли": 7617,
      "юмо": 7618,
      "##пку": 7619,
      "##71": 7620,
      "##кость": 7621,
      "отва": 7622,
      "##леб": 7623,
      "сорт": 7624,
      "обсу": 7625,
      "жилье": 7626,
      "##ходы": 7627,
      "куку": 7628,
      "сегодняш": 7629,
      "врачеи": 7630,
      "главныи": 7631,
      "нравятся": 7632,
      "победы": 7633,
      "ошиба": 7634,
      "sc": 7635,
      "ели": 7636,
      "осто": 7637,
      "пру": 7638,
      "уходит": 7639,
      "##сами": 7640,
      "##тится": 7641,
      "##ннои": 7642,
      "##ету": 7643,
      "##нишь": 7644,
      "дааа": 7645,
      "##стили": 7646,
      "##дитесь": 7647,
      "оставля": 7648,
      "##интер": 7649,
      "##фиг": 7650,
      "##ченные": 7651,
      "##ственнои": 7652,
      "волну": 7653,
      "непонятно": 7654,
      "угодно": 7655,
      "определи": 7656,
      "уточ": 7657,
      "подробнее": 7658,
      "удивительно": 7659,
      "условия": 7660,
      "порядке": 7661,
      "сплош": 7662,
      "тишина": 7663,
      "девчонки": 7664,
      "38": 7665,
      "воль": 7666,
      "ем": 7667,
      "пли": 7668,
      "👏👏👏": 7669,
      "напро": 7670,
      "начать": 7671,
      "##кин": 7672,
      "##рудни": 7673,
      "отме": 7674,
      "пристре": 7675,
      "##симо": 7676,
      "нигде": 7677,
      "##шими": 7678,
      "препо": 7679,
      "насла": 7680,
      "##зовать": 7681,
      "сколь": 7682,
      "голосу": 7683,
      "лопа": 7684,
      "кило": 7685,
      "говорится": 7686,
      "русская": 7687,
      "парня": 7688,
      "читала": 7689,
      "умеет": 7690,
      "аппет": 7691,
      "космо": 7692,
      "вовремя": 7693,
      "присоеди": 7694,
      "52": 7695,
      "впер": 7696,
      "##рд": 7697,
      "##чика": 7698,
      "##чал": 7699,
      "разв": 7700,
      "стати": 7701,
      "предприяти": 7702,
      "держа": 7703,
      "каждым": 7704,
      "россиян": 7705,
      "президентом": 7706,
      "список": 7707,
      "звонить": 7708,
      "деревни": 7709,
      "продажная": 7710,
      "обоих": 7711,
      "афри": 7712,
      "ублюдков": 7713,
      "гит": 7714,
      "лена": 7715,
      "месси": 7716,
      "##хли": 7717,
      "##ll": 7718,
      "##стка": 7719,
      "соста": 7720,
      "примите": 7721,
      "новои": 7722,
      "розы": 7723,
      "кате": 7724,
      "разор": 7725,
      "изб": 7726,
      "извест": 7727,
      "пусты": 7728,
      "##чев": 7729,
      "бабло": 7730,
      "##пель": 7731,
      "режим": 7732,
      "первои": 7733,
      "планет": 7734,
      "помнит": 7735,
      "мразеи": 7736,
      "всяких": 7737,
      "проидет": 7738,
      "воиск": 7739,
      "уважать": 7740,
      "песню": 7741,
      "рассказ": 7742,
      "##👎👎👎👎": 7743,
      "ездить": 7744,
      "далее": 7745,
      "появля": 7746,
      "строить": 7747,
      "хими": 7748,
      "церковь": 7749,
      "чеснок": 7750,
      "период": 7751,
      "мэ": 7752,
      "окра": 7753,
      "твер": 7754,
      "убор": 7755,
      "шел": 7756,
      "##рно": 7757,
      "##жется": 7758,
      "##жке": 7759,
      "порода": 7760,
      "прошла": 7761,
      "выходит": 7762,
      "##вее": 7763,
      "##туре": 7764,
      "мила": 7765,
      "больнои": 7766,
      "##ментов": 7767,
      "россиеи": 7768,
      "скром": 7769,
      "белые": 7770,
      "конкур": 7771,
      "гавно": 7772,
      "показывать": 7773,
      "алла": 7774,
      "10000": 7775,
      "берез": 7776,
      "форме": 7777,
      "сотрудни": 7778,
      "старости": 7779,
      "цветок": 7780,
      "ебанутая": 7781,
      "демокра": 7782,
      "ит": 7783,
      "прит": 7784,
      "яко": 7785,
      "##вное": 7786,
      "##42": 7787,
      "##39": 7788,
      "зага": 7789,
      "##асы": 7790,
      "##тащи": 7791,
      "роман": 7792,
      "обви": 7793,
      "##гим": 7794,
      "##зия": 7795,
      "конфи": 7796,
      "масла": 7797,
      "мужем": 7798,
      "наилуч": 7799,
      "считает": 7800,
      "относ": 7801,
      "сумму": 7802,
      "грязь": 7803,
      "отсюда": 7804,
      "требуется": 7805,
      "процес": 7806,
      "проститутка": 7807,
      "салат": 7808,
      "генера": 7809,
      "оконча": 7810,
      "65": 7811,
      "жк": 7812,
      "мебе": 7813,
      "##рге": 7814,
      "##тят": 7815,
      "##a38": 7816,
      "##нного": 7817,
      "нечем": 7818,
      "##ниться": 7819,
      "коров": 7820,
      "отма": 7821,
      "##нести": 7822,
      "приходится": 7823,
      "гораз": 7824,
      "разм": 7825,
      "изу": 7826,
      "##сала": 7827,
      "паро": 7828,
      "##туру": 7829,
      "думе": 7830,
      "посу": 7831,
      "силу": 7832,
      "молодости": 7833,
      "газо": 7834,
      "партии": 7835,
      "уважением": 7836,
      "читаите": 7837,
      "мусора": 7838,
      "ссылку": 7839,
      "##ненько": 7840,
      "воздух": 7841,
      "систем": 7842,
      "людмила": 7843,
      "памятник": 7844,
      "классов": 7845,
      "воспоминания": 7846,
      "беи": 7847,
      "ввиду": 7848,
      "одоб": 7849,
      "оцени": 7850,
      "##ch": 7851,
      "##⭐⭐": 7852,
      "##расы": 7853,
      "забо": 7854,
      "##тим": 7855,
      "##виться": 7856,
      "веду": 7857,
      "тело": 7858,
      "мили": 7859,
      "хорошеи": 7860,
      "делается": 7861,
      "##мыи": 7862,
      "хотим": 7863,
      "краснои": 7864,
      "думаешь": 7865,
      "враги": 7866,
      "банк": 7867,
      "настоящее": 7868,
      "играет": 7869,
      "очереди": 7870,
      "пенсионеры": 7871,
      "содержа": 7872,
      "u9b079a38": 7873,
      "u9b079a3836s": 7874,
      "##кг": 7875,
      "##ww": 7876,
      "попы": 7877,
      "##дание": 7878,
      "заити": 7879,
      "такси": 7880,
      "выле": 7881,
      "данныи": 7882,
      "изоб": 7883,
      "стаби": 7884,
      "##нько": 7885,
      "##ссы": 7886,
      "заклю": 7887,
      "продаю": 7888,
      "убиица": 7889,
      "##жаться": 7890,
      "трахать": 7891,
      "кругом": 7892,
      "родила": 7893,
      "россияне": 7894,
      "вторая": 7895,
      "весело": 7896,
      "людях": 7897,
      "##ведение": 7898,
      "строитель": 7899,
      "ленту": 7900,
      "уважаемые": 7901,
      "золотои": 7902,
      "процентов": 7903,
      "иису": 7904,
      "устраивает": 7905,
      "600": 7906,
      "ден": 7907,
      "оре": 7908,
      "очарова": 7909,
      "прем": 7910,
      "сф": 7911,
      "усы": 7912,
      "шка": 7913,
      "##сам": 7914,
      "##жна": 7915,
      "##ишь": 7916,
      "наси": 7917,
      "##рица": 7918,
      "проек": 7919,
      "отклю": 7920,
      "принес": 7921,
      "##чила": 7922,
      "обья": 7923,
      "обман": 7924,
      "##тера": 7925,
      "##била": 7926,
      "##равно": 7927,
      "борь": 7928,
      "суток": 7929,
      "##пара": 7930,
      "сиди": 7931,
      "сало": 7932,
      "первые": 7933,
      "авг": 7934,
      "ложь": 7935,
      "правила": 7936,
      "русского": 7937,
      "родная": 7938,
      "купил": 7939,
      "бабуля": 7940,
      "поддержку": 7941,
      "шедев": 7942,
      "июль": 7943,
      "морда": 7944,
      "уровня": 7945,
      "шоке": 7946,
      "шокола": 7947,
      "местах": 7948,
      "попробую": 7949,
      "армия": 7950,
      "зеленыи": 7951,
      "доверя": 7952,
      "болезни": 7953,
      "серьезно": 7954,
      "пенсионеров": 7955,
      "нравиться": 7956,
      "гром": 7957,
      "сети": 7958,
      "##альная": 7959,
      "##ut": 7960,
      "##рим": 7961,
      "дому": 7962,
      "сон": 7963,
      "прили": 7964,
      "самым": 7965,
      "сталина": 7966,
      "добрая": 7967,
      "закрои": 7968,
      "##сыла": 7969,
      "девочку": 7970,
      "отличная": 7971,
      "дальнеи": 7972,
      "июл": 7973,
      "##служи": 7974,
      "анато": 7975,
      "идея": 7976,
      "сверху": 7977,
      "яблоки": 7978,
      "администрации": 7979,
      "штаны": 7980,
      "следствия": 7981,
      "36": 7982,
      "бит": 7983,
      "раком": 7984,
      "##чники": 7985,
      "нада": 7986,
      "##аку": 7987,
      "загля": 7988,
      "##вица": 7989,
      "норм": 7990,
      "никуда": 7991,
      "ростов": 7992,
      "дег": 7993,
      "пунк": 7994,
      "больных": 7995,
      "раска": 7996,
      "сапо": 7997,
      "##полне": 7998,
      "масок": 7999,
      "враг": 8000,
      "словами": 8001,
      "счастлив": 8002,
      "спец": 8003,
      "службы": 8004,
      "процвета": 8005,
      "ебанутые": 8006,
      "приобрести": 8007,
      "www": 8008,
      "лебе": 8009,
      "шку": 8010,
      "щен": 8011,
      "##зб": 8012,
      "появ": 8013,
      "##струк": 8014,
      "стакан": 8015,
      "##ереть": 8016,
      "подклю": 8017,
      "##льном": 8018,
      "передать": 8019,
      "комнат": 8020,
      "##полез": 8021,
      "лаик": 8022,
      "##ченко": 8023,
      "предатели": 8024,
      "несчаст": 8025,
      "понравился": 8026,
      "улыба": 8027,
      "штук": 8028,
      "иму": 8029,
      "коле": 8030,
      "оля": 8031,
      "##спе": 8032,
      "##чительно": 8033,
      "##68": 8034,
      "##🎂🎂": 8035,
      "##даи": 8036,
      "заставля": 8037,
      "товар": 8038,
      "отмет": 8039,
      "ран": 8040,
      "давали": 8041,
      "##читься": 8042,
      "живы": 8043,
      "##пози": 8044,
      "##сана": 8045,
      "сера": 8046,
      "первое": 8047,
      "верят": 8048,
      "сынок": 8049,
      "красотка": 8050,
      "желания": 8051,
      "понимать": 8052,
      "##долго": 8053,
      "рези": 8054,
      "магазинах": 8055,
      "##🌹🌹🌹": 8056,
      "компьют": 8057,
      "миллионы": 8058,
      "статья": 8059,
      "иванов": 8060,
      "беспредел": 8061,
      "менее": 8062,
      "немец": 8063,
      "37": 8064,
      "истер": 8065,
      "лжи": 8066,
      "мере": 8067,
      "##зку": 8068,
      "##феи": 8069,
      "нега": 8070,
      "зафи": 8071,
      "проща": 8072,
      "##аться": 8073,
      "подви": 8074,
      "персо": 8075,
      "##тельства": 8076,
      "женщине": 8077,
      "путинские": 8078,
      "учите": 8079,
      "плохои": 8080,
      "деревья": 8081,
      "отдых": 8082,
      "союза": 8083,
      "придумали": 8084,
      "глазами": 8085,
      "удовольствие": 8086,
      "ищет": 8087,
      "простых": 8088,
      "58": 8089,
      "апре": 8090,
      "клет": 8091,
      "млад": 8092,
      "оче": 8093,
      "фло": 8094,
      "##тные": 8095,
      "##вень": 8096,
      "##чб": 8097,
      "##😄😄": 8098,
      "наступа": 8099,
      "неба": 8100,
      "котя": 8101,
      "вышли": 8102,
      "##лечка": 8103,
      "подряд": 8104,
      "##писы": 8105,
      "бабы": 8106,
      "стоять": 8107,
      "инди": 8108,
      "##мые": 8109,
      "галина": 8110,
      "спосо": 8111,
      "вкусня": 8112,
      "открывается": 8113,
      "грех": 8114,
      "деревня": 8115,
      "ошибки": 8116,
      "литр": 8117,
      "буква": 8118,
      "старые": 8119,
      "##рмое": 8120,
      "феик": 8121,
      "касается": 8122,
      "вполне": 8123,
      "жителеи": 8124,
      "мес": 8125,
      "смет": 8126,
      "##😁😁": 8127,
      "поки": 8128,
      "поце": 8129,
      "подои": 8130,
      "находите": 8131,
      "##кому": 8132,
      "##тал": 8133,
      "дала": 8134,
      "##няка": 8135,
      "кусо": 8136,
      "папу": 8137,
      "миру": 8138,
      "мудро": 8139,
      "##пуга": 8140,
      "лежит": 8141,
      "позже": 8142,
      "##тельные": 8143,
      "исправ": 8144,
      "хватило": 8145,
      "желательно": 8146,
      "жопе": 8147,
      "урожаи": 8148,
      "забыла": 8149,
      "мерт": 8150,
      "морду": 8151,
      "уничтожить": 8152,
      "писала": 8153,
      "замечательные": 8154,
      "пригото": 8155,
      "уверен": 8156,
      "валентина": 8157,
      "крити": 8158,
      "шар": 8159,
      "##бре": 8160,
      "##et": 8161,
      "##щему": 8162,
      "##🌺🌺": 8163,
      "нажи": 8164,
      "##гор": 8165,
      "##льными": 8166,
      "##лева": 8167,
      "приехали": 8168,
      "воде": 8169,
      "общаться": 8170,
      "спря": 8171,
      "##пост": 8172,
      "суть": 8173,
      "##бург": 8174,
      "контра": 8175,
      "плани": 8176,
      "педа": 8177,
      "лагер": 8178,
      "получает": 8179,
      "##лемен": 8180,
      "теря": 8181,
      "утвер": 8182,
      "##ваися": 8183,
      "пидарасов": 8184,
      "##🤣🤣🤣": 8185,
      "замечательная": 8186,
      "съе": 8187,
      "договор": 8188,
      "прикольно": 8189,
      "prnt": 8190,
      "44": 8191,
      "остро": 8192,
      "уво": 8193,
      "уха": 8194,
      "хол": 8195,
      "##тите": 8196,
      "##его": 8197,
      "##дж": 8198,
      "##en": 8199,
      "насо": 8200,
      "заве": 8201,
      "зараз": 8202,
      "дано": 8203,
      "ничто": 8204,
      "стака": 8205,
      "поднять": 8206,
      "##пают": 8207,
      "##туально": 8208,
      "##шала": 8209,
      "большим": 8210,
      "страни": 8211,
      "гара": 8212,
      "дистан": 8213,
      "колхоз": 8214,
      "убила": 8215,
      "понимаешь": 8216,
      "советы": 8217,
      "советую": 8218,
      "свинья": 8219,
      "позвонить": 8220,
      "метро": 8221,
      "миллион": 8222,
      "придумал": 8223,
      "кремле": 8224,
      "разместить": 8225,
      "голосовать": 8226,
      "двери": 8227,
      "слышала": 8228,
      "тьфу": 8229,
      "##надле": 8230,
      "симпати": 8231,
      "зафикси": 8232,
      "34": 8233,
      "упа": 8234,
      "##отов": 8235,
      "##лению": 8236,
      "##гр": 8237,
      "полю": 8238,
      "порои": 8239,
      "##рался": 8240,
      "нат": 8241,
      "##лите": 8242,
      "##ваитесь": 8243,
      "ранее": 8244,
      "принадле": 8245,
      "##мое": 8246,
      "мария": 8247,
      "бонус": 8248,
      "самых": 8249,
      "##дывать": 8250,
      "виду": 8251,
      "стадо": 8252,
      "##шаите": 8253,
      "сестра": 8254,
      "класси": 8255,
      "класса": 8256,
      "гар": 8257,
      "груз": 8258,
      "хуиня": 8259,
      "парк": 8260,
      "родине": 8261,
      "ужасно": 8262,
      "котят": 8263,
      "##паться": 8264,
      "##потреб": 8265,
      "судья": 8266,
      "двига": 8267,
      "принц": 8268,
      "сосет": 8269,
      "чесно": 8270,
      "система": 8271,
      "двоих": 8272,
      "участие": 8273,
      "номера": 8274,
      "лаиков": 8275,
      "##зуюсь": 8276,
      "педофи": 8277,
      "42": 8278,
      "800": 8279,
      "dt": 8280,
      "зная": 8281,
      "ню": 8282,
      "озе": 8283,
      "##бку": 8284,
      "##ясь": 8285,
      "##вича": 8286,
      "ничем": 8287,
      "больнице": 8288,
      "##шкин": 8289,
      "мразота": 8290,
      "поимет": 8291,
      "трам": 8292,
      "рынке": 8293,
      "открыть": 8294,
      "июня": 8295,
      "деревен": 8296,
      "бедная": 8297,
      "чувства": 8298,
      "городу": 8299,
      "выигра": 8300,
      "царь": 8301,
      "нелюди": 8302,
      "альян": 8303,
      "брю": 8304,
      "вни": 8305,
      "зла": 8306,
      "лам": 8307,
      "лоб": 8308,
      "чеи": 8309,
      "##тку": 8310,
      "##91": 8311,
      "##цвет": 8312,
      "пог": 8313,
      "прило": 8314,
      "придут": 8315,
      "десят": 8316,
      "рулем": 8317,
      "лизать": 8318,
      "##тую": 8319,
      "бата": 8320,
      "распо": 8321,
      "помог": 8322,
      "красныи": 8323,
      "сереб": 8324,
      "бесконе": 8325,
      "удалось": 8326,
      "##ходили": 8327,
      "кровать": 8328,
      "немно": 8329,
      "создать": 8330,
      "обыкнов": 8331,
      "козла": 8332,
      "фашистов": 8333,
      "образования": 8334,
      "выидет": 8335,
      "использу": 8336,
      "ангел": 8337,
      "напря": 8338,
      "телевизо": 8339,
      "михаи": 8340,
      "гораздо": 8341,
      "едут": 8342,
      "зом": 8343,
      "удо": 8344,
      "##коло": 8345,
      "##пления": 8346,
      "##лла": 8347,
      "##тории": 8348,
      "заре": 8349,
      "кое": 8350,
      "протя": 8351,
      "прожить": 8352,
      "выста": 8353,
      "мощ": 8354,
      "##рые": 8355,
      "спит": 8356,
      "изо": 8357,
      "##сажи": 8358,
      "##шаи": 8359,
      "мешает": 8360,
      "деткам": 8361,
      "россиискои": 8362,
      "печень": 8363,
      "трусы": 8364,
      "трудом": 8365,
      "правило": 8366,
      "арт": 8367,
      "всякие": 8368,
      "бандит": 8369,
      "советскии": 8370,
      "огород": 8371,
      "подруга": 8372,
      "твоего": 8373,
      "добавляитесь": 8374,
      "пробовала": 8375,
      "медицина": 8376,
      "мамочка": 8377,
      "следующую": 8378,
      "привязать": 8379,
      "холодильник": 8380,
      "костюм": 8381,
      "держись": 8382,
      "дочери": 8383,
      "характер": 8384,
      "жкх": 8385,
      "серафи": 8386,
      "дря": 8387,
      "ед": 8388,
      "сним": 8389,
      "##нению": 8390,
      "##37": 8391,
      "##32": 8392,
      "##92": 8393,
      "##точка": 8394,
      "отпуска": 8395,
      "призы": 8396,
      "вова": 8397,
      "ногами": 8398,
      "##няется": 8399,
      "лимо": 8400,
      "##дном": 8401,
      "бала": 8402,
      "наск": 8403,
      "рели": 8404,
      "хорошим": 8405,
      "странице": 8406,
      "деньгами": 8407,
      "закан": 8408,
      "села": 8409,
      "##новь": 8410,
      "##дник": 8411,
      "думали": 8412,
      "бесполез": 8413,
      "##чены": 8414,
      "поиме": 8415,
      "уважения": 8416,
      "техно": 8417,
      "веснои": 8418,
      "паспор": 8419,
      "админ": 8420,
      "смысла": 8421,
      "петух": 8422,
      "василь": 8423,
      "америко": 8424,
      "прочитала": 8425,
      "восхища": 8426,
      "солдат": 8427,
      "кирпи": 8428,
      "скорби": 8429,
      "туалет": 8430,
      "гени": 8431,
      "ес": 8432,
      "оси": 8433,
      "упы": 8434,
      "эи": 8435,
      "нав": 8436,
      "называют": 8437,
      "##кает": 8438,
      "вышла": 8439,
      "добы": 8440,
      "##вин": 8441,
      "##душ": 8442,
      "##стане": 8443,
      "мату": 8444,
      "разде": 8445,
      "жесть": 8446,
      "##бых": 8447,
      "вар": 8448,
      "глазки": 8449,
      "сделано": 8450,
      "грудь": 8451,
      "врагов": 8452,
      "корруп": 8453,
      "анна": 8454,
      "##ооо": 8455,
      "смогла": 8456,
      "начинают": 8457,
      "наказать": 8458,
      "ненавижу": 8459,
      "млн": 8460,
      "подъез": 8461,
      "задолбали": 8462,
      "вло": 8463,
      "пяти": 8464,
      "тка": 8465,
      "##хло": 8466,
      "##фер": 8467,
      "навя": 8468,
      "##реза": 8469,
      "##тину": 8470,
      "##руи": 8471,
      "прихо": 8472,
      "причина": 8473,
      "##мую": 8474,
      "##стик": 8475,
      "##стика": 8476,
      "разли": 8477,
      "стес": 8478,
      "##дность": 8479,
      "варень": 8480,
      "валер": 8481,
      "##шаю": 8482,
      "мусуль": 8483,
      "скажут": 8484,
      "чужие": 8485,
      "гав": 8486,
      "гад": 8487,
      "каждая": 8488,
      "показывает": 8489,
      "жены": 8490,
      "смотрела": 8491,
      "трусли": 8492,
      "бесс": 8493,
      "широ": 8494,
      "паспорт": 8495,
      "пенсионныи": 8496,
      "хранит": 8497,
      "церкви": 8498,
      "отпуск": 8499,
      "ласко": 8500,
      "##вшись": 8501,
      "адекват": 8502,
      "катего": 8503,
      "вред": 8504,
      "плем": 8505,
      "##бит": 8506,
      "##бят": 8507,
      "##дру": 8508,
      "##дцать": 8509,
      "##лкои": 8510,
      "##зка": 8511,
      "##новыи": 8512,
      "недоволь": 8513,
      "##стные": 8514,
      "##каи": 8515,
      "проч": 8516,
      "выпа": 8517,
      "пишешь": 8518,
      "##циона": 8519,
      "##сон": 8520,
      "самол": 8521,
      "сидел": 8522,
      "кончи": 8523,
      "##ческую": 8524,
      "хвала": 8525,
      "поимать": 8526,
      "деиствия": 8527,
      "бабушке": 8528,
      "закончится": 8529,
      "##хотрон": 8530,
      "ездили": 8531,
      "администрация": 8532,
      "карантин": 8533,
      "армян": 8534,
      "конкретно": 8535,
      "54": 8536,
      "75": 8537,
      "азер": 8538,
      "бот": 8539,
      "яс": 8540,
      "##кнуть": 8541,
      "##пп": 8542,
      "##пред": 8543,
      "##34": 8544,
      "пози": 8545,
      "наста": 8546,
      "##стами": 8547,
      "##лочки": 8548,
      "##доро": 8549,
      "##дида": 8550,
      "вып": 8551,
      "выде": 8552,
      "мото": 8553,
      "модель": 8554,
      "общем": 8555,
      "##моро": 8556,
      "спер": 8557,
      "##дности": 8558,
      "##туда": 8559,
      "первым": 8560,
      "остальных": 8561,
      "##бель": 8562,
      "##ступи": 8563,
      "##дям": 8564,
      "этаж": 8565,
      "стороне": 8566,
      "помощью": 8567,
      "торг": 8568,
      "готовить": 8569,
      "отдыхать": 8570,
      "информации": 8571,
      "##👏👏👏": 8572,
      "статью": 8573,
      "радует": 8574,
      "канал": 8575,
      "приготов": 8576,
      "тюрьме": 8577,
      "десять": 8578,
      "сказка": 8579,
      "ветера": 8580,
      "развити": 8581,
      "46": 8582,
      "аху": 8583,
      "мами": 8584,
      "тесто": 8585,
      "ун": 8586,
      "шер": 8587,
      "##😭😭": 8588,
      "постро": 8589,
      "напра": 8590,
      "##акать": 8591,
      "##кали": 8592,
      "застре": 8593,
      "руба": 8594,
      "возмо": 8595,
      "гаи": 8596,
      "однозна": 8597,
      "многодет": 8598,
      "колле": 8599,
      "путинскии": 8600,
      "говорила": 8601,
      "дерево": 8602,
      "наидется": 8603,
      "увидел": 8604,
      "квартире": 8605,
      "строго": 8606,
      "некогда": 8607,
      "##нутые": 8608,
      "решила": 8609,
      "депутат": 8610,
      "свободу": 8611,
      "заводы": 8612,
      "гроз": 8613,
      "митинги": 8614,
      "региона": 8615,
      "половина": 8616,
      "замуж": 8617,
      "успоко": 8618,
      "асфальт": 8619,
      "эффек": 8620,
      "мастера": 8621,
      "вновь": 8622,
      "гвар": 8623,
      "уходят": 8624,
      "##мпи": 8625,
      "##стр": 8626,
      "##даю": 8627,
      "##тию": 8628,
      "даче": 8629,
      "##ебы": 8630,
      "воб": 8631,
      "балко": 8632,
      "бездель": 8633,
      "бешен": 8634,
      "тари": 8635,
      "границы": 8636,
      "правильные": 8637,
      "жопы": 8638,
      "связа": 8639,
      "учени": 8640,
      "##слав": 8641,
      "##жены": 8642,
      "леген": 8643,
      "##править": 8644,
      "языком": 8645,
      "спаса": 8646,
      "нашелся": 8647,
      "средств": 8648,
      "награда": 8649,
      "золото": 8650,
      "уидет": 8651,
      "позорище": 8652,
      "посыла": 8653,
      "конституции": 8654,
      "услуги": 8655,
      "пособия": 8656,
      "котенок": 8657,
      "впервые": 8658,
      "находитесь": 8659,
      "39": 8660,
      "анек": 8661,
      "побо": 8662,
      "поду": 8663,
      "##роны": 8664,
      "##енное": 8665,
      "##валь": 8666,
      "проз": 8667,
      "оттуда": 8668,
      "##ляла": 8669,
      "##нуло": 8670,
      "##чата": 8671,
      "кали": 8672,
      "подписа": 8673,
      "ван": 8674,
      "больницы": 8675,
      "##ствуи": 8676,
      "##нему": 8677,
      "маску": 8678,
      "##саться": 8679,
      "деревя": 8680,
      "алексе": 8681,
      "отвечает": 8682,
      "несет": 8683,
      "миллионов": 8684,
      "сдохни": 8685,
      "потеряли": 8686,
      "##💋💋💋": 8687,
      "защищать": 8688,
      "америке": 8689,
      "фигня": 8690,
      "наилучшего": 8691,
      "86": 8692,
      "дит": 8693,
      "ща": 8694,
      "##бро": 8695,
      "##ими": 8696,
      "##лют": 8697,
      "##товать": 8698,
      "поет": 8699,
      "##деш": 8700,
      "проро": 8701,
      "ходила": 8702,
      "рожда": 8703,
      "ведет": 8704,
      "руга": 8705,
      "сидишь": 8706,
      "##ссию": 8707,
      "жизнен": 8708,
      "##новка": 8709,
      "перез": 8710,
      "##мых": 8711,
      "черти": 8712,
      "активно": 8713,
      "##ственных": 8714,
      "ответа": 8715,
      "прекрасное": 8716,
      "##нности": 8717,
      "поставил": 8718,
      "выраст": 8719,
      "китае": 8720,
      "потерял": 8721,
      "игрушки": 8722,
      "пиндосов": 8723,
      "заберу": 8724,
      "внутрен": 8725,
      "замок": 8726,
      "клоун": 8727,
      "кипят": 8728,
      "неприят": 8729,
      "полицаи": 8730,
      "грешных": 8731,
      "знак": 8732,
      "еле": 8733,
      "кно": 8734,
      "ноль": 8735,
      "слю": 8736,
      "##яр": 8737,
      "##or": 8738,
      "##😢😢": 8739,
      "##56": 8740,
      "нести": 8741,
      "неправи": 8742,
      "##кал": 8743,
      "##кан": 8744,
      "заста": 8745,
      "засе": 8746,
      "вывод": 8747,
      "спрос": 8748,
      "мали": 8749,
      "##няться": 8750,
      "разработ": 8751,
      "##честве": 8752,
      "красо": 8753,
      "параз": 8754,
      "здох": 8755,
      "план": 8756,
      "позна": 8757,
      "скот": 8758,
      "графи": 8759,
      "приветик": 8760,
      "любого": 8761,
      "круг": 8762,
      "говоришь": 8763,
      "вторизации": 8764,
      "счастливои": 8765,
      "греба": 8766,
      "просмот": 8767,
      "обычныи": 8768,
      "странах": 8769,
      "комментария": 8770,
      "секс": 8771,
      "взрослых": 8772,
      "достоино": 8773,
      "ленина": 8774,
      "болезнь": 8775,
      "ефремова": 8776,
      "родственников": 8777,
      "население": 8778,
      "знакомых": 8779,
      "экспер": 8780,
      "оригина": 8781,
      "однозначно": 8782,
      "06": 8783,
      "вду": 8784,
      "лнр": 8785,
      "твори": 8786,
      "##дения": 8787,
      "##чут": 8788,
      "выр": 8789,
      "выходить": 8790,
      "дожи": 8791,
      "##русом": 8792,
      "приу": 8793,
      "воровать": 8794,
      "ногу": 8795,
      "ровно": 8796,
      "##стила": 8797,
      "подло": 8798,
      "болит": 8799,
      "виктор": 8800,
      "село": 8801,
      "переи": 8802,
      "##мыс": 8803,
      "помогать": 8804,
      "жара": 8805,
      "лохотрон": 8806,
      "дорог": 8807,
      "лари": 8808,
      "напишу": 8809,
      "диби": 8810,
      "семе": 8811,
      "праве": 8812,
      "наверняка": 8813,
      "врача": 8814,
      "трава": 8815,
      "англи": 8816,
      "ебут": 8817,
      "вторую": 8818,
      "вторых": 8819,
      "##аааа": 8820,
      "проверя": 8821,
      "чиновников": 8822,
      "сказочныи": 8823,
      "бумеранг": 8824,
      "врать": 8825,
      "дне": 8826,
      "сц": 8827,
      "сбы": 8828,
      "тд": 8829,
      "шам": 8830,
      "👍👍": 8831,
      "##еться": 8832,
      "##жени": 8833,
      "##хам": 8834,
      "##дке": 8835,
      "##al": 8836,
      "##зем": 8837,
      "##шта": 8838,
      "##8oi": 8839,
      "##щер": 8840,
      "##bе": 8841,
      "##😀😀": 8842,
      "##🥰🥰": 8843,
      "##🎉🎉": 8844,
      "##рас": 8845,
      "##ента": 8846,
      "ков": 8847,
      "копе": 8848,
      "выраз": 8849,
      "выити": 8850,
      "вылез": 8851,
      "раство": 8852,
      "созна": 8853,
      "##вик": 8854,
      "воры": 8855,
      "##нутая": 8856,
      "рода": 8857,
      "##бах": 8858,
      "##рям": 8859,
      "дива": 8860,
      "интересная": 8861,
      "ответил": 8862,
      "##зываю": 8863,
      "##зывала": 8864,
      "родилась": 8865,
      "однажды": 8866,
      "свидете": 8867,
      "личное": 8868,
      "гиб": 8869,
      "обед": 8870,
      "знаком": 8871,
      "рабочии": 8872,
      "подобных": 8873,
      "проверить": 8874,
      "турни": 8875,
      "обувь": 8876,
      "коммуна": 8877,
      "фамилия": 8878,
      "транспор": 8879,
      "проголосо": 8880,
      "здела": 8881,
      "##как": 8882,
      "##зон": 8883,
      "посто": 8884,
      "кошек": 8885,
      "прошли": 8886,
      "##дился": 8887,
      "##ляется": 8888,
      "данные": 8889,
      "вовсе": 8890,
      "разно": 8891,
      "разум": 8892,
      "##жаите": 8893,
      "стару": 8894,
      "столи": 8895,
      "безграмот": 8896,
      "испор": 8897,
      "путинская": 8898,
      "##ходила": 8899,
      "овца": 8900,
      "стира": 8901,
      "зиму": 8902,
      "капитана": 8903,
      "цветов": 8904,
      "вакцина": 8905,
      "неплохо": 8906,
      "индивиду": 8907,
      "анекдо": 8908,
      "гне": 8909,
      "гнои": 8910,
      "ест": 8911,
      "ип": 8912,
      "эпи": 8913,
      "##рныи": 8914,
      "##дится": 8915,
      "##ik": 8916,
      "##gа": 8917,
      "пош": 8918,
      "пошло": 8919,
      "##рово": 8920,
      "зама": 8921,
      "сосу": 8922,
      "ноя": 8923,
      "нина": 8924,
      "тель": 8925,
      "личные": 8926,
      "виз": 8927,
      "виш": 8928,
      "##ньку": 8929,
      "хороша": 8930,
      "перевер": 8931,
      "работя": 8932,
      "заки": 8933,
      "закро": 8934,
      "клад": 8935,
      "ложки": 8936,
      "маска": 8937,
      "брали": 8938,
      "любое": 8939,
      "8914": 8940,
      "##принима": 8941,
      "играю": 8942,
      "друзьям": 8943,
      "фабри": 8944,
      "смогли": 8945,
      "сторон": 8946,
      "плевать": 8947,
      "грязи": 8948,
      "терпение": 8949,
      "степ": 8950,
      "зубы": 8951,
      "уважаемыи": 8952,
      "ставят": 8953,
      "появились": 8954,
      "выросли": 8955,
      "коронавирус": 8956,
      "футбол": 8957,
      "##мышлен": 8958,
      "богороди": 8959,
      "потряса": 8960,
      "заканчи": 8961,
      "едро": 8962,
      "ири": 8963,
      "иван": 8964,
      "лень": 8965,
      "сго": 8966,
      "сня": 8967,
      "уют": 8968,
      "чьи": 8969,
      "юмор": 8970,
      "##тная": 8971,
      "##иа": 8972,
      "##ыми": 8973,
      "##op": 8974,
      "##зеи": 8975,
      "##58": 8976,
      "##стки": 8977,
      "завер": 8978,
      "выступ": 8979,
      "монет": 8980,
      "дочка": 8981,
      "отвра": 8982,
      "##нера": 8983,
      "##бою": 8984,
      "##ровскии": 8985,
      "##почка": 8986,
      "кучу": 8987,
      "больницу": 8988,
      "насле": 8989,
      "решать": 8990,
      "##зывал": 8991,
      "бездом": 8992,
      "расши": 8993,
      "лапу": 8994,
      "мамои": 8995,
      "##ченныи": 8996,
      "896": 8997,
      "свинь": 8998,
      "начинать": 8999,
      "##хотвор": 9000,
      "иностран": 9001,
      "называем": 9002,
      "скучно": 9003,
      "фамилию": 9004,
      "дядя": 9005,
      "фотки": 9006,
      "холодиль": 9007,
      "обсуждать": 9008,
      "официально": 9009,
      "700": 9010,
      "bа": 9011,
      "hu": 9012,
      "аэ": 9013,
      "арма": 9014,
      "агре": 9015,
      "вдох": 9016,
      "уга": 9017,
      "##ds": 9018,
      "##крои": 9019,
      "##on": 9020,
      "напол": 9021,
      "##дились": 9022,
      "выт": 9023,
      "##тива": 9024,
      "принять": 9025,
      "подво": 9026,
      "##ровка": 9027,
      "вечныи": 9028,
      "вин": 9029,
      "сидели": 9030,
      "сильная": 9031,
      "переве": 9032,
      "секу": 9033,
      "продал": 9034,
      "лав": 9035,
      "##чета": 9036,
      "советское": 9037,
      "великои": 9038,
      "конченая": 9039,
      "##ческим": 9040,
      "скучаю": 9041,
      "##❤❤❤": 9042,
      "шлюхи": 9043,
      "шикарная": 9044,
      "выгодно": 9045,
      "оружие": 9046,
      "кандида": 9047,
      "выставлять": 9048,
      "любую": 9049,
      "фра": 9050,
      "##хла": 9051,
      "##шему": 9052,
      "##es": 9053,
      "##голь": 9054,
      "поде": 9055,
      "настрои": 9056,
      "##рила": 9057,
      "точнее": 9058,
      "выли": 9059,
      "вырод": 9060,
      "приез": 9061,
      "ведут": 9062,
      "тела": 9063,
      "преж": 9064,
      "куро": 9065,
      "пао": 9066,
      "молока": 9067,
      "чемпи": 9068,
      "интересныи": 9069,
      "массо": 9070,
      "убили": 9071,
      "##дены": 9072,
      "любому": 9073,
      "охрене": 9074,
      "сердцем": 9075,
      "неуда": 9076,
      "котенка": 9077,
      "казнь": 9078,
      "литро": 9079,
      "подумала": 9080,
      "европе": 9081,
      "снимать": 9082,
      "студен": 9083,
      "соболезную": 9084,
      "голуб": 9085,
      "присут": 9086,
      "тюрьму": 9087,
      "зажрав": 9088,
      "александровна": 9089,
      "900": 9090,
      "сбои": 9091,
      "##кта": 9092,
      "##рится": 9093,
      "##боль": 9094,
      "##аз": 9095,
      "завали": 9096,
      "мост": 9097,
      "приста": 9098,
      "пидр": 9099,
      "##равли": 9100,
      "бори": 9101,
      "валить": 9102,
      "минима": 9103,
      "мыш": 9104,
      "##ременно": 9105,
      "лук": 9106,
      "саша": 9107,
      "получит": 9108,
      "умная": 9109,
      "предпо": 9110,
      "##рование": 9111,
      "благослов": 9112,
      "смело": 9113,
      "святого": 9114,
      "волго": 9115,
      "животным": 9116,
      "ошибок": 9117,
      "ситуацию": 9118,
      "старость": 9119,
      "поделитесь": 9120,
      "краснодар": 9121,
      "бояться": 9122,
      "построить": 9123,
      "ебанутыи": 9124,
      "ильи": 9125,
      "отзыв": 9126,
      "повадно": 9127,
      "83": 9128,
      "yo": 9129,
      "иду": 9130,
      "офор": 9131,
      "тас": 9132,
      "элемен": 9133,
      "##ic": 9134,
      "##толо": 9135,
      "косто": 9136,
      "доктор": 9137,
      "растер": 9138,
      "сокра": 9139,
      "##стил": 9140,
      "сучка": 9141,
      "##парат": 9142,
      "##чность": 9143,
      "батю": 9144,
      "больших": 9145,
      "добрее": 9146,
      "##зова": 9147,
      "пиздо": 9148,
      "масках": 9149,
      "##ждать": 9150,
      "поимут": 9151,
      "ответили": 9152,
      "обратиться": 9153,
      "цель": 9154,
      "открыли": 9155,
      "июле": 9156,
      "посадили": 9157,
      "простые": 9158,
      "сообщи": 9159,
      "курбан": 9160,
      "площадь": 9161,
      "##пустил": 9162,
      "предложение": 9163,
      "смотришь": 9164,
      "стариков": 9165,
      "впечатление": 9166,
      "небыло": 9167,
      "вру": 9168,
      "дню": 9169,
      "оцен": 9170,
      "##шои": 9171,
      "##59": 9172,
      "##нович": 9173,
      "напо": 9174,
      "нации": 9175,
      "напом": 9176,
      "кори": 9177,
      "воин": 9178,
      "##сток": 9179,
      "лице": 9180,
      "ваи": 9181,
      "сильныи": 9182,
      "##хаха": 9183,
      "санк": 9184,
      "карта": 9185,
      "карман": 9186,
      "арм": 9187,
      "корму": 9188,
      "успеш": 9189,
      "хватало": 9190,
      "плохого": 9191,
      "относи": 9192,
      "звонила": 9193,
      "пользуюсь": 9194,
      "попал": 9195,
      "пассажи": 9196,
      "##фель": 9197,
      "холод": 9198,
      "подобные": 9199,
      "книгу": 9200,
      "молодежи": 9201,
      "качества": 9202,
      "дружбу": 9203,
      "подробности": 9204,
      "диагно": 9205,
      "десантники": 9206,
      "родственники": 9207,
      "помогают": 9208,
      "издеватель": 9209,
      "христи": 9210,
      "чиновники": 9211,
      "компании": 9212,
      "глупость": 9213,
      "##роятно": 9214,
      "але": 9215,
      "ня": 9216,
      "сс": 9217,
      "##ос": 9218,
      "##имо": 9219,
      "##47": 9220,
      "##ровы": 9221,
      "нарисо": 9222,
      "##риться": 9223,
      "прохо": 9224,
      "домов": 9225,
      "отре": 9226,
      "##ебу": 9227,
      "##дум": 9228,
      "##гию": 9229,
      "##мель": 9230,
      "пута": 9231,
      "реак": 9232,
      "страх": 9233,
      "селе": 9234,
      "словно": 9235,
      "лучшая": 9236,
      "##ленная": 9237,
      "##фир": 9238,
      "лаика": 9239,
      "пиздеть": 9240,
      "1500": 9241,
      "окно": 9242,
      "тради": 9243,
      "##дятся": 9244,
      "связь": 9245,
      "машин": 9246,
      "дышать": 9247,
      "каждое": 9248,
      "страшная": 9249,
      "армию": 9250,
      "изменить": 9251,
      "малолет": 9252,
      "насколько": 9253,
      "120": 9254,
      "уса": 9255,
      "##оп": 9256,
      "##рита": 9257,
      "##жнее": 9258,
      "##ус": 9259,
      "пома": 9260,
      "набира": 9261,
      "##ливая": 9262,
      "пропу": 9263,
      "модера": 9264,
      "отменя": 9265,
      "природе": 9266,
      "приходят": 9267,
      "##енькии": 9268,
      "##бивать": 9269,
      "поднял": 9270,
      "израи": 9271,
      "##ханов": 9272,
      "##зию": 9273,
      "делаешь": 9274,
      "останови": 9275,
      "тупы": 9276,
      "лох": 9277,
      "актуально": 9278,
      "другими": 9279,
      "брата": 9280,
      "шоу": 9281,
      "скиньте": 9282,
      "сражение": 9283,
      "хорошую": 9284,
      "брех": 9285,
      "попробуи": 9286,
      "вспомнить": 9287,
      "лезут": 9288,
      "олимпи": 9289,
      "защища": 9290,
      "игрока": 9291,
      "нервы": 9292,
      "социали": 9293,
      "искренние": 9294,
      "ушле": 9295,
      "безмозг": 9296,
      "аромат": 9297,
      "скорбим": 9298,
      "вк": 9299,
      "дре": 9300,
      "жут": 9301,
      "рю": 9302,
      "ушли": 9303,
      "фрук": 9304,
      "юля": 9305,
      "##евич": 9306,
      "поти": 9307,
      "##аски": 9308,
      "тока": 9309,
      "прися": 9310,
      "пристрои": 9311,
      "ноч": 9312,
      "##чало": 9313,
      "##олом": 9314,
      "пуга": 9315,
      "очки": 9316,
      "##пает": 9317,
      "рукои": 9318,
      "прес": 9319,
      "башку": 9320,
      "##гран": 9321,
      "верху": 9322,
      "чубаи": 9323,
      "##сел": 9324,
      "продав": 9325,
      "умнее": 9326,
      "##тность": 9327,
      "годами": 9328,
      "полицию": 9329,
      "рынок": 9330,
      "алко": 9331,
      "справа": 9332,
      "начинает": 9333,
      "сексу": 9334,
      "записи": 9335,
      "закону": 9336,
      "местные": 9337,
      "книга": 9338,
      "осозна": 9339,
      "альбо": 9340,
      "договори": 9341,
      "долбаебы": 9342,
      "пожелания": 9343,
      "учительница": 9344,
      "профиль": 9345,
      "пожизненно": 9346,
      "аппетит": 9347,
      "##utu": 9348,
      "дэ": 9349,
      "ждите": 9350,
      "трени": 9351,
      "устро": 9352,
      "эн": 9353,
      "##оз": 9354,
      "##альные": 9355,
      "##up": 9356,
      "##точки": 9357,
      "##тья": 9358,
      "пояс": 9359,
      "##енты": 9360,
      "##стям": 9361,
      "запол": 9362,
      "отмен": 9363,
      "даром": 9364,
      "дармое": 9365,
      "башке": 9366,
      "больные": 9367,
      "безум": 9368,
      "таня": 9369,
      "покажи": 9370,
      "сделаите": 9371,
      "любишь": 9372,
      "русскои": 9373,
      "ответила": 9374,
      "понимаете": 9375,
      "еблан": 9376,
      "настоящих": 9377,
      "второго": 9378,
      "предателеи": 9379,
      "видишь": 9380,
      "выплат": 9381,
      "козлы": 9382,
      "##димся": 9383,
      "##етия": 9384,
      "смысле": 9385,
      "поверьте": 9386,
      "уверена": 9387,
      "слушаи": 9388,
      "представляю": 9389,
      "кладби": 9390,
      "еды": 9391,
      "едят": 9392,
      "зел": 9393,
      "пче": 9394,
      "хро": 9395,
      "##пс": 9396,
      "##ya": 9397,
      "##ливые": 9398,
      "##стная": 9399,
      "залить": 9400,
      "кораб": 9401,
      "проце": 9402,
      "выно": 9403,
      "##сию": 9404,
      "##чатся": 9405,
      "##зация": 9406,
      "желу": 9407,
      "изум": 9408,
      "куча": 9409,
      "сись": 9410,
      "режи": 9411,
      "меняется": 9412,
      "перечис": 9413,
      "чужих": 9414,
      "помогли": 9415,
      "плато": 9416,
      "гали": 9417,
      "глава": 9418,
      "голод": 9419,
      "##вятое": 9420,
      "архи": 9421,
      "женщинои": 9422,
      "##вьев": 9423,
      "этаже": 9424,
      "поиду": 9425,
      "полицеи": 9426,
      "посмотрела": 9427,
      "осве": 9428,
      "воине": 9429,
      "радоваться": 9430,
      "малыша": 9431,
      "##🙏🙏🙏🙏": 9432,
      "считаете": 9433,
      "победите": 9434,
      "шесть": 9435,
      "магазина": 9436,
      "##👎👎👎": 9437,
      "принимает": 9438,
      "красавицы": 9439,
      "европеи": 9440,
      "бреж": 9441,
      "покупали": 9442,
      "пропаган": 9443,
      "возьму": 9444,
      "китаицы": 9445,
      "стоял": 9446,
      "сбро": 9447,
      "недале": 9448,
      "здраствуите": 9449,
      "публика": 9450,
      "ватса": 9451,
      "держитесь": 9452,
      "юбиле": 9453,
      "якобы": 9454,
      "youtu": 9455,
      "фас": 9456,
      "юрии": 9457,
      "##оv": 9458,
      "##вто": 9459,
      "##читесь": 9460,
      "##шся": 9461,
      "##el": 9462,
      "##лаго": 9463,
      "##рико": 9464,
      "##лег": 9465,
      "горы": 9466,
      "кад": 9467,
      "кафе": 9468,
      "капец": 9469,
      "##нями": 9470,
      "##нятся": 9471,
      "божии": 9472,
      "дух": 9473,
      "##гули": 9474,
      "оставьте": 9475,
      "тупи": 9476,
      "помощ": 9477,
      "поздрави": 9478,
      "продаже": 9479,
      "путиным": 9480,
      "##шкам": 9481,
      "##енном": 9482,
      "представить": 9483,
      "многим": 9484,
      "малышу": 9485,
      "камень": 9486,
      "придумы": 9487,
      "рабочие": 9488,
      "средство": 9489,
      "рукодель": 9490,
      "взрослыи": 9491,
      "белорусы": 9492,
      "мальчики": 9493,
      "общества": 9494,
      "альбом": 9495,
      "вспоминаю": 9496,
      "адвокат": 9497,
      "успокои": 9498,
      "транспорт": 9499,
      "отношении": 9500,
      "шалава": 9501,
      "понедельник": 9502,
      "шедевр": 9503,
      "vиs": 9504,
      "джин": 9505,
      "ер": 9506,
      "жы": 9507,
      "ммм": 9508,
      "уси": 9509,
      "##пление": 9510,
      "##хит": 9511,
      "##вем": 9512,
      "##дкои": 9513,
      "##нную": 9514,
      "##чне": 9515,
      "##69": 9516,
      "##62": 9517,
      "##53": 9518,
      "##тору": 9519,
      "наме": 9520,
      "засо": 9521,
      "##рика": 9522,
      "##рея": 9523,
      "прих": 9524,
      "##чивает": 9525,
      "рожу": 9526,
      "кавка": 9527,
      "пид": 9528,
      "пуши": 9529,
      "теа": 9530,
      "миром": 9531,
      "мужу": 9532,
      "##нька": 9533,
      "плачет": 9534,
      "лов": 9535,
      "скотина": 9536,
      "##шусь": 9537,
      "маске": 9538,
      "акции": 9539,
      "полиции": 9540,
      "идиотов": 9541,
      "училась": 9542,
      "ббб": 9543,
      "##гаться": 9544,
      "потреб": 9545,
      "команду": 9546,
      "наказывать": 9547,
      "огурцов": 9548,
      "возвраща": 9549,
      "баранов": 9550,
      "дурдом": 9551,
      "узбеки": 9552,
      "авиа": 9553,
      "ег": 9554,
      "уити": 9555,
      "ях": 9556,
      "##жко": 9557,
      "##юга": 9558,
      "##хран": 9559,
      "##тором": 9560,
      "##енную": 9561,
      "##нилось": 9562,
      "##датель": 9563,
      "##вос": 9564,
      "##девятое": 9565,
      "прощения": 9566,
      "дожда": 9567,
      "##руется": 9568,
      "##чивают": 9569,
      "##шила": 9570,
      "справи": 9571,
      "подра": 9572,
      "боитесь": 9573,
      "течении": 9574,
      "дружно": 9575,
      "инете": 9576,
      "комсом": 9577,
      "русским": 9578,
      "объем": 9579,
      "##женныи": 9580,
      "друзьями": 9581,
      "поставила": 9582,
      "свино": 9583,
      "##🤣🤣🤣🤣": 9584,
      "литра": 9585,
      "правительства": 9586,
      "возьмите": 9587,
      "госде": 9588,
      "менты": 9589,
      "половину": 9590,
      "слышал": 9591,
      "ракет": 9592,
      "автобус": 9593,
      "овощи": 9594,
      "плохие": 9595,
      "долгол": 9596,
      "настолько": 9597,
      "дождя": 9598,
      "адресу": 9599,
      "ато": 9600,
      "ввер": 9601,
      "вита": 9602,
      "еп": 9603,
      "ико": 9604,
      "оса": 9605,
      "рва": 9606,
      "##иму": 9607,
      "##шт": 9608,
      "повод": 9609,
      "похуи": 9610,
      "некуда": 9611,
      "##ними": 9612,
      "коры": 9613,
      "какому": 9614,
      "сочув": 9615,
      "годов": 9616,
      "##чия": 9617,
      "##стана": 9618,
      "##щество": 9619,
      "пион": 9620,
      "дел": 9621,
      "делом": 9622,
      "##тех": 9623,
      "извра": 9624,
      "базе": 9625,
      "сидя": 9626,
      "добров": 9627,
      "##града": 9628,
      "остаться": 9629,
      "сделает": 9630,
      "##глая": 9631,
      "##шкина": 9632,
      "колен": 9633,
      "слева": 9634,
      "оксана": 9635,
      "крыму": 9636,
      "беру": 9637,
      "стихотвор": 9638,
      "мерзо": 9639,
      "хохлов": 9640,
      "творческих": 9641,
      "пьяныи": 9642,
      "фашисты": 9643,
      "десан": 9644,
      "разговор": 9645,
      "шикарныи": 9646,
      "молодых": 9647,
      "умерла": 9648,
      "добавляю": 9649,
      "пробовали": 9650,
      "единственныи": 9651,
      "героев": 9652,
      "знакомые": 9653,
      "пляж": 9654,
      "реклама": 9655,
      "конституцию": 9656,
      "искренне": 9657,
      "спортив": 9658,
      "ерунда": 9659,
      "ельцин": 9660,
      "ягоды": 9661,
      "квадра": 9662,
[...]
