[PAD]
[UNK]
[CLS]
[SEP]
[MASK]
!
#
$
%
&
(
)
*
+
,
-
.
/
0
1
2
3
4
5
6
7
8
9
:
;
=
?
[
\
]
^
_
`
a
b
c
d
e
f
g
h
i
j
k
l
m
n
o
p
q
r
s
t
u
v
w
x
y
z
{
|
}
~
¡
¥
©
«
°
±
²
³
´
¹
º
»
¿
×
ß
÷
ı
ɑ
ə
ɛ
ɱ
ʌ
α
β
γ
ε
η
ι
κ
λ
μ
ο
ρ
ς
τ
χ
ω
а
б
в
г
д
е
ж
з
и
к
л
м
н
о
п
р
с
т
у
ф
х
ц
ч
ш
щ
ъ
ы
ь
э
ю
я
є
і
ґ
ғ
қ
ҡ
ң
ү
ҳ
һ
ҽ
ӏ
ә
ө
ԋ
գ
ի
հ
ո
չ
ց
ւ
ا
ب
ت
ح
خ
د
ض
ع
غ
ك
ل
م
ن
ه
و
ي
۞
۩
ܨ
ஜ
ಥ
๑
ა
ბ
დ
ე
ვ
ი
კ
მ
ნ
ო
რ
ს
ქ
ღ
შ
ხ
ᴀ
ᴇ
ᴘ
‐
‑
–
—
―
‘
’
“
”
„
•
…
‼
‿
⁃
⁉
⁰
⁴
⁵
⁶
⁷
⁸
⁹
€
₽
⃣
℅
ℒ
№
ℭ
−
≛
⌨
⏫
⏬
⏰
═
▬
▶
►
◄
●
☀
☁
☆
☎
☑
☔
☕
☘
☚
☛
☝
☠
☢
☣
☦
☯
☸
☹
☺
☻
♀
♂
♉
♋
♐
♕
♛
♟
♡
♥
♨
♻
⚓
⚕
⚖
⚘
⚜
⚠
⚡
⚪
⚫
⚰
⚽
⚾
⛈
⛔
⛪
⛰
⛲
⛵
⛸
⛹
⛺
✂
✅
✈
✉
✊
✋
✌
✍
✏
✓
✔
✖
✝
✨
✳
✴
✾
✿
❄
❇
❌
❓
❔
❗
❣
❤
❧
➊
➋
➌
➕
➟
➡
➿
⠀
⤴
⬅
⬆
⬇
⭐
《
》
〰
ツ
弾
檬
檸
爆
ﷺ
！
（
）
，
－
＝
？
￼
𝔊
𝔞
𝔢
𝔬
𝔯
𝔱
𝔳
🃏
🆗
🆘
🇦
🇧
🇨
🇩
🇪
🇬
🇮
🇯
🇰
🇱
🇲
🇳
🇷
🇸
🇹
🇺
🇾
🇿
🌀
🌂
🌃
🌄
🌅
🌆
🌇
🌈
🌉
🌊
🌋
🌌
🌍
🌎
🌏
🌐
🌔
🌕
🌖
🌘
🌙
🌚
🌜
🌝
🌞
🌟
🌠
🌥
🌧
🌫
🌰
🌱
🌲
🌳
🌴
🌵
🌶
🌷
🌸
🌹
🌺
🌻
🌼
🌽
🌾
🌿
🍀
🍁
🍂
🍃
🍄
🍅
🍆
🍇
🍈
🍉
🍊
🍋
🍌
🍍
🍎
🍏
🍐
🍑
🍒
🍓
🍔
🍕
🍖
🍗
🍚
🍛
🍝
🍞
🍟
🍡
🍣
🍤
🍦
🍧
🍨
🍩
🍫
🍬
🍭
🍯
🍰
🍱
🍲
🍳
🍴
🍵
🍶
🍷
🍸
🍹
🍺
🍻
🍽
🍾
🍿
🎀
🎁
🎂
🎃
🎄
🎅
🎆
🎈
🎉
🎊
🎌
🎐
🎒
🎓
🎖
🎠
🎡
🎢
🎤
🎥
🎧
🎨
🎩
🎭
🎯
🎲
🎵
🎶
🎷
🎸
🎹
🎺
🎻
🎼
🎾
🏁
🏃
🏅
🏆
🏊
🏍
🏎
🏐
🏒
🏓
🏕
🏖
🏙
🏚
🏝
🏞
🏠
🏡
🏢
🏤
🏥
🏩
🏭
🏰
🏳
🏴
🏵
🏻
🏼
🏽
🏾
🏿
🐀
🐁
🐂
🐃
🐄
🐅
🐆
🐈
🐉
🐋
🐌
🐍
🐎
🐏
🐐
🐑
🐒
🐓
🐔
🐕
🐖
🐗
🐘
🐚
🐜
🐝
🐞
🐟
🐠
🐣
🐥
🐦
🐧
🐬
🐭
🐯
🐰
🐱
🐲
🐴
🐶
🐷
🐸
🐹
🐺
🐻
🐼
🐽
🐾
🐿
👀
👁
👂
👃
👄
👅
👆
👇
👈
👉
👊
👋
👌
👍
👎
👏
👐
👑
👒
👕
👖
👗
👘
👙
👚
👛
👜
👟
👠
👡
👣
👤
👥
👦
👧
👨
👩
👪
👫
👬
👭
👮
👯
👰
👲
👴
👵
👶
👷
👸
👹
👺
👻
👼
👽
👿
💀
💁
💃
💄
💅
💇
💈
💉
💋
💌
💍
💎
💐
💑
💒
💓
💔
💕
💖
💗
💘
💙
💚
💛
💜
💝
💞
💟
💡
💣
💤
💥
💦
💧
💨
💩
💪
💫
💬
💭
💮
💯
💰
💲
💳
💴
💵
💶
💸
💻
💼
💽
💾
💿
📌
📍
📎
📕
📖
📗
📚
📝
📞
📡
📢
📣
📦
📩
📱
📲
📳
📷
📸
📹
📺
📼
📽
🔆
🔇
🔊
🔎
🔑
🔒
🔔
🔖
🔝
🔞
🔥
🔨
🔪
🔫
🔬
🔮
🔯
🔰
🔴
🔵
🔷
🔺
🕊
🕋
🕌
🕒
🕯
🕴
🕶
🕷
🖋
🖐
🖒
🖕
🖖
🖤
🖥
🖱
🗓
🗣
🗨
🗯
🗺
🗽
🗿
😀
😁
😂
😃
😄
😅
😆
😇
😈
😉
😊
😋
😌
😍
😎
😏
😐
😑
😒
😓
😔
😕
😖
😗
😘
😙
😚
😛
😜
😝
😞
😟
😠
😡
😢
😣
😤
😥
😦
😧
😨
😩
😪
😫
😬
😭
😮
😯
😰
😱
😲
😳
😴
😵
😶
😷
😸
😹
😺
😻
😼
😽
😾
😿
🙀
🙁
🙂
🙃
🙄
🙅
🙆
🙇
🙈
🙉
🙊
🙋
🙌
🙎
🙏
🚀
🚂
🚈
🚉
🚊
🚌
🚐
🚑
🚒
🚕
🚖
🚗
🚘
🚙
🚚
🚜
🚣
🚤
🚥
🚦
🚨
🚩
🚫
🚬
🚲
🚶
🚽
🚿
🛋
🛍
🛐
🛑
🛒
🛩
🟢
🟣
🤍
🤎
🤏
🤐
🤑
🤒
🤓
🤔
🤕
🤗
🤘
🤙
🤚
🤛
🤜
🤝
🤞
🤟
🤠
🤡
🤢
🤣
🤤
🤥
🤦
🤧
🤨
🤩
🤪
🤫
🤬
🤭
🤮
🤯
🤱
🤲
🤵
🤷
🤸
🥀
🥁
🥂
🥃
🥇
🥊
🥐
🥑
🥒
🥔
🥕
🥖
🥗
🥘
🥙
🥚
🥝
🥞
🥤
🥥
🥦
🥧
🥨
🥬
🥮
🥰
🥱
🥳
🥴
🥵
🥶
🥺
🦀
🦁
🦂
🦄
🦆
🦉
🦊
🦋
🦌
🦍
🦎
🦔
🦜
🦠
🦢
🦧
🦩
🦴
🦶
🦷
🦺
🦾
🧁
🧄
🧅
🧐
🧑
🧙
🧚
🧛
🧟
🧡
🧤
🧥
🧦
🧨
🧲
🧴
🧵
🧸
🧹
🪀
🪂
🪓
##m
##d
##с
##к
##о
##р
##б
##я
##т
##ь
##е
##ж
##ю
##п
##и
##х
##в
##а
##д
##ы
##л
##l
##o
##n
##a
##н
##м
##ч
##у
##🙄
##🤪
##з
##ш
##e
##i
##ф
##😂
##э
##☺
##😡
##г
##r
##t
##7
##6
##0
##4
##3
##1
##9
##8
##💪
##😢
##5
##ц
##щ
##ъ
##👎
##g
##s
##і
##k
##👍
##🔥
##b
##2
##🤝
##🙏
##🐶
##❣
##🎂
##🎁
##😠
##😳
##q
##💕
##z
##🤔
##🌹
##👏
##☯
##☀
##c
##🤣
##💋
##h
##p
##☘
##🎈
##🌻
##🌼
##😇
##💖
##❤
##😀
##🤷
##🏻
##♀
##🌺
##😄
##u
##👋
##😔
##🧁
##f
##v
##😁
##♥
##⚘
##😍
##😅
##💐
##🌙
##🌸
##қ
##☑
##😭
##y
##w
##😌
##😃
##😊
##👌
##🤩
##😜
##✖
##😉
##🍨
##🍓
##ᴇ
##ᴘ
##ᴀ
##🤬
##🥳
##🤧
##რ
##მ
##ე
##ნ
##ა
##კ
##ბ
##ო
##🤵
##👰
##😋
##💙
##😎
##x
##😛
##🖕
##✌
##×
##🙈
##￼
##😱
##🤟
##🐱
##😩
##🍸
##💰
##😘
##🇾
##ո
##հ
##😏
##😨
##🌿
##🌈
##😈
##✋
##😆
##🚕
##🥰
##😫
##🤗
##🤞
##🖖
##✊
##🤛
##😷
##👻
##😥
##🎉
##🐑
##🕌
##🍷
##🌷
##🤦
##♂
##👆
##🌜
##₽
##🥺
##🤥
##🍴
##🙂
##🧐
##🔫
##🙁
##💞
##🤓
##🌊
##⛰
##📢
##🚗
##❓
##🙋
##😞
##💩
##😤
##j
##🎧
##🔆
##🍰
##🎖
##💯
##ə
##🐕
##🆘
##🕋
##😧
##🏼
##ı
##💗
##🐀
##🙃
##🎤
##💦
##⚡
##☔
##🇺
##😻
##⚜
##💵
##🐈
##🥒
##🙌
##🌄
##🔪
##❗
##☹
##🇷
##👩
##💟
##🗯
##🗨
##💥
##🍧
##💘
##💓
##💔
##😕
##🏴
##☠
##ο
##🥶
##💃
##⭐
##🏃
##⛹
##ღ
##👊
##🙆
##☝
##☕
##😹
##🤘
##👇
##🍀
##😣
##🔴
##🎼
##λ
##ι
##γ
##ς
##🤙
##🥇
##⚽
##🏆
##😒
##♻
##🌞
##😑
##α
##💝
##📝
##🌟
##😪
##😽
##°
##🚩
##🖐
##😟
##😮
##🍡
##🐯
##🎹
##🥁
##🥵
##📞
##🌃
##💮
##💫
##😚
##⚾
##🍝
##🍲
##👹
##ҳ
##🖥
##⌨
##💽
##💻
##💿
##💾
##😿
##🐟
##🙀
##🎶
##🎺
##👿
##🤨
##🌳
##🧚
##＝
##☛
##👧
##🍁
##¥
##💚
##🙉
##🤢
##🤮
##🤡
##💣
##🥴
##κ
##🛩
##🐷
##🐽
##✅
##😵
##ل
##ا
##ي
##غ
##ت
##ب
##🥦
##🤯
##🌚
##🦩
##🖤
##🐣
##🎸
##👄
##🤕
##😲
##😝
##ҡ
##😬
##🧑
##🍇
##🌧
##🐾
##🏅
##🎊
##😐
##🍿
##🍒
##🤭
##є
##😖
##🍺
##👼
##🕴
##💸
##💎
##♨
##✈
##🏽
##🇱
##🇬
##🇪
##🇹
##☣
##🏳
##⚰
##🌋
##🐥
##🧛
##🥧
##⚖
##❄
##👈
##✍
##🍐
##🇳
##🙊
##🦋
##🍊
##μ
##🐖
##🦾
##🍫
##🌝
##💧
##🥀
##🔮
##🍾
##👦
##⚕
##👨
##🎓
##😼
##🤒
##😸
##👣
##👺
##🤐
##ғ
##🖒
##´
##🔨
##²
##🦺
##😙
##💜
##ҽ
##👬
##⁷
##⁹
##¹
##⁵
##³
##⁶
##⁴
##🦆
##😓
##🔯
##🤫
##🤑
##💴
##💶
##💳
##🪂
##🎆
##º
##🤲
##🏡
##🛒
##🛍
##🎭
##🎩
##ү
##😾
##±
##ك
##🏖
##🗺
##⛵
##⠀
##📱
##🥘
##🧄
##🍆
##💌
##🍭
##😗
##🍏
##🍎
##🍉
##🍅
##🥬
##🌽
##🥕
##🧅
##🥔
##🌾
##ө
##🌵
##🐿
##👀
##🚘
##🏎
##😴
##❌
##🪓
##☢
##🐝
##⚓
##🐒
##🥂
##🦂
##ε
##№
##🚒
##🤱
##💒
##🍃
##©
##🇰
##☸
##🇸
##🇧
##☁
##💁
##⏬
##🧨
##😯
##🐏
##🎵
##👁
##ح
##م
##☦
##🍱
##💀
##✉
##📩
##🚤
##🥥
##τ
##🧹
##🍕
##🍹
##ӏ
##🐠
##ه
##و
##🧸
##🖱
##🎢
##η
##☆
##⃣
##🎀
##🦧
##📼
##📺
##✨
##🕊
##🦍
##💨
##💅
##💄
##👃
##📍
##🇦
##🇿
##😰
##💤
##🐌
##😦
##ი
##შ
##🚑
##🎐
##🐭
##🏢
##ә
##🙅
##👯
##🚙
##🚶
##💛
##🌅
##👫
##═
##◄
##✾
##🤤
##🌂
##ქ
##ვ
##🏵
##►
##●
##🍚
##🍛
##🍦
##💍
##👛
##🥞
##🗣
##🍄
##🪀
##🎾
##📌
##🐅
##🍻
##🧦
##🧤
##👜
##🌱
##🏞
##ց
##ւ
##ի
##չ
##һ
##⛲
##👽
##🏚
##🛑
##👕
##👖
##👗
##🧥
##🧵
##⬇
##🍩
##🥐
##🤎
##🌏
##🌍
##👙
##👭
##🏾
##🔵
##🟣
##۩
##۞
##ஜ
##▬
##ω
##👑
##🍬
##🎡
##€
##🕯
##🏩
##🇮
##🤜
##🏿
##🌥
##😺
##🏒
##➡
##💉
##👐
##🦉
##÷
##🍔
##🥮
##🏝
##🍍
##🐗
##🕒
##🍖
##🌴
##🍳
##💼
##🤠
##🍑
##👠
##👡
##👟
##🌆
##🔔
##🍋
##📸
##🔊
##🐲
##🐃
##🐂
##🐄
##🎨
##🐔
##🐰
##🚲
##🚚
##ع
##ض
##🙎
##👉
##🐓
##🐦
##🦜
##🦢
##💈
##🏥
##🙇
##⚪
##👪
##🏍
##✝
##✿
##🤍
##👶
##🥗
##🥙
##🧙
##🏠
##📎
##🏐
##🏓
##🎃
##⛸
##🎄
##♟
##🍽
##🍞
##📣
##📕
##📖
##☎
##🐧
##🦔
##🌌
##⚠
##🍗
##💑
##🐍
##℅
##🌀
##๑
##🥊
##🤏
##🚣
##🛐
##☻
##🧡
##🦶
##🇨
##👤
##🇲
##𝔬
##𝔯
##𝔞
##𝔢
##𝔳
##ρ
##χ
##👮
##ß
##👸
##✂
##🥃
##🎥
##🦄
##🐐
##🍟
##🇯
##🔰
##🐸
##♛
##🎅
##🌶
##🇩
##👲
##👅
##🍌
##🦠
##🚖
##🍯
##💲
##β
##💭
##🥝
##🍈
##🤚
##ɛ
##ɱ
##ʌ
##ɑ
##ԋ
##📡
##🕶
##🦁
##−
##🍂
##ن
##ґ
##🥤
##خ
##🐴
##🦷
##🐋
##🐘
##🥱
##🥑
##🃏
##✔
##🦊
##🐺
##🥖
##🗽
##🖋
##🐻
##𝔱
##د
##❧
##♕
##⚫
##🐬
##🦌
##🐆
##🦀
##🔞
##👘
##ს
##ხ
##⬆
##ң
##🐹
##🥨
##⬅
##🔝
##🌐
##🏕
##то
##ть
по
##ро
##но
##ра
на
##ен
не
##ли
##ет
##ст
##ак
##ла
##ер
##ва
##ол
##ит
##го
##ка
##ни
##ко
##да
##на
##во
##ем
##ло
за
##ри
##ны
##ки
##ся
##до
##ль
ко
##де
что
вс
##ре
##ам
это
##от
про
##ас
то
так
как
бы
##ди
##ите
вы
мо
все
до
##ти
##ру
от
ра
##ля
##не
##та
##ле
да
##оль
со
при
##же
##сь
##ви
##ма
##ени
##еб
во
##ку
##си
##бо
##сть
##ми
но
го
##ше
##ду
##ве
##ень
##ну
##чи
ни
##ста
##ши
##ры
##ес
##еи
##ать
##ют
хо
ро
лю
бу
об
##мо
##му
##ча
##ще
##лу
##сто
ка
пи
жи
##ез
##га
сп
де
##жно
##оло
##те
##хо
ма
##ги
##олько
##ныи
##ня
##вы
ты
##за
##ци
##сти
раз
##гда
##би
##жи
ну
##ные
##ба
ст
##рав
##ере
под
##ме
##ров
сво
же
##дет
##по
из
##са
##ят
##жа
##вать
##пи
пу
##че
##ву
##со
бо
##шь
##ная
су
оч
##вет
##льно
ве
сам
##ды
##сли
надо
че
##па
ру
##щи
те
ли
пре
##ется
##ты
он
##ои
кра
только
##дно
ви
теб
ку
если
еще
кто
##лы
вот
##бы
ста
па
##ту
ва
есть
ду
##гу
##чно
##ения
##лю
очень
ба
##ски
##ша
ми
##ья
нет
##ке
##ря
таки
дру
ме
вам
##ска
мы
##пе
для
уже
##еня
боль
##ение
##бот
му
##дь
будет
##раз
они
пос
си
##ного
нас
ре
##вер
его
##ное
##нь
мне
или
##ца
##час
##00
хоро
можно
зна
##ут
##ско
дет
##ая
было
сто
##ете
меня
##сси
просто
пере
##рем
##аси
##зы
##ных
##бу
без
где
их
##тер
##ха
##мер
дол
##нои
##пу
стра
здо
##сс
рас
##ться
##ита
##чем
ин
когда
моло
##ков
##об
эти
спаси
##зи
##жет
там
##ство
работ
##мот
свои
тоже
ска
доб
вас
спасибо
кото
##он
##мен
день
зак
росси
лу
##зо
ск
жиз
бе
себ
дела
се
са
##лись
##нов
##нима
##ции
##це
##ое
##ена
полу
##цы
пер
##су
##ится
##лся
##том
##лове
##сы
##род
##ству
лет
всем
здоров
тебя
##кра
##ние
##пер
челове
##кои
##вно
чем
##мы
##ск
##дите
##гра
##чка
вер
оста
##вои
##дела
воз
она
##драв
всех
ле
##про
тебе
ху
##пла
кон
может
##рави
ту
врем
##зя
кла
чу
сло
##ств
фо
та
##рои
##ком
люди
##ами
сеи
##дут
здоровья
##лось
хот
сеичас
##ром
помо
им
##лась
##стре
##ую
пла
##дни
ав
поз
##вор
сколько
га
##деи
##се
##вали
ее
##шо
##ния
краси
нужно
##ход
луч
каж
##бе
##ным
пидо
пока
даже
чтобы
##ин
прода
##лен
##рь
##чу
##ща
гла
жа
пусть
пути
чер
которы
такои
какои
соб
##сте
после
##выи
##тов
ком
мои
##ешь
##лять
одно
##шка
голо
##жд
##дар
кар
##скии
##леи
много
таких
##чки
был
##чего
##рать
интер
класс
##енно
##вают
такие
ло
##вает
##вая
##оле
##чь
##ять
россии
##чес
##дить
крас
слу
##фи
пол
фото
время
##ную
оп
сдела
##тель
больше
реб
##зать
люб
пе
##пол
тва
##нем
дума
оо
нуж
##сту
##дин
себя
##стоя
##ствуите
почем
здрав
прав
гру
доро
ско
##фо
лучше
всегда
ха
##ие
ла
ник
людеи
ус
напи
бла
хорошо
##👍👍
##дец
почему
вла
##ран
##ник
сер
здравствуите
этот
жен
потом
нам
##часть
ему
##дер
смот
##нии
##ху
работа
этого
##ства
##жу
##вя
пиз
тем
##вые
ди
вооб
##дом
##гла
##ню
счасть
##рма
сем
быть
мам
##ция
##шки
##став
##ако
руб
##ити
ум
##кии
ис
вообще
##шу
какая
была
##чит
##дя
были
##тра
ничего
##ые
ки
тру
добры
фи
##ене
##тому
них
##ская
пожа
пред
##дов
жизни
жизнь
##хи
интерес
##зна
##итель
бес
нико
тут
##чет
##ев
##тор
##неи
##рода
кол
##рова
##вить
могу
наши
бог
народ
##ого
один
##спо
пло
##нет
гра
##ются
пом
прави
люби
чи
мас
##ении
##пера
ар
хва
##бои
человек
##нее
##ге
молодец
уби
##ан
уж
##тно
##жда
поня
##лет
себе
##бер
##год
чтоб
чего
сы
уда
благо
##чен
детеи
еба
##пы
##луи
муж
такое
##жать
##сты
##дит
##ники
коне
##итесь
##ские
##чку
тепер
наш
эту
будут
сле
##шеи
теперь
20
получа
пен
говор
##ден
##ом
##есто
сла
цен
красот
кого
рожд
ак
##вори
деньги
##реть
пра
##лек
##ками
бля
свое
жела
тогда
##скои
женщи
##кры
##ном
какие
##тив
теле
##жите
##ющи
долж
днем
сказа
опера
##вь
##шии
##кус
дер
пожалуи
привет
##нок
ти
##лем
этом
##дем
##ствен
од
##вал
##вар
зем
##тельно
сов
мраз
##нова
пенси
ru
##вод
пожалуиста
спо
##нуть
зачем
други
##стви
##нут
##юсь
##дать
года
##рии
гор
тер
виде
бра
свет
##сать
такая
этих
##ар
сами
##шего
счастья
хоть
путин
хуи
15
##ака
##еби
вся
укра
##прав
конечно
ок
эта
точно
добро
час
пои
любо
##сов
##чита
##част
##ел
обо
ведь
##годня
##разу
навер
которые
##рет
рус
##доб
сегодня
##ыи
10
##стра
вос
этои
поли
прои
куда
##ника
кому
вз
вра
рождения
него
име
жо
##ить
кор
##ните
кажды
всего
друго
##нить
дево
пар
тво
ответ
посмот
еи
##цу
даи
иг
прекра
дети
родите
тра
##тя
дома
ад
##ов
89
вкус
##стро
##кая
госпо
##лов
##десь
заб
ht
ан
##кие
получи
##tp
##кла
хозя
##зыва
вопро
сразу
##ходи
ос
ча
##ему
хочу
жить
ры
больш
http
понима
19
пам
здесь
кро
уб
##рен
##бира
кру
вои
мало
##дума
расстре
друз
зака
иди
правильно
пиш
##шел
кре
ут
##ление
##сить
роди
##ительно
##чина
обра
через
похо
ша
авто
супер
сме
стоит
##мет
добрыи
каждыи
род
##шие
потому
##ика
прекрас
гу
ува
номер
##ского
груп
бли
##ред
того
сука
давно
##дят
##вых
коро
##рт
##ску
глав
##каза
цена
поздрав
свою
мужи
твои
поло
никто
##ность
##вля
всю
##рю
##дели
##рос
бан
це
##ница
операции
ok
##рга
##цию
ваши
##ман
##лом
еб
пря
##шен
авгу
слова
молод
##сем
##при
##ье
ог
своих
##ально
##ления
красиво
##реи
ге
ря
говори
нача
свя
уро
тварь
боле
##чныи
руки
знаю
согла
тех
написа
кры
праз
##можно
##шая
##соб
буду
ал
россия
##зу
делать
деи
деби
настоя
##шно
##она
два
##ными
успе
##ках
##ников
своеи
##роде
купи
##льные
##😂😂
##ток
https
живо
##ходит
доба
##шать
бабу
##лень
##им
пидора
нем
##мента
##лан
100
##деть
##лая
меся
##оо
интересно
##льныи
пида
норма
взя
вд
вто
##ваться
##чить
##рок
моя
совет
отли
откры
краса
бер
дере
совсем
тре
##шли
праздни
би
пес
ребен
##вала
##чная
##иту
три
##нк
##чать
##гие
##нако
##тои
##щь
такую
отда
##стве
бога
тро
##ению
хвата
##пита
хотя
уч
##гля
##кого
проб
мно
год
маши
игра
живу
сол
цвет
никогда
пора
##кам
##ских
##вез
значит
поздравля
##ступ
##жение
##рая
пор
даль
ев
объ
пидор
молодцы
##кол
наверное
##ям
наде
##сла
##тся
##жен
##шло
ново
этим
вес
дура
##частли
мир
##ии
забы
##чется
##бли
человека
##дол
##дои
вели
##лыи
вме
дене
##ровать
счастли
сама
##нно
##ал
друзья
мама
соглас
##чер
дом
пода
ваш
скоро
##лые
##ких
выпол
долбо
попро
место
правда
красота
украи
##20
том
мразь
жаль
одна
тот
исто
##будь
##аки
здоро
прези
##лько
##чик
главное
##ваи
хочется
##мои
тя
зара
##шла
моз
зо
##док
такого
поддер
проблем
одни
##жить
вол
ули
##нен
нель
хватает
##96
наи
##хать
думаю
нее
##чек
заме
##ек
народа
##ших
нельзя
вместе
##дох
ужас
ссс
##вра
##ятся
##вание
память
фа
над
хоте
##зе
раи
ох
возможно
##зор
малень
вами
##ньше
серд
##три
ов
##пре
фу
##строи
##ван
нрав
##пом
сти
##бор
президен
люблю
любовь
имен
опять
живот
##яв
радо
против
##лез
плохо
##шку
##ваю
ссср
##али
узна
##тить
раньше
долбоеб
квар
смо
поэ
бело
нибудь
которыи
глу
##вается
##хов
лег
могут
неу
##яза
мол
подска
случа
##что
более
сделать
поста
гре
мага
малы
вопрос
##лко
спи
##лить
людя
весь
твари
вез
##🙏🙏
потер
сторо
моск
##ок
##рия
счита
уви
побе
##стер
##дешь
удачи
##50
ше
##куда
##чат
##дра
будь
самое
уни
госу
кам
св
году
##щии
туда
наро
отно
неи
##стно
неб
ию
##нять
огром
##щать
расстрелять
##ндо
зави
ублю
дня
зво
поч
карты
##om
власти
столько
перед
замеча
бол
мож
нужна
рез
прос
##рите
живет
хаба
магази
ды
спе
##вое
таким
закон
##дки
##воз
своим
##цеп
##чера
видно
##тит
пидара
кварти
##ске
филь
рот
##торы
поку
поса
дальше
##ваите
рядом
смер
##учи
##лин
оби
друг
сви
##ью
##оне
пет
бро
##слу
мое
сты
хорошии
##еха
преда
поэтому
##стов
денег
желаю
##вед
поздравляю
соз
благодар
зав
##стои
##дили
обяза
государ
##льная
##цев
##14
##бить
женщина
очере
знает
хозяи
алек
глаза
именно
##лли
лес
##вым
путина
хабаров
##нка
расска
закры
дерев
##дел
мер
зар
##ением
будем
тол
маль
чита
##мина
мя
##ственно
вну
##рали
лично
##🌹🌹
людям
стране
кот
сказать
##кро
дело
сум
нужен
город
##жал
👍👍👍
опла
долго
##рить
обы
нравится
##лит
ои
доста
телефо
##ним
девочки
##пло
мор
##ское
зарпла
##сом
большое
размер
##хуи
##прави
образ
подо
##днои
равно
ши
слов
##аа
уме
##ица
##чии
страны
##жил
помощь
ур
##олот
##ствительно
красивая
ги
##ro
##дель
##клю
прост
стро
бед
12
рецеп
этому
отве
##вич
господи
хох
сооб
помню
##вили
особ
##нныи
поль
ребенка
##in
нашеи
види
возра
беспла
30
стре
каждо
деиствительно
##🤣🤣
##ях
##стить
##вом
спра
све
##чные
деву
##нки
##👎👎
##сан
наза
##мени
своего
90
нужны
рублеи
завтра
##жит
##шите
сосе
уг
выпла
тор
##вую
раст
язы
сбер
какое
матер
слы
##щу
само
страна
##ставля
вдв
неко
подскажите
позво
##гли
работать
власть
##вания
##вого
обе
августа
попа
кур
начина
##пута
##лья
##жаю
жопу
##нение
смотреть
земля
золот
##дро
##лки
назад
##вари
##ряд
амер
учи
##лка
праздником
##кло
##нес
зада
##цен
##щие
доброе
идет
должны
ри
кончен
работы
коммента
внима
счет
сли
прият
спас
##кое
##енок
запа
жалко
месте
##рам
мед
талан
отправ
##гает
##гов
других
##ствие
коз
##000
гри
пас
бывает
собира
одного
рес
оши
пы
##тро
говорят
утро
##чески
живут
везде
##ята
должен
послед
пон
идиот
уров
##жения
приду
##вести
##гих
мень
шо
блядь
кроме
сна
сек
сберба
твор
цар
##хот
##зки
##79
##36
пример
##нул
##шим
бере
##руг
жив
##зм
##рус
бб
##фе
позор
понятно
##le
##гать
страну
купить
##фон
особенно
##сит
##вол
##нные
самыи
любви
##ум
пизда
эк
гото
инфо
##шек
счастье
##жки
ним
##te
души
50
выб
писать
мет
##иты
выра
всеи
разве
##ском
##бло
недо
чув
знако
хле
нес
##чество
орга
чет
наз
обла
##сят
##кую
##рот
небес
россию
хотят
собак
мужчи
никак
принима
##шение
##38
##щен
##ности
##ницы
##рес
##нуты
шк
сказал
ино
##лина
мар
##10
##рани
##емся
отды
ребенок
дву
##нется
доку
родители
##жду
##шке
видео
ез
холо
##щение
уничто
рабо
уди
ребята
вечер
##зывать
креп
созда
##чке
тыся
вчера
меч
сбербанк
откуда
##тая
##щая
наших
гражда
работает
##вка
называ
вещи
пишите
ски
##гом
первыи
слава
преле
скажите
пле
любимы
##ливать
друга
стыдно
##лям
##щее
мать
занима
##am
##фа
дале
большои
оно
##жка
наше
информа
пого
##дим
##яти
##или
##лаин
pro
рем
##gd
лишь
лука
гни
##рал
также
другие
адми
кри
##👏👏
##рую
##чала
чудо
красави
комп
другои
##щения
хорошего
меньше
##вил
месяц
##ики
зато
продол
##um
голову
встре
##уль
мусо
хватит
ого
наша
##19
##рее
kin
наити
ску
##рит
говорит
##gdom
kingdom
16
ана
##цо
непо
согласна
al
##тина
поми
хочет
работу
урод
##еры
##мент
гря
сред
##ил
##дую
милли
многие
##рина
##вели
посмотреть
тупо
своло
сра
уста
запи
места
##пас
##жешь
##70
##льное
##fi
##пор
однои
нахуи
города
произ
каз
либо
гол
лен
##пать
##ваются
почти
##поль
подоб
##нули
писа
оде
##пере
зако
дорога
##сло
##16
##яс
зе
тю
чмо
лит
получается
alb
##чение
сою
##скую
album
##жили
брать
сда
душе
##❤❤
пове
моеи
сдох
##доволь
##ьи
##мя
сох
profi
profile
##чится
спокои
##ели
##чеи
##нец
руко
##пуска
самого
сре
##сол
подума
##шения
пов
пидоры
здорово
##12
##так
##ницу
прово
делают
терп
ссы
##рм
##рки
времени
ооо
наб
браво
##ющии
можете
##ame
##кт
евро
кита
##72
обязательно
ны
влади
постоя
дорого
талант
девочка
ук
состоя
воспита
взять
##18
вкусно
тяже
##ети
реши
стать
40
game
вроде
##лку
быстро
##сили
маи
продам
своими
семья
умни
##tem
item
##30
защ
телефон
сердце
14
##льных
депута
##ностью
прелесть
##рко
##щих
##жо
##лои
суки
ред
1596
воло
##гре
право
прям
видимо
##ющих
нормально
кг
поб
воды
дев
понрави
еди
##76
##тора
неск
цену
яица
детям
бред
##тин
##етесь
которо
нах
##ходят
##нах
выгля
##щего
немного
##ева
##нит
##15
придет
##жели
меди
сих
уважа
напишите
мужик
две
пот
выполнен
ап
понимаю
fr
тобои
##писа
##итин
##дил
оте
изви
которая
нач
##стью
винова
##ант
чо
раду
плате
пья
провер
добрые
жили
##баты
должно
свобо
нена
##ваем
##нию
правитель
##езжа
##пить
##шее
200
взрос
фаши
зи
##бас
##75
смы
уча
фе
##бки
##78
алексан
##вле
зб
ци
хорош
осталось
некоторы
##хва
говорить
##тия
потеря
##рб
##тки
сделал
##дера
##него
игру
чб
выру
бре
##хом
ами
##зации
цены
##ющие
##ствия
сте
##лия
коман
блять
##итуа
##нови
онлаин
##дка
какую
##мить
##чие
оз
поги
деле
важно
делает
хотите
##сле
днеи
##шком
##гами
##ствует
белору
аб
ради
выс
##тили
годы
слово
сро
##нать
соба
##рень
суще
покупа
кли
ситуа
повер
##чешь
вашеи
страш
продаж
золотые
поро
личку
18
оказа
##пра
##гите
##щеи
нечего
выбо
##ган
трудно
жу
посту
##щаться
комментарии
наход
тел
мальчи
80
вм
улы
поя
посо
##ота
пропа
бук
строи
школ
##гур
реально
##тяб
несколько
причем
куп
между
саха
чуть
кажется
см
##бол
##ским
забрать
благодарю
дес
пси
##ор
##др
##лер
##ета
самые
ремон
высо
собака
похоже
вста
##роб
замечатель
25
##их
плат
красивые
получатель
##💋💋
нака
нако
ната
ума
придума
##няя
##помина
площа
фак
шлю
ноги
владими
офи
утра
##кон
мире
сильно
мужчина
образо
аминь
##жь
##74
##13
заво
##дишь
перевод
##рах
неде
проти
испол
капита
##шенко
матери
крем
буд
хорошая
##дали
вечная
##юда
##чения
какого
##стан
##пусти
снима
##28
ночь
попробу
малыш
новыи
мест
должна
##ых
необ
мини
##графи
огромное
##ися
раза
хуже
неужели
стен
фор
##тик
страшно
органи
мнение
видела
##лых
заработ
достои
резуль
рецепт
доброго
уроды
ор
сту
судь
отлично
пти
готов
пара
знают
стои
возь
посадить
##работ
##рию
##мая
бела
результа
##щем
##неш
узнать
##шко
нали
##дает
##есси
пенсии
глаз
##ческии
пенсион
второи
кни
##стри
спро
##тура
##зов
показа
прямо
мак
##жде
поря
боже
собои
иск
##били
автор
кем
##пеи
##тии
папа
хорошие
родителеи
герои
сначала
прошло
##воль
написано
будешь
наверно
красавица
сделали
сказали
сумма
иде
стары
##олез
проду
низ
##кола
##гии
стали
здоровье
красивыи
заслу
вспом
бч
сот
##кли
гос
##чаите
сказано
##нам
кана
соболез
масло
знать
##зывают
##грам
##клады
удоволь
##голо
проис
иногда
выше
убивать
народу
##дают
двух
отправи
старо
сын
зат
пришли
предло
вет
нало
тому
сожал
##шить
арми
настоящии
13
ул
бар
держать
##цион
нашего
##ниц
будьте
цве
##oi
##цов
хотелось
фурга
уго
городе
твареи
##вались
##ик
настро
вижу
расс
женщины
сожалению
##рами
достав
##ольше
разные
##ьте
покло
бесплатно
##того
коми
##ходить
карту
##сно
##нят
стало
тур
специ
совер
##мов
удоб
уеб
##кти
##гло
разме
шу
нео
##лага
##👍👍👍
##евна
пенсию
##тыи
долба
пишут
близ
##лови
домои
горо
обще
актер
господь
зу
хер
##45
##стеи
##ссия
твоя
умничка
##дила
мрази
гряз
##пот
##ливо
каза
мозги
каждого
00
плю
##лии
быд
дож
суд
##рка
##менты
случаи
голу
разго
муд
ас
убить
поддержи
осо
##тныи
выи
##тели
посмотрите
гро
ждать
ина
##нения
растре
девушка
##рят
замет
огур
море
##чая
белару
лез
##жку
мира
вв
дво
##итать
полностью
деше
чек
стар
газ
которых
земле
часто
друзеи
успехов
дать
светлая
стрелять
вместо
скорее
полити
вб
съ
##рож
##тила
самая
заказ
дебил
мечта
знаете
семье
одну
приятно
китаи
оли
обу
плать
способ
обожаю
имеет
ними
##шает
голосо
помидо
##лена
##гру
другим
крепкого
тысяч
##35
прожи
каком
понять
пыта
граждан
шика
##ия
##нер
приго
хочешь
минут
умница
небесное
зап
бом
молоде
фильм
свер
##лам
каче
группа
лукашенко
дви
хи
отс
чуде
арти
##90
##вила
лиш
стал
ваше
будете
##зывает
##руют
##дете
стоя
огра
дал
отдыха
постоянно
##бил
президент
шикар
кас
оско
##жем
возвра
написать
зелен
##нная
добра
адрес
утром
впере
ль
поля
чему
карто
11
пят
рф
##нете
подар
##нами
##чает
мастер
##гар
##жали
##чнои
русскии
украине
гер
увер
ябло
пово
каких
ненави
аль
звез
##кто
##вки
моему
классно
труд
##нили
##лье
стату
вклю
##ело
##жут
бор
сына
мен
срав
##сужда
##днии
опы
лени
сни
ца
пожи
любои
самои
##кова
слад
группы
иначе
##все
##40
##рут
##чики
улице
😂😂😂
##95
##80
##25
молоды
бабушка
##нт
проф
дали
подру
друж
работают
семьи
ост
участ
элек
деть
красоту
брат
##нице
сом
##мом
дебилы
##тр
вок
##мор
переда
умер
эко
##коль
подели
##няли
видел
дем
снова
##нистра
такими
сим
простои
вопросы
живем
##ены
##лик
##льник
богу
необходи
даваите
##скать
чисто
поклон
##рала
заеб
далеко
коло
##мся
##тое
награ
##сил
##ходите
любит
уважаем
доме
##шься
кло
ока
##вался
##шин
70
##ями
##меня
##чкои
##нием
сил
##ешься
печа
случае
##ьез
##еты
верну
исполь
твое
##нин
защи
##бирать
телефона
обеща
сен
##дное
душа
уродов
##фу
дата
##сок
став
верно
типа
август
администра
бз
##нда
##нику
##есо
опре
##атья
знаешь
никому
анге
##нень
##рин
коли
стара
паль
неделю
повы
бляди
школе
еф
митин
##ктор
##ьют
##ехать
##26
##дек
##жела
ходить
вари
одним
хозяистве
60
ура
##чень
смотрю
блин
зло
читать
код
2020
воины
татья
довер
вода
никола
твою
прекрасно
мужики
язык
##лят
вид
мило
дерь
заказать
месяца
внимание
называется
детьми
дого
##тые
ищу
пошел
##рито
##руб
##ссии
посмотри
500
кара
пару
красав
терпения
оль
##дия
бара
переста
часть
легко
союз
жена
сб
##жды
##мм
реги
комму
нашли
##цам
пога
##рон
никого
##страи
родителям
полови
##24
##жала
семеи
любить
##номи
нами
##ителеи
подпи
смешно
будто
##них
стол
интернет
##фор
смерть
спраши
золо
исти
уто
отде
мин
##бка
##ее
##уу
##нила
заяв
##дии
восто
##вест
поняла
##ехали
дон
дают
смотри
##ала
##нев
водите
##выми
алка
добавля
болез
ефрем
прин
##жие
большая
помочь
полныи
поменя
пету
погиб
##рена
##вок
подроб
ебу
отор
сидит
требу
поме
##ебе
##нула
возду
документа
оскорб
научи
##енныи
надеюсь
моего
америка
бать
сша
##лении
##рует
##жат
побольше
нету
благопол
террито
животных
хлеб
мусор
отец
##♥♥
##жают
следу
продук
тран
полез
##лах
##ема
##ителя
##бом
своем
реа
красно
диа
выручаите
17
зря
ид
ото
сва
##сеи
##пли
##льным
##ляет
тыс
##чного
дорогие
васи
уз
лето
фотографи
добавить
объяс
сюда
штра
##пая
государство
амери
##98
мат
стоят
находится
ива
оху
##цем
поп
##вец
самом
гандо
##читать
##дю
поле
##кор
пробо
сос
желез
стороны
магазин
двер
##сса
##хе
выход
дороги
пиздец
медици
ищ
нап
воду
бал
бло
наци
##класс
объяв
слишком
нау
##мать
маски
проблемы
хотела
статус
хрен
прис
приро
лицо
тихо
уровень
десант
##нил
##дость
говно
##стати
##жим
другу
врач
основ
родствен
уксу
шта
##сер
горя
права
08
забот
даваи
насел
вдруг
удив
##нат
рос
##вут
300
lo
хран
прош
##пои
тепло
сидеть
украин
фон
храни
##73
##мость
судить
##ствием
8oi
пр
цер
неда
сове
##дьми
работе
перем
клу
ля
трав
##нке
##ент
##сила
аи
ага
вак
дро
##60
кост
дан
##гия
пуска
пад
сидят
помога
слуша
взгля
дам
чес
напри
прошу
воро
##мут
ваша
музы
перес
согласен
появи
ждем
##нку
заи
кос
отка
новые
пиндо
боя
служ
радость
квартиру
повесить
заболе
долбоебы
долбаеб
##чных
проц
призна
##жает
хотел
пл
##23
##ститу
разре
краи
дает
##чили
людьми
времена
игро
ублюдок
мужчины
един
кстати
прок
##жаи
около
дорогая
извините
повез
дочь
##езд
хорошее
продали
геро
уи
убе
##пец
##нье
цветы
##дныи
##нял
##гут
родину
многих
ожи
##ваете
##дая
быв
изде
##44
сосать
президента
##ила
##фф
##рела
##ляют
##циеи
конца
##рован
говорю
соболезнова
обои
уми
##итут
моро
преступ
##зии
собаки
чаи
сволочь
тюрь
например
фами
хри
##ина
засу
забер
##тие
делаю
карти
часов
ответить
любимыи
жду
##мите
##реб
другое
группе
знакомы
благополучи
внут
##пет
очко
стари
служил
пидорасы
солны
##гам
построи
##водите
суда
сист
невоз
##ители
привы
пригла
раион
справед
мог
стер
возраст
##жныи
##мит
##геи
нашу
##публи
жопа
вашим
проблема
хабаровск
тяжело
быдло
татьяна
вст
##кар
##луч
вечно
имя
платить
нашим
обычно
дра
нару
разо
практи
русские
ваших
история
области
герма
ах
##лев
разру
прежде
##дного
всему
слыша
шту
##65
##99
пожела
нарко
##резать
подве
голове
мамы
воиска
отдам
забыли
некоторые
происходит
ито
##💐💐
##рук
соли
##мат
##ством
услови
ебать
крым
солн
звоните
экономи
сентяб
##шкои
##точно
##стую
приезжа
мужа
пережи
долгих
земли
##оны
вашу
остальные
помогает
благ
прочита
воров
##стом
##зал
##льнои
верю
любят
видели
иметь
среди
воню
##теля
бои
чуж
праздник
бв
##рел
##ставить
##тесь
##пок
убии
ат
аж
гля
постав
моли
##никам
низкии
идти
дя
ждет
оди
фан
##еш
покол
человеку
##ческие
км
пять
##чите
##дал
##тах
##ступа
чинов
операция
##енные
можешь
поднима
кури
патри
ебануты
получить
стихи
мясо
пиздабол
комиссия
позо
##енная
подсол
измени
сила
##ствую
##заться
серьез
благода
срочно
88
програм
выска
причи
ночи
люд
стала
возле
##пки
##зма
##ному
содер
##шают
последнии
##ственныи
произо
москве
21
мску
поступ
##ровали
##рели
отсо
##лены
##ждения
песни
царствие
невозможно
бить
##дри
##b0
отпу
лучшии
##ческих
соврем
ch
двои
##зер
##цами
##ризации
выз
выеб
##мон
думать
понял
порядок
кров
пля
##дку
дур
##зом
здра
фот
##ур
вспомина
могли
##тать
##телеи
баб
рекла
получилось
обраща
провока
бю
нер
станов
тан
сказала
правительство
ремонт
##48
##ерт
процен
таком
семью
##вьте
анд
раионе
выплаты
спокоино
копеи
тои
момент
##тики
соот
пиши
другому
замечательно
маида
##роди
женщин
трех
донбас
встрет
зч
вещь
детства
грамот
радости
бесплат
чудес
мл
замо
обез
вече
пан
душ
##суль
любим
клю
мск
ть
##пые
##ио
##ым
##чко
##вестно
компа
губер
попробо
талантли
доволь
##веи
пидар
##няет
помощи
мальчик
которои
маму
парень
песня
вя
##вит
неве
##нав
##сии
публи
сложно
##ческая
смотрите
мамо
круп
телефону
рак
хра
вернуть
поздравляем
сердца
професси
ука
##ян
##еди
##дви
выки
чушь
учитель
аду
зв
идут
##кать
##дам
пить
##пов
домаш
воина
пишет
глупо
сохрани
удовольствием
вакци
##раи
##нал
##тил
сор
##вешь
##дется
##сков
делала
родным
звер
##ват
измен
##ствовать
ебану
хозяин
1000
благополучия
##гры
задни
##бок
##поли
опас
телеви
890
##ера
станет
душу
таи
головои
сергеи
md
мнои
срок
##кров
##ает
##зь
пошли
буты
большин
##ждение
группу
корона
зам
запла
остались
зарабаты
маленькии
состоянии
иль
ом
хво
чч
##рмо
##мар
##ровна
милая
сиби
написал
закончи
##нг
##нья
##ким
##дова
выжи
##баи
поздно
близки
медве
оказалось
сне
хрень
##дные
заня
честно
посы
памят
аф
член
пост
выпи
чест
##печат
остальное
окру
июля
ель
однокласс
ребят
русских
🙏🙏🙏
##93
##щую
товари
соци
##льного
всеми
конститу
видеть
школу
платье
##рат
##нике
зад
##рик
##виду
теп
ставить
сказо
хуе
получила
связи
хам
##вные
##дная
##17
каким
горе
##нус
##гах
35
##ss
заго
вов
зарплату
результат
##шенно
##рев
суб
делали
говорил
пидорас
очередь
каждому
ии
##года
##даль
##жечь
развали
руку
перево
гнать
зер
поху
разво
своему
##лым
поможет
классныи
думала
шт
##жные
дока
приоб
деся
больно
##бера
тема
кормить
проститут
куплю
платят
вокруг
клоу
вечером
55
треть
##ому
##лад
##бов
каран
разу
знали
которую
части
макси
американ
феи
школа
##дости
мою
рост
##моз
речь
лаики
след
следую
пенсионе
траха
платеж
ольга
45
##жении
приш
##чис
мимо
детство
осень
зависит
четвер
встреча
u9
устраи
##валась
##нешь
приз
словом
трах
получил
поставить
##ехал
яи
##рг
##вших
##еру
##гои
##ником
руками
мысли
кип
беспо
восхи
успешно
##аких
отправитель
царство
аг
управ
указа
##лок
моих
голос
слез
восста
твоеи
машины
доставка
укро
непро
заму
выро
даите
пухом
##щим
миха
част
вре
вза
ке
чв
пут
сажать
верить
восп
солда
сторону
которого
помидоры
али
##над
##вока
##диться
позвоните
школь
участи
одино
лас
прости
паца
##скому
маме
автобу
играть
считаю
жесто
явля
##шит
бое
суку
пидоров
берут
ублюдки
противно
солнышко
сере
##чо
##чении
##чок
##46
##лую
жел
черно
сделала
ладно
198
машина
велик
недели
запро
##чаи
зарплаты
комплек
бак
пошла
пришел
деду
лица
кух
хуя
говорите
##прияти
историю
государства
стенке
кв
##77
##ваешь
выго
обл
настоящие
поддержка
оплатила
вперед
оторвать
близким
com
захот
##жии
##чное
##ньте
##зывали
##аков
##аком
армя
нынеш
виноват
владимир
зда
фла
##онов
##lа
малои
уважение
ребенку
необходимо
соболезнования
губерна
двор
##вен
##нос
##дев
##вел
##нулся
подъ
детские
##зить
одном
нашем
трога
хотели
##кси
пох
нез
##дах
##рец
превра
сталин
помогите
нашла
рыба
написала
молча
очереднои
дорогои
понравилось
##рались
##лили
зас
##пил
правду
##👍👍👍👍
другого
повто
редко
наконец
старыи
растрелять
повезло
ору
##обо
##29
##деров
##стая
никаких
представля
расстреливать
живете
искрен
шут
##тю
##лете
##цеи
напа
спать
мето
лета
черныи
полно
евреи
весе
украины
выглядит
нрави
##рак
##стя
коше
карма
дорогу
фиг
часа
игры
круто
украина
u9b0
##11
##енка
##рил
выбор
##жеи
##зан
сан
##ческои
придурок
##36s
u9b079
сми
устрои
##крет
##рку
пое
наказа
##олет
быстре
##мум
жил
детстве
сала
услу
адвока
можем
пидарасы
гнида
отправить
бен
##ова
испы
наличии
остров
000
бле
##чную
##нали
##оти
рада
привя
привез
спа
честь
силы
помним
убрать
бабушки
пользу
растет
22
##сл
выло
боро
куль
успо
пидарас
экс
подсолн
соответ
гене
##дина
##чил
##ютно
##бан
предлага
возможность
вч
##гер
нелю
отца
##лями
обма
сказ
собствен
лоша
думают
актив
республи
казнить
шлюха
ирина
энер
ясно
просты
похож
мозгов
использо
поряд
##ляли
приходи
воск
рука
случи
##жусь
интересу
слабо
врачи
забрали
##ект
москва
деревне
наблю
дерьмо
пускаи
##чон
дав
справ
руках
конце
пизду
начала
##66
соц
гости
спло
большие
молоко
другом
##😂😂😂
##тре
покои
приколь
конец
обратно
козел
ошиб
холоди
платежа
##стрировать
елена
##оля
гореть
##пиз
база
путину
любимая
родины
отношения
костю
##шем
##😘😘
пото
##рого
выбира
##чают
друже
форма
оправ
представ
##стыи
пособи
справедливо
пита
непри
##пект
##чув
услы
добрым
##ющим
всякую
растут
александр
совершенно
ио
сжечь
##дала
заж
##енька
жир
перио
жар
##ровал
землю
потери
идиоты
примерно
придется
впечат
сма
увы
##руса
отра
водо
гов
##чаю
саите
верные
работал
купила
взяли
стоимость
поводу
чз
явно
##кру
натура
##рили
отру
нос
получится
останов
слушать
понимают
банки
информацию
сохра
кле
тет
##где
небо
нежно
проще
##мила
тек
мыс
умные
##читы
спор
лы
##кви
##бб
##теи
##33
##рают
выво
отстре
новая
обсужда
саит
##иню
наталья
ждут
##lи
##фы
##55
##тон
##ночка
тон
видит
видать
##ленно
##щает
хуило
обращаться
похожа
августе
написали
национа
оле
опу
ще
##дор
посла
тему
корм
биз
смерти
хохло
никакои
бюд
копеики
26
ам
есте
##кнов
направ
доступ
ката
берегите
удивля
выборы
искать
наобо
##енных
прием
вален
первую
голова
##зывается
толку
информация
##нр
неза
##дик
досто
##лец
##образ
человеком
познако
жало
которым
пенсия
возрасте
иу
уеби
##чным
##22
##порт
##чками
##ходя
правы
говорили
простите
##волю
законы
площади
воспиты
##er
посте
вое
ног
##хоз
инвали
сель
клас
##акого
подарок
наоборот
гло
щас
##ьет
вырос
##тика
вечера
вирус
остался
поидет
здоровы
мяг
улыб
опреде
фанта
##тен
##😍😍
назна
##стые
##кур
##няют
распро
идите
ово
ходят
роднои
умныи
кино
терпе
маленькие
факт
114
56
ау
##ново
выклады
##шед
игре
истории
животные
магазине
##пасть
опо
уши
##кре
##яя
##at
##нд
попу
##лил
##воря
кошка
бывают
##жено
##зала
либера
безо
переб
помоги
##лета
получили
предатель
сообщения
зимои
коронави
великоле
откро
пришла
новых
##зали
##жин
##щик
предо
показать
красоты
тиши
добав
коммуни
соло
тв
##88
##дами
##хои
##ковь
останется
счастливы
количество
##комен
##мах
роли
оба
обал
преду
##тых
вашего
скры
думает
думаете
светла
охра
24
##вании
заг
баба
знаем
позити
продается
диван
выполнить
ленте
которое
ночью
транспо
ехать
удар
##нное
совести
##енье
пласти
смотря
арбу
желание
##ствии
господа
хозяева
##фаль
затем
соль
##кс
захва
##тивно
соси
##ствуют
школы
огурцы
ори
эмо
##рк
##нду
побы
##раться
наг
навсе
нев
проте
обес
кан
жила
детки
конкрет
никакого
достаточно
сволочи
образование
попробовать
порт
##ватель
дости
прика
##еба
##сия
##чества
первых
худо
времен
классная
##нутся
ублюд
казах
молодежь
урода
фут
мора
ходу
##бин
этими
специально
музыка
еру
##вшии
##цом
номе
ниже
путь
знал
обос
##долба
глазах
зарплата
зву
##пка
##лено
бума
##пан
##град
контро
свете
##🌹🌹🌹🌹
четы
сахар
олигар
ушел
##лке
##нении
##вов
профи
бож
послу
странно
хуесо
полнои
кир
родные
хабаровске
смысл
ситуации
электро
зз
##94
##вало
захо
##шили
скажу
##шок
##ехала
девчон
абсол
красавчик
##ах
нава
##довать
##тар
##нуться
##няюсь
##жается
каждои
полица
легче
фашист
совесть
германии
07
##сю
##чается
дед
разница
##пали
##бые
мело
первая
остав
работаю
актри
машину
броса
собаку
окон
##ненно
рано
прие
присо
ходили
мая
ват
##ремя
продают
интернете
запись
защит
опыт
подвесить
произошло
ельци
28
вне
ощу
пры
##нан
доми
отдать
пусто
север
лекар
собрать
классные
плох
имеют
обрат
номеру
месяцев
респект
буквы
прошлом
уп
##жная
##вныи
##лова
задер
завод
##оты
пропи
отказа
##гают
разоб
заку
хуиню
кисло
##ительныи
ебаныи
##ственная
однако
##никах
родился
живите
запрет
сомне
навсегда
##жением
##гвар
##рести
каст
каба
известно
##мыш
остается
##ческого
расстрел
короче
отличныи
дурак
задачу
литров
редкая
птицы
армии
дождь
недавно
лс
очи
🤣🤣🤣
##рени
##поло
находи
приба
старая
посел
вкусныи
маленькая
мерз
производ
бюджет
тря
пона
##рает
кош
могла
##тило
рома
##туры
знала
оставить
числа
спорт
150
воину
пользо
##влека
замечательныи
настроения
принци
населения
клуб
солнце
еже
##вобо
собы
##чим
##чали
маг
вешать
жале
лаи
беспре
прекрасныи
будущее
уничтожать
противо
заебали
территории
гандон
31
##тка
##там
##вато
выхо
пиро
##вета
белыи
дороге
пиздоб
увидеть
ситуация
сахара
суббот
великолеп
👎👎👎
##😡😡
поне
почита
##нина
##лог
проити
##рых
кастрировать
классы
физи
трол
греш
александ
продажные
##нись
##льную
приня
марина
##жила
##чено
боятся
миро
долг
намного
квартира
бедныи
офици
прокля
четыре
аре
кп
реи
чере
##нитесь
##новить
наж
рекомен
комна
октяб
последние
готовы
необы
отрубить
пак
##они
##нскии
##стран
##нулись
судя
##пал
##гуля
летом
отношение
пришлось
уш
хрена
##рение
##бри
поза
проходи
выстав
##нек
вор
##гал
спу
сутки
конф
##ленные
##ческое
света
начали
отнош
неиз
отвечать
мужчин
обезья
быстрее
познакоми
опи
фран
хре
##пля
##лак
поправ
##рачи
##стры
кота
##чарова
##тел
силь
первого
скор
##форм
держи
горба
связаться
отдали
животное
ресур
фотографии
мене
##рения
##яться
поко
нему
незна
##дорож
раб
воо
ручки
хороших
фотошо
мозг
плюс
геи
зоо
##шет
##64
запом
выставля
вон
воспо
##чих
обща
долгие
тупая
дороже
поняли
походу
берет
новости
состояние
важного
##ницеи
асфаль
природы
становится
коль
##шую
пооб
москов
##вела
убил
кредит
уважаю
название
подумать
едино
удобно
разговари
2000
##вши
##никами
##доров
выпу
бого
продаете
##рье
любя
украину
зовут
##🙏🙏🙏
депутаты
отсут
дружеская
выдер
богом
безмоз
туа
позвол
оооо
вашему
квартиры
курсе
виноваты
воскрес
обеспе
зн
смен
трои
насто
выда
сочи
##нулась
живешь
##нюю
одинако
рыб
девушки
соседи
тупои
решил
железно
внутри
большинство
кастрю
цы
шака
##хх
##цать
задума
##тировать
##таж
ман
своя
путе
##тур
бабки
##скими
молодои
беда
получать
вранье
пидорасов
учеб
сообщение
спросить
случаино
основном
сентября
непростую
интересует
23
кр
ян
##драви
##нных
##роят
това
прино
##шил
ходит
буме
пись
подт
надоело
сад
бляд
самих
солне
надежда
народом
ефремов
27
шан
яго
##чез
##зую
заба
##титься
отзы
##сик
стрем
изба
баи
револю
полная
прекрасная
взяла
запад
фургала
близких
дворе
ген
иго
хит
##рене
##шные
##ляю
##жима
мел
контак
каждом
##енность
вкусные
анти
родина
ребенком
чувство
уебище
воспомина
бас
ква
##вшие
##шеб
##41
поез
##лька
доказа
дочер
отрезать
собирать
закона
лечение
перо
##леты
любом
жополи
прекрасные
нормальные
улица
возможности
возраста
оказывается
батька
практически
бумеран
##тами
##вку
##an
##85
##стру
точку
##сах
##зин
любите
семь
корми
крови
долбоебов
неболь
хозяина
документы
специали
зуб
##чник
##id
неф
##тан
подня
ведро
милыи
осталась
соблю
лап
освобо
родных
заранее
глубо
свят
сосед
трудном
симпа
вете
эфф
##жете
##ат
##щении
пова
неме
забу
копи
сож
разбира
вера
купа
столо
##щают
логи
ебал
ебало
получают
понимает
начало
нормальныи
уголо
решили
начнут
взгляд
вку
сет
яр
##жных
##ловать
запре
##вид
##думы
разда
вино
895
шах
взял
размеры
мальчика
психи
судьба
пожиз
плака
безопас
адек
гр
дни
ухо
##21
мон
дожд
носить
##живает
##туа
большо
решение
##утся
черт
головы
серге
работали
авторизации
запах
плеши
посмотрим
рам
##рр
##вере
запу
моря
##руп
нищ
каби
##жих
пала
сара
верит
тури
таб
грустно
колбас
центра
мужика
любовью
считают
бедные
##менить
назвать
узбе
благодаря
ава
оформ
##пит
##торов
нашел
##лон
##логи
женщину
держ
окна
ближе
нового
увидела
писал
пандем
зерка
абсолютно
нен
хло
##вная
##лью
##таи
пипец
картин
##хуя
коллек
##ворить
внуки
торго
ветер
артист
алкаш
уксус
400
pr
жрать
осу
##пен
##оте
прод
моги
##чивать
развод
смотрит
теме
исчез
горжусь
корот
дебилов
минимум
настроение
уебок
вит
юби
##чнее
##цени
##ваюсь
природа
водои
##чиков
##ологи
##живать
##пили
стан
мину
конц
масса
блядеи
начал
берем
цвета
великии
улицы
улицу
существо
каса
водитель
продукты
иска
сно
убо
фар
молит
##лях
дадут
##мати
##сим
инф
##зили
##щается
алексеи
руководите
мудак
ву
##иться
##43
##рое
##лами
##льки
##кура
ниж
кушать
хули
##ходится
многое
нашему
##ственные
поиму
автомо
творится
средства
беларусь
##яет
##ьем
##гнать
кошки
выку
живи
##чее
боо
суп
##шал
расст
скажи
скажет
##тельныи
##тельная
слезы
ответственно
памяти
поставили
хлеба
попробуите
объявление
кровь
дли
##бра
##джи
##кос
нож
##енья
капу
деток
мари
подходит
тепла
милые
##хали
смотрят
работала
чаще
богат
новое
забыть
хохлы
хорошень
следующии
высказыва
хе
##ov
каи
жест
вело
руси
видите
детскии
тара
коля
##слать
обидно
федера
существует
молодые
##нится
##меи
покры
##матри
рожа
качество
дели
##сал
боюсь
##енности
харак
парни
шала
коронови
добавьте
умеют
установ
ограни
33
85
tr
опер
описа
пит
##os
##nt
##енного
##стят
загру
доби
кап
вести
надоели
перец
халя
искус
взры
твоих
волшеб
внуков
другая
руковод
команди
белоруссии
заработать
душои
подтвер
##хнет
##гно
##27
##раб
наво
задолба
давать
горь
##жнои
мал
верх
грибы
область
депутатов
демо
итоге
##навли
терпеть
##86
зая
вышел
мочить
рав
давить
прибы
приходит
розо
бур
##люб
лечить
лучшие
##ительные
колес
ебаные
целыи
счастлива
гриб
порядо
фургал
вариант
другую
переме
стерили
бизнес
жерт
сез
##lе
##ar
##ген
##ливыи
кофе
моем
##гина
##жая
##жан
##пись
делаете
##дутся
продать
пожале
выбро
любимые
заниматься
профессиона
запрос
сх
што
##чков
начи
##енко
пришло
обну
рук
##ссе
##чках
помои
думал
скореи
лучшее
серде
желаем
ебло
выбля
братья
волосы
подарки
поделиться
вернуться
заявление
случилось
ави
внеш
крова
пя
трет
##слов
##еннои
рады
##бая
фигу
самим
купили
требо
лесу
огонь
поколение
флаг
железнодорож
бри
ибо
увели
эт
эх
##83
##рище
##лял
##лера
приви
обна
##гали
собра
одному
поима
автору
настоящая
дураков
истори
самому
воспитание
цвето
##стях
##лав
зали
забира
даст
##рыи
любу
разных
духов
муль
реитин
стран
котором
тупые
труда
мужиков
цели
пидары
соседеи
актриса
фотошоп
аро
блю
еду
фер
##дак
пож
напомина
##акан
зажи
расти
##лян
состав
жид
живои
##нятно
делал
##шками
центр
адре
красивое
раиона
хабаровча
читаю
рису
последнее
впереди
сохранить
эмоции
кошмар
понедель
двое
ека
##ис
##ию
неви
##лию
##рек
##мого
разви
боли
стоить
пиздить
москву
дыря
фильмы
принимаю
анали
налоги
ленин
др
убер
япо
поу
##рочка
наве
##ванием
##готов
##лое
##лого
замен
сок
нор
жену
жизнью
сыно
бандеров
учителя
забыл
смог
победа
шею
завиду
учиться
секрет
писали
светлана
дмит
❤❤❤
##49
##нача
новую
жидов
края
##лыми
пав
менять
странои
##ственное
конченыи
мечты
предупре
пиздобол
кие
##см
##ыы
##емо
##рисо
прось
отста
##лее
приве
##щики
делаите
напиши
центре
начале
придурки
жур
форму
вен
длин
снять
считать
ух
экра
##дне
небы
##стит
##дания
##дон
коп
рад
##шешь
скла
##грамот
показывают
##ительная
хозяев
поздравления
машине
охот
сможет
белорус
начинается
апте
собачка
дешевле
росгвар
задницу
испыта
250
оку
сбор
##шники
постра
запо
котик
прикры
##рыз
обли
обмен
##мок
масте
##щиков
##тым
винов
видят
слома
##ленных
моим
нужда
гордость
похожи
евг
москвы
достали
##льян
учили
поступок
поддерживаю
николаи
отдельно
падла
является
достоин
##ела
коте
отдох
гондо
спар
разбер
##шали
сади
первом
возму
##ленныи
добрых
финан
##ведения
оплата
угро
тупоры
потря
некоторых
##пустили
затк
особо
андреи
повторя
ими
ся
ушла
##альныи
##ot
##шут
попо
прока
проходит
проголо
приво
мараз
боится
##шат
долла
скажешь
имени
темпера
ебаная
полиция
смерт
образом
сравни
прет
сбе
##жник
##вз
##внои
##чком
##🌼🌼
##рович
отчет
сук
викто
вернется
педо
границу
сыну
внимания
марш
нахер
взрослые
организа
исклю
отстреливать
улуч
цени
##иs
##идет
##зво
##щит
##🎁🎁
##това
набор
непло
топ
дар
##сипе
##гая
стри
подро
чел
микро
посе
груди
##пыи
имею
миллиар
дверь
автомоби
око
цене
##ап
поси
##лагает
##дан
##кими
пропла
выпуска
##стья
пишу
века
насчет
перво
##сыпа
гаран
собственно
аллах
библи
леса
электри
вариан
третии
29
48
вере
##аи
##лением
потра
попасть
##коне
##дию
говоря
роз
век
##люсь
сказки
доброи
каждую
числе
славя
поликли
смеш
твоим
покупать
конченныи
уровне
метал
штраф
32
жени
жители
хру
##лизм
##ери
##итая
прошел
мошен
##жек
##льность
кусок
падаль
##хал
трудо
сыр
банку
вашем
тысячи
повтор
циф
беларуси
печально
свадь
засунуть
чужои
взаим
екатер
вряд
сбо
свали
упо
учить
эли
##юр
##пь
##дение
##зам
##стныи
запас
##сятся
такому
допол
##жество
носит
буль
##гаи
дея
##сор
##фика
пиздю
темы
помнить
держит
основа
началь
красавец
закрыть
конченная
внимательно
принимать
псих
уксуса
естественно
велосипе
шли
юмо
##пку
##71
##кость
отва
##леб
сорт
обсу
жилье
##ходы
куку
сегодняш
врачеи
главныи
нравятся
победы
ошиба
sc
ели
осто
пру
уходит
##сами
##тится
##ннои
##ету
##нишь
дааа
##стили
##дитесь
оставля
##интер
##фиг
##ченные
##ственнои
волну
непонятно
угодно
определи
уточ
подробнее
удивительно
условия
порядке
сплош
тишина
девчонки
38
воль
ем
пли
👏👏👏
напро
начать
##кин
##рудни
отме
пристре
##симо
нигде
##шими
препо
насла
##зовать
сколь
голосу
лопа
кило
говорится
русская
парня
читала
умеет
аппет
космо
вовремя
присоеди
52
впер
##рд
##чика
##чал
разв
стати
предприяти
держа
каждым
россиян
президентом
список
звонить
деревни
продажная
обоих
афри
ублюдков
гит
лена
месси
##хли
##ll
##стка
соста
примите
новои
розы
кате
разор
изб
извест
пусты
##чев
бабло
##пель
режим
первои
планет
помнит
мразеи
всяких
проидет
воиск
уважать
песню
рассказ
##👎👎👎👎
ездить
далее
появля
строить
хими
церковь
чеснок
период
мэ
окра
твер
убор
шел
##рно
##жется
##жке
порода
прошла
выходит
##вее
##туре
мила
больнои
##ментов
россиеи
скром
белые
конкур
гавно
показывать
алла
10000
берез
форме
сотрудни
старости
цветок
ебанутая
демокра
ит
прит
яко
##вное
##42
##39
зага
##асы
##тащи
роман
обви
##гим
##зия
конфи
масла
мужем
наилуч
считает
относ
сумму
грязь
отсюда
требуется
процес
проститутка
салат
генера
оконча
65
жк
мебе
##рге
##тят
##a38
##нного
нечем
##ниться
коров
отма
##нести
приходится
гораз
разм
изу
##сала
паро
##туру
думе
посу
силу
молодости
газо
партии
уважением
читаите
мусора
ссылку
##ненько
воздух
систем
людмила
памятник
классов
воспоминания
беи
ввиду
одоб
оцени
##ch
##⭐⭐
##расы
забо
##тим
##виться
веду
тело
мили
хорошеи
делается
##мыи
хотим
краснои
думаешь
враги
банк
настоящее
играет
очереди
пенсионеры
содержа
u9b079a38
u9b079a3836s
##кг
##ww
попы
##дание
заити
такси
выле
данныи
изоб
стаби
##нько
##ссы
заклю
продаю
убиица
##жаться
трахать
кругом
родила
россияне
вторая
весело
людях
##ведение
строитель
ленту
уважаемые
золотои
процентов
иису
устраивает
600
ден
оре
очарова
прем
сф
усы
шка
##сам
##жна
##ишь
наси
##рица
проек
отклю
принес
##чила
обья
обман
##тера
##била
##равно
борь
суток
##пара
сиди
сало
первые
авг
ложь
правила
русского
родная
купил
бабуля
поддержку
шедев
июль
морда
уровня
шоке
шокола
местах
попробую
армия
зеленыи
доверя
болезни
серьезно
пенсионеров
нравиться
гром
сети
##альная
##ut
##рим
дому
сон
прили
самым
сталина
добрая
закрои
##сыла
девочку
отличная
дальнеи
июл
##служи
анато
идея
сверху
яблоки
администрации
штаны
следствия
36
бит
раком
##чники
нада
##аку
загля
##вица
норм
никуда
ростов
дег
пунк
больных
раска
сапо
##полне
масок
враг
словами
счастлив
спец
службы
процвета
ебанутые
приобрести
www
лебе
шку
щен
##зб
появ
##струк
стакан
##ереть
подклю
##льном
передать
комнат
##полез
лаик
##ченко
предатели
несчаст
понравился
улыба
штук
иму
коле
оля
##спе
##чительно
##68
##🎂🎂
##даи
заставля
товар
отмет
ран
давали
##читься
живы
##пози
##сана
сера
первое
верят
сынок
красотка
желания
понимать
##долго
рези
магазинах
##🌹🌹🌹
компьют
миллионы
статья
иванов
беспредел
менее
немец
37
истер
лжи
мере
##зку
##феи
нега
зафи
проща
##аться
подви
персо
##тельства
женщине
путинские
учите
плохои
деревья
отдых
союза
придумали
глазами
удовольствие
ищет
простых
58
апре
клет
млад
оче
фло
##тные
##вень
##чб
##😄😄
наступа
неба
котя
вышли
##лечка
подряд
##писы
бабы
стоять
инди
##мые
галина
спосо
вкусня
открывается
грех
деревня
ошибки
литр
буква
старые
##рмое
феик
касается
вполне
жителеи
мес
смет
##😁😁
поки
поце
подои
находите
##кому
##тал
дала
##няка
кусо
папу
миру
мудро
##пуга
лежит
позже
##тельные
исправ
хватило
желательно
жопе
урожаи
забыла
мерт
морду
уничтожить
писала
замечательные
пригото
уверен
валентина
крити
шар
##бре
##et
##щему
##🌺🌺
нажи
##гор
##льными
##лева
приехали
воде
общаться
спря
##пост
суть
##бург
контра
плани
педа
лагер
получает
##лемен
теря
утвер
##ваися
пидарасов
##🤣🤣🤣
замечательная
съе
договор
прикольно
prnt
44
остро
уво
уха
хол
##тите
##его
##дж
##en
насо
заве
зараз
дано
ничто
стака
поднять
##пают
##туально
##шала
большим
страни
гара
дистан
колхоз
убила
понимаешь
советы
советую
свинья
позвонить
метро
миллион
придумал
кремле
разместить
голосовать
двери
слышала
тьфу
##надле
симпати
зафикси
34
упа
##отов
##лению
##гр
полю
порои
##рался
нат
##лите
##ваитесь
ранее
принадле
##мое
мария
бонус
самых
##дывать
виду
стадо
##шаите
сестра
класси
класса
гар
груз
хуиня
парк
родине
ужасно
котят
##паться
##потреб
судья
двига
принц
сосет
чесно
система
двоих
участие
номера
лаиков
##зуюсь
педофи
42
800
dt
зная
ню
озе
##бку
##ясь
##вича
ничем
больнице
##шкин
мразота
поимет
трам
рынке
открыть
июня
деревен
бедная
чувства
городу
выигра
царь
нелюди
альян
брю
вни
зла
лам
лоб
чеи
##тку
##91
##цвет
пог
прило
придут
десят
рулем
лизать
##тую
бата
распо
помог
красныи
сереб
бесконе
удалось
##ходили
кровать
немно
создать
обыкнов
козла
фашистов
образования
выидет
использу
ангел
напря
телевизо
михаи
гораздо
едут
зом
удо
##коло
##пления
##лла
##тории
заре
кое
протя
прожить
выста
мощ
##рые
спит
изо
##сажи
##шаи
мешает
деткам
россиискои
печень
трусы
трудом
правило
арт
всякие
бандит
советскии
огород
подруга
твоего
добавляитесь
пробовала
медицина
мамочка
следующую
привязать
холодильник
костюм
держись
дочери
характер
жкх
серафи
дря
ед
сним
##нению
##37
##32
##92
##точка
отпуска
призы
вова
ногами
##няется
лимо
##дном
бала
наск
рели
хорошим
странице
деньгами
закан
села
##новь
##дник
думали
бесполез
##чены
поиме
уважения
техно
веснои
паспор
админ
смысла
петух
василь
америко
прочитала
восхища
солдат
кирпи
скорби
туалет
гени
ес
оси
упы
эи
нав
называют
##кает
вышла
добы
##вин
##душ
##стане
мату
разде
жесть
##бых
вар
глазки
сделано
грудь
врагов
корруп
анна
##ооо
смогла
начинают
наказать
ненавижу
млн
подъез
задолбали
вло
пяти
тка
##хло
##фер
навя
##реза
##тину
##руи
прихо
причина
##мую
##стик
##стика
разли
стес
##дность
варень
валер
##шаю
мусуль
скажут
чужие
гав
гад
каждая
показывает
жены
смотрела
трусли
бесс
широ
паспорт
пенсионныи
хранит
церкви
отпуск
ласко
##вшись
адекват
катего
вред
плем
##бит
##бят
##дру
##дцать
##лкои
##зка
##новыи
недоволь
##стные
##каи
проч
выпа
пишешь
##циона
##сон
самол
сидел
кончи
##ческую
хвала
поимать
деиствия
бабушке
закончится
##хотрон
ездили
администрация
карантин
армян
конкретно
54
75
азер
бот
яс
##кнуть
##пп
##пред
##34
пози
наста
##стами
##лочки
##доро
##дида
вып
выде
мото
модель
общем
##моро
спер
##дности
##туда
первым
остальных
##бель
##ступи
##дям
этаж
стороне
помощью
торг
готовить
отдыхать
информации
##👏👏👏
статью
радует
канал
приготов
тюрьме
десять
сказка
ветера
развити
46
аху
мами
тесто
ун
шер
##😭😭
постро
напра
##акать
##кали
застре
руба
возмо
гаи
однозна
многодет
колле
путинскии
говорила
дерево
наидется
увидел
квартире
строго
некогда
##нутые
решила
депутат
свободу
заводы
гроз
митинги
региона
половина
замуж
успоко
асфальт
эффек
мастера
вновь
гвар
уходят
##мпи
##стр
##даю
##тию
даче
##ебы
воб
балко
бездель
бешен
тари
границы
правильные
жопы
связа
учени
##слав
##жены
леген
##править
языком
спаса
нашелся
средств
награда
золото
уидет
позорище
посыла
конституции
услуги
пособия
котенок
впервые
находитесь
39
анек
побо
поду
##роны
##енное
##валь
проз
оттуда
##ляла
##нуло
##чата
кали
подписа
ван
больницы
##ствуи
##нему
маску
##саться
деревя
алексе
отвечает
несет
миллионов
сдохни
потеряли
##💋💋💋
защищать
америке
фигня
наилучшего
86
дит
ща
##бро
##ими
##лют
##товать
поет
##деш
проро
ходила
рожда
ведет
руга
сидишь
##ссию
жизнен
##новка
перез
##мых
черти
активно
##ственных
ответа
прекрасное
##нности
поставил
выраст
китае
потерял
игрушки
пиндосов
заберу
внутрен
замок
клоун
кипят
неприят
полицаи
грешных
знак
еле
кно
ноль
слю
##яр
##or
##😢😢
##56
нести
неправи
##кал
##кан
заста
засе
вывод
спрос
мали
##няться
разработ
##честве
красо
параз
здох
план
позна
скот
графи
приветик
любого
круг
говоришь
вторизации
счастливои
греба
просмот
обычныи
странах
комментария
секс
взрослых
достоино
ленина
болезнь
ефремова
родственников
население
знакомых
экспер
оригина
однозначно
06
вду
лнр
твори
##дения
##чут
выр
выходить
дожи
##русом
приу
воровать
ногу
ровно
##стила
подло
болит
виктор
село
переи
##мыс
помогать
жара
лохотрон
дорог
лари
напишу
диби
семе
праве
наверняка
врача
трава
англи
ебут
вторую
вторых
##аааа
проверя
чиновников
сказочныи
бумеранг
врать
дне
сц
сбы
тд
шам
👍👍
##еться
##жени
##хам
##дке
##al
##зем
##шта
##8oi
##щер
##bе
##😀😀
##🥰🥰
##🎉🎉
##рас
##ента
ков
копе
выраз
выити
вылез
раство
созна
##вик
воры
##нутая
рода
##бах
##рям
дива
интересная
ответил
##зываю
##зывала
родилась
однажды
свидете
личное
гиб
обед
знаком
рабочии
подобных
проверить
турни
обувь
коммуна
фамилия
транспор
проголосо
здела
##как
##зон
посто
кошек
прошли
##дился
##ляется
данные
вовсе
разно
разум
##жаите
стару
столи
безграмот
испор
путинская
##ходила
овца
стира
зиму
капитана
цветов
вакцина
неплохо
индивиду
анекдо
гне
гнои
ест
ип
эпи
##рныи
##дится
##ik
##gа
пош
пошло
##рово
зама
сосу
ноя
нина
тель
личные
виз
виш
##ньку
хороша
перевер
работя
заки
закро
клад
ложки
маска
брали
любое
8914
##принима
играю
друзьям
фабри
смогли
сторон
плевать
грязи
терпение
степ
зубы
уважаемыи
ставят
появились
выросли
коронавирус
футбол
##мышлен
богороди
потряса
заканчи
едро
ири
иван
лень
сго
сня
уют
чьи
юмор
##тная
##иа
##ыми
##op
##зеи
##58
##стки
завер
выступ
монет
дочка
отвра
##нера
##бою
##ровскии
##почка
кучу
больницу
насле
решать
##зывал
бездом
расши
лапу
мамои
##ченныи
896
свинь
начинать
##хотвор
иностран
называем
скучно
фамилию
дядя
фотки
холодиль
обсуждать
официально
700
bа
hu
аэ
арма
агре
вдох
уга
##ds
##крои
##on
напол
##дились
выт
##тива
принять
подво
##ровка
вечныи
вин
сидели
сильная
переве
секу
продал
лав
##чета
советское
великои
конченая
##ческим
скучаю
##❤❤❤
шлюхи
шикарная
выгодно
оружие
кандида
выставлять
любую
фра
##хла
##шему
##es
##голь
поде
настрои
##рила
точнее
выли
вырод
приез
ведут
тела
преж
куро
пао
молока
чемпи
интересныи
массо
убили
##дены
любому
охрене
сердцем
неуда
котенка
казнь
литро
подумала
европе
снимать
студен
соболезную
голуб
присут
тюрьму
зажрав
александровна
900
сбои
##кта
##рится
##боль
##аз
завали
мост
приста
пидр
##равли
бори
валить
минима
мыш
##ременно
лук
саша
получит
умная
предпо
##рование
благослов
смело
святого
волго
животным
ошибок
ситуацию
старость
поделитесь
краснодар
бояться
построить
ебанутыи
ильи
отзыв
повадно
83
yo
иду
офор
тас
элемен
##ic
##толо
косто
доктор
растер
сокра
##стил
сучка
##парат
##чность
батю
больших
добрее
##зова
пиздо
масках
##ждать
поимут
ответили
обратиться
цель
открыли
июле
посадили
простые
сообщи
курбан
площадь
##пустил
предложение
смотришь
стариков
впечатление
небыло
вру
дню
оцен
##шои
##59
##нович
напо
нации
напом
кори
воин
##сток
лице
ваи
сильныи
##хаха
санк
карта
карман
арм
корму
успеш
хватало
плохого
относи
звонила
пользуюсь
попал
пассажи
##фель
холод
подобные
книгу
молодежи
качества
дружбу
подробности
диагно
десантники
родственники
помогают
издеватель
христи
чиновники
компании
глупость
##роятно
але
ня
сс
##ос
##имо
##47
##ровы
нарисо
##риться
прохо
домов
отре
##ебу
##дум
##гию
##мель
пута
реак
страх
селе
словно
лучшая
##ленная
##фир
лаика
пиздеть
1500
окно
тради
##дятся
связь
машин
дышать
каждое
страшная
армию
изменить
малолет
насколько
120
уса
##оп
##рита
##жнее
##ус
пома
набира
##ливая
пропу
модера
отменя
природе
приходят
##енькии
##бивать
поднял
израи
##ханов
##зию
делаешь
останови
тупы
лох
актуально
другими
брата
шоу
скиньте
сражение
хорошую
брех
попробуи
вспомнить
лезут
олимпи
защища
игрока
нервы
социали
искренние
ушле
безмозг
аромат
скорбим
вк
дре
жут
рю
ушли
фрук
юля
##евич
поти
##аски
тока
прися
пристрои
ноч
##чало
##олом
пуга
очки
##пает
рукои
прес
башку
##гран
верху
чубаи
##сел
продав
умнее
##тность
годами
полицию
рынок
алко
справа
начинает
сексу
записи
закону
местные
книга
осозна
альбо
договори
долбаебы
пожелания
учительница
профиль
пожизненно
аппетит
##utu
дэ
ждите
трени
устро
эн
##оз
##альные
##up
##точки
##тья
пояс
##енты
##стям
запол
отмен
даром
дармое
башке
больные
безум
таня
покажи
сделаите
любишь
русскои
ответила
понимаете
еблан
настоящих
второго
предателеи
видишь
выплат
козлы
##димся
##етия
смысле
поверьте
уверена
слушаи
представляю
кладби
еды
едят
зел
пче
хро
##пс
##ya
##ливые
##стная
залить
кораб
проце
выно
##сию
##чатся
##зация
желу
изум
куча
сись
режи
меняется
перечис
чужих
помогли
плато
гали
глава
голод
##вятое
архи
женщинои
##вьев
этаже
поиду
полицеи
посмотрела
осве
воине
радоваться
малыша
##🙏🙏🙏🙏
считаете
победите
шесть
магазина
##👎👎👎
принимает
красавицы
европеи
бреж
покупали
пропаган
возьму
китаицы
стоял
сбро
недале
здраствуите
публика
ватса
держитесь
юбиле
якобы
youtu
фас
юрии
##оv
##вто
##читесь
##шся
##el
##лаго
##рико
##лег
горы
кад
кафе
капец
##нями
##нятся
божии
дух
##гули
оставьте
тупи
помощ
поздрави
продаже
путиным
##шкам
##енном
представить
многим
малышу
камень
придумы
рабочие
средство
рукодель
взрослыи
белорусы
мальчики
общества
альбом
вспоминаю
адвокат
успокои
транспорт
отношении
шалава
понедельник
шедевр
vиs
джин
ер
жы
ммм
уси
##пление
##хит
##вем
##дкои
##нную
##чне
##69
##62
##53
##тору
наме
засо
##рика
##рея
прих
##чивает
рожу
кавка
пид
пуши
теа
миром
мужу
##нька
плачет
лов
скотина
##шусь
маске
акции
полиции
идиотов
училась
ббб
##гаться
потреб
команду
наказывать
огурцов
возвраща
баранов
дурдом
узбеки
авиа
ег
уити
ях
##жко
##юга
##хран
##тором
##енную
##нилось
##датель
##вос
##девятое
прощения
дожда
##руется
##чивают
##шила
справи
подра
боитесь
течении
дружно
инете
комсом
русским
объем
##женныи
друзьями
поставила
свино
##🤣🤣🤣🤣
литра
правительства
возьмите
госде
менты
половину
слышал
ракет
автобус
овощи
плохие
долгол
настолько
дождя
адресу
ато
ввер
вита
еп
ико
оса
рва
##иму
##шт
повод
похуи
некуда
##ними
коры
какому
сочув
годов
##чия
##стана
##щество
пион
дел
делом
##тех
извра
базе
сидя
добров
##града
остаться
сделает
##глая
##шкина
колен
слева
оксана
крыму
беру
стихотвор
мерзо
хохлов
творческих
пьяныи
фашисты
десан
разговор
шикарныи
молодых
умерла
добавляю
пробовали
единственныи
героев
знакомые
пляж
реклама
конституцию
искренне
спортив
ерунда
ельцин
ягоды
квадра
избран
унита
41
79
ббо
мра
пф
тес
учас
##смот
##кет
##ялась
##жена
##аль
##ун
##шник
##💰💰
##дие
##лятся
прикол
приехать
ходил
##жное
##циа
бок
##льности
лист
листья
бана
безу
молодость
перчат
верится
гармо
красивои
жан
жалу
##ждении
испо
интересное
правильныи
чистыи
##летки
жопои
##ходил
нормальных
берите
ошибка
встречи
союзе
ссылка
кремлев
книги
показали
появился
картинки
глядя
осенью
обманы
лошадь
лариса
долголетия
5000
бл
мнения
роль
##сб
##вшего
##чна
##🔥🔥
##🇷🇺
поо
почи
погу
##город
просить
мона
рабы
##вии
##чиво
ролик
деда
##сали
суди
##щими
вируса
реали
простого
молодая
бежать
##новскии
##грани
##чкам
веры
##дники
##ленного
колхо
число
удача
горит
##😂😂😂😂
универ
##менили
##хота
метров
выращи
нахрен
ввп
платья
звезды
привыкли
содержать
поступки
наказание
бороться
воскресенье
путеше
семьеи
претен
персона
ака
древ
мг
сму
щи
юту
##сп
##чья
##шк
##it
##лировать
##водить
коты
##вим
##шивать
##бир
белая
продавать
полное
опти
фир
бесе
совме
заблу
##скур
огля
крысы
цветет
дураки
тянет
узнала
фильма
очередная
хабаровска
конченые
экскур
законо
понравилась
жуть
наташа
пробовал
ищут
хвост
использовать
незнаю
выпуск
игорь
сезон
спартак
43
вхо
влия
зим
сас
##сет
##еть
##лени
##ph
нато
натя
намор
##деб
моби
##тились
##ляем
рожи
любая
##тег
чести
куз
репост
##ссу
верьте
конлаин
педера
сково
ладо
смотрел
любимои
смороди
греб
благодарность
языке
слышь
самостоя
последняя
органы
принимают
двумя
высоко
идеально
дожди
следует
ищите
фонд
опасно
товарищ
середи
трогательно
разговаривать
большого
##верено
педаго
принцес
350
атак
ита
идеи
мака
опе
осужда
упра
юри
##елось
##хнуть
##вного
##золя
##шении
набер
доход
сопли
##мили
##сталь
обол
обнима
писто
пидри
##гада
##бина
##жаем
русь
течение
преды
дуб
баика
милень
меро
посме
делаем
импер
сделают
хаи
помните
маслом
поидут
любов
имел
имеется
родитель
кресло
прекрасна
положено
##оооо
второе
мяса
свекров
граждане
скинуть
начнет
прошлое
вспомните
далба
уважаемая
карау
охуев
маидан
одноклассниках
черножо
губернатор
сильнее
##ide
57
53
взор
едет
сэ
хвали
##вв
##ана
##шныи
##шнии
##54
##52
##ванию
кома
отдел
отработ
стене
##почки
боб
лидер
##ньки
##цап
безн
расстоя
молодо
сана
лома
трудя
любили
арен
##ждает
2019
годах
похоро
будущем
нормальная
##женные
огромныи
петер
которому
выборов
находятся
политика
пытаются
условиях
поколения
донбасс
укроп
бензин
ощущение
лекарства
тролль
баирам
реитинг
отдохнуть
ил
уе
##ox
##😆😆
нема
##стам
##стнои
зао
заря
замер
забирать
ковид
пробу
просят
пропуска
проект
выну
##курен
##живают
подготов
лимон
лечит
консуль
чуче
последни
лож
пизде
##ровано
горло
врачу
забрала
##зываите
техни
отличии
трое
стих
ублюдка
котеи
ответь
угол
учились
правосла
страшное
сотни
бардак
способны
демон
фонта
становятся
товарищи
проститутки
текст
выводы
##lипе
незави
домик
питер
доброволь
предыду
мероприяти
иш
озна
плен
##ющая
##пле
##97
пору
народе
##валось
##ковые
##дается
выходят
применя
подза
сути
вах
валя
хороши
безза
распи
пешком
пизды
##ровала
получат
##ственного
рыбу
смех
бандер
молодчина
зоне
закрыт
рецепты
языка
занимается
спокоинои
цирк
ограбил
приезжаите
предлагаю
мысль
обалден
францу
пандемии
концер
##интересо
напротив
наслажда
дрова
здрави
оке
сняли
хера
💋💋💋
##кр
##вшим
##чными
##чников
##зме
посты
##енным
нечи
недель
##лила
заставить
комента
прове
##тился
приехал
##вес
спят
поды
##ровки
насы
безобраз
здорова
верите
коммен
благоу
всякои
парке
хозяика
техника
##имся
советские
новоси
наидет
##ванные
огромная
огромного
##крови
пасть
чувству
##нутыи
погода
админы
подобное
ссылке
стекло
придумать
исполнение
организации
близко
помидор
чудеса
ангело
поменять
выходные
талантливыи
михаил
метод
необыкнов
безопасности
аварии
витами
выкуп
тарака
короновирус
хабаровчане
процветания
зомби
техноло
vide
вяза
пью
##твор
##нче
##чую
называли
##кови
залу
залез
##реп
проверено
какими
##итера
составля
примет
воруют
##чишь
хоче
хожу
##чах
##жного
##няк
разному
женои
##под
руль
линии
духа
дружить
##сках
##хах
помогут
##сешь
жарко
черные
лоп
##ческом
пеше
пизди
границеи
получателя
окку
прекрасного
ебет
крыса
успел
советского
поработ
счастливая
смогу
везет
обижа
👍👍👍👍
👍👍👍👍👍
учился
задания
медленно
виновата
александра
команда
стояли
красавцы
игроков
издеваться
пиздаболы
здраво
заморо
сибири
сибирь
кипя
участием
кухня
художник
принципе
пообща
туристов
ответственность
екатерина
мебель
дитя
47
плит
ссу
##жению
##ol
##гле
##84
поезд
нагло
нех
##стите
пром
отмы
соо
прим
буха
обнов
пидера
жири
##езда
##пила
старои
папи
вали
##шаем
посчита
знания
рассужда
луган
делах
саду
##беж
##шках
грубо
трус
вкуснее
большую
алма
##чаться
##женных
великая
##нному
плохое
благодарна
выплата
некому
рабочих
продолжается
защити
радио
отличное
налого
разгово
мастеру
молодым
объявления
одноклассники
арбуз
революции
бассеи
относится
юбилеем
video
або
въ
гли
гам
зп
пьют
учат
##джа
##ллер
##чч
##63
##sт
почув
##новои
##новые
небе
##стями
проси
##ляи
приют
приняли
прислать
вою
##гала
самую
кук
муже
сидите
перео
веру
хуев
газа
главе
твоем
анто
автора
святои
втором
советскои
билет
просит
счета
защиту
защиты
возьми
отправила
дешево
##ненькии
оскорблять
охуели
природу
выебать
донбасса
развалили
взаимо
губернатора
справедливость
олег
октябрь
зеркало
сравнивать
процесс
азербаи
англии
ара
аму
илья
крю
уму
уско
##dе
##ктора
##ику
##цкии
##✌✌
помы
##рог
##ралась
нанес
неа
##ково
##локи
запе
проя
прибли
бух
деды
станови
ваго
балан
насе
гадости
правды
смотрели
ебана
смесь
ряд
трофеи
президенту
посадят
брошен
обязан
рисо
знакомая
компен
помилуи
городах
выглядеть
собачку
материал
предложения
шикарно
опыта
ебучии
пиндосы
телевизор
максима
бесподоб
очеви
подоидет
бесполезно
##phot
d0
pphot
кля
толь
ущер
юлия
##пр
##зья
##торе
попол
нар
называть
торт
донец
##тище
##тиков
отпиз
##лево
спали
##олои
маги
##бал
подле
папы
ваще
миша
мыть
перевела
молоком
саита
леони
диза
испуга
граду
любил
любила
получал
красоти
тиханов
ближаи
положить
дважды
фаль
радостью
камеру
живется
магазины
бросить
хозяиство
##roup
сдохнет
европа
защита
судьбы
лишнии
самоизоля
штрафо
наркома
курица
провокатор
трахнуть
жестоко
шутка
говна
спортс
неизвестно
позволяет
нену
описание
напоминает
дмитрии
просьба
дистанцион
издевательство
ждали
иии
уте
##сные
##рке
##ец
##плы
##хие
##вных
##день
##дена
##ap
##чена
##89
##st
покра
##роп
##ливает
##кают
прогу
##несли
пригод
##вился
##щества
живые
матра
матро
желе
пау
палец
пахнет
##чном
##зик
##зил
белье
лев
помогло
платили
голоса
##чье
оппози
песик
колени
##водят
гордиться
терро
траге
##ловна
немцы
веса
курс
мужчину
создал
смс
накор
материа
снимают
актеры
пытается
хиру
николаевна
подписы
болезнеи
плакать
фамилии
вонючии
выздоров
глупости
зарабатывать
теплые
дедушка
захотелось
кошечка
мягко
обалдеть
рекомендую
октября
поправки
единоро
конфиска
способом
вдохнов
диагноз
участок
pphotos
втор
опа
сю
учит
ягод
##эт
наки
кожа
отпи
отвер
соп
приме
##мин
##чин
роско
##ществ
жива
##чева
##вется
самолет
минуты
##рян
больница
муки
решения
регуля
детях
раскры
скри
фору
##ленное
##леннои
классе
##фици
##рованные
грамм
благород
пишется
гулять
новость
согласно
потерять
конченные
творчество
недоста
документ
чмошники
владимирович
размера
голосование
бараны
оскорбления
медицин
бывшии
картинка
построили
солнца
программы
довольны
максим
спасти
пособие
питание
отрабаты
приказ
олигархов
сомневаюсь
пакет
воору
жополиз
развития
гим
ресто
эпо
😂😂
##рты
##тке
##ющее
##из
##ad
загу
забудь
вытащи
##тилась
давал
общения
каш
##стики
##жик
##честь
меж
страницу
расписа
садо
продает
лозу
ложка
россиискии
полгода
теми
##рованныи
любимого
получали
желании
спорить
обор
корзи
губы
дыха
рота
закрыли
рецепту
отвечу
девушку
матереи
попало
собирают
##щенныи
хорошем
пропал
пенсионер
участников
штрафы
напле
штука
звери
кухне
оружи
ежедне
высказывания
киев
восхищаюсь
варенье
безнака
02
78
91
аз
бьют
ето
злые
олень
учен
чт
##сная
##вд
##be
##товои
пола
поити
##роваться
##раю
##оту
промышлен
##боли
##веро
##шишь
любые
подчи
подняли
##щина
предела
##людно
сидела
долги
инстру
консер
картина
думаите
пожар
удалить
акция
гордимся
взят
чат
заказа
пишете
обработ
автома
гено
народов
стыд
хохля
углу
золотая
ссылки
психу
грязью
отдыхает
звезда
ментов
сладкии
дружба
обещали
митинг
##кормить
выходных
изменилось
клоуны
бакла
аресто
япон
африке
дегтя
дрянь
сцена
свидетель
рукодельница
group
гран
сд
уника
храм
чоо
##ma
##жным
##днев
##мете
##ur
##😃😃
##🌷🌷
##новы
##рез
пробе
ток
тома
кака
выка
доз
##тиру
отстав
отрица
природ
марга
висе
##шало
перепи
пережить
##зываются
сквоз
бел
делаи
позд
гадость
лока
хала
семи
##ченных
желающих
всякии
украл
часы
забро
заблоки
получишь
рыло
шаш
берете
объя
животными
молот
подоз
анаст
нынче
извиняюсь
радуитесь
междуна
формы
общество
движения
царя
интернета
блоки
пенсионерам
воспитывать
шанс
евгении
копеек
аэро
мгнов
3000
гвоз
кс
мф
опубли
умы
удер
употреб
фев
🌹🌹🌹
##охран
##бля
##бря
##пят
##вшая
##зч
##ночки
##стных
##рики
всевы
дох
##тали
приходите
##кут
обло
пиво
##олов
мадам
подс
издели
станут
паци
ваф
меда
беды
оставили
гавка
россииских
##ступить
понятия
##вьем
терпи
брала
доброту
восхит
парт
892
##ловка
##альнои
началось
трогать
надеяться
охран
зависть
##возят
деревню
внук
подонок
видим
приятного
паску
ездят
зеле
озву
покупала
заработал
показал
продукт
рассмот
съем
лишнего
льго
транс
десантников
компания
пацаны
воевали
выкладывать
перебор
временем
инфек
##начально
вниз
vиsа
пионер
пфр
ежедневно
05
ае
аs
дья
истре
одет
рол
уехал
шве
шну
##ено
##ились
поте
##кала
##ковать
зах
застав
##дора
выши
домо
откли
##нечка
приехала
привлека
водки
пиар
##теров
##няются
##сова
баш
сига
речи
##хан
интел
##ствовал
сар
таре
таджи
лучших
путинои
опlипе
пель
жене
дис
рубля
чистая
##вье
брати
##совки
крест
отдала
учителеи
евре
забываите
молчать
меры
1200
слышу
пыль
берегу
любимых
погонах
миллиона
производите
набере
семьям
офиц
херню
##поте
старше
вернулся
блядина
перестали
требует
поднимать
сибир
царствопред
комплект
##lаss
давление
справедливости
выросла
распростра
переболе
познакомиться
небольшои
минуту
славян
кукуру
ошибаюсь
комсомоль
стихотворение
царствопредлагает
sr
вход
звание
пп
пеи
сбу
##рков
##боле
##ялись
##един
##нды
##67
##go
поди
набить
надолго
##стров
заправ
затя
##дования
коко
проезд
дое
откров
##сики
##бора
##числи
##чился
##шина
##чаем
спала
дека
##телем
развал
раздра
подтя
##сои
куи
миг
медаль
расста
сестры
##прово
сломать
плане
платит
умень
фига
нашими
нашлась
украли
королева
крыша
деиствии
отличные
отдал
объек
увидели
шее
просрали
толсто
читал
подож
завтрак
обеда
европу
выборах
факты
прошлого
лезет
бомбо
картошку
поганыи
пожелать
патриоти
вспоминать
процент
талантливая
восстанов
коронавируса
хуесос
плохая
субботу
отсутствие
держится
элита
юмора
неправильно
сиськи
##🇷🇺🇷🇺
чучело
ущерб
04
астра
мм
слове
свар
тен
яну
##плет
##гг
##гна
##💪💪
##vа
неправ
##дование
##льше
кови
кожи
конь
простить
вывез
выяс
отро
##таться
води
деви
бону
веж
ведра
лиз
крае
висит
стади
минус
мура
##разо
синии
туф
россииские
сделаю
здравствуи
сери
чину
понят
получаю
слаб
типо
русски
имеем
девочек
##клад
обращение
дебила
отдавать
новоро
одних
наидут
каму
июне
почта
внукам
гиs
творят
готова
небесного
продолжение
15965
волос
оказался
капитан
госду
сладкие
##♥♥♥
отказ
соболезнование
преступление
христа
сентябре
кровью
невеста
похудеть
тетя
воевать
ресурсы
нефть
жестко
журнали
график
отврат
элементар
брехня
потихо
оптими
вынужд
новосибир
шашлы
мфц
опро
сдать
##кк
##клеи
##блу
##тп
##жье
##хая
##зои
##шенька
##ээ
##гd
##87
##sc
##раты
наем
назо
##ентов
##лики
##даите
##лочка
##риев
корова
тако
выклю
отры
##ляются
соро
прики
присла
носталь
гомо
##енько
##рым
##чан
питом
живая
живых
сплет
##бали
вещеи
##дыха
##дывает
##тыс
вина
кукол
вау
##рять
##цах
стоп
##ремон
безработ
##сссс
тама
сата
садить
возника
лежа
##сель
черная
собрались
петь
педи
испа
фио
убирать
ебанько
##тельность
тратить
вкусная
убрали
шаг
геор
песок
играем
охота
считается
##стности
несмот
четко
володя
встать
стены
стоило
съез
возврат
заебал
америку
появилась
##💐💐💐
обращаитесь
донбассе
довольно
мамочки
привезли
казахстан
познакомимся
позволя
янва
кабинет
ивановна
негатив
приготовить
немножко
поимешь
интеллек
дени
днр
ив
идем
сг
трен
уку
цита
шла
шоб
##юби
##пры
##пами
##лл
##это
##гнали
##31
##ъя
##точку
подать
нары
##нился
##ковои
заро
чтоли
просыпа
точки
вызывает
могло
дои
допла
допуска
##син
обеи
##чаются
##щено
кады
спек
##жишь
стере
пустые
##дывают
##тыми
куми
инте
бегает
получите
чемо
фона
##сек
комфор
##ваясь
певица
сыгра
следова
##тельнои
терять
обоз
оборо
автомати
болеть
бабушек
счастливые
мозгами
неудоб
грехи
государству
обычная
материн
собирается
последнего
выбрать
##👏👏👏👏
непонят
сохран
капитали
наличие
старое
близкие
голубои
поддерживать
гражданство
восторге
диалог
данном
умирают
выздо
грамотно
вредно
пирог
саратов
колеса
стерилизовать
дырявыи
маразм
мессира
изобра
чеснока
гнез
свиньи
фрукты
выздоровления
геноци
анастаси
03
01
3х
62
87
вве
зме
кня
омо
уволь
фин
чья
##сите
##тс
##пти
##чением
##sh
накры
##олу
зале
##льны
коб
##ителям
вышло
дохо
##ляите
присыла
##вилась
##ебал
##сишь
##енькие
обере
живьем
##няю
##зах
разъ
подка
изначально
божи
бедо
бегать
сел
лечится
покажите
грузо
умно
умник
##енец
##неишии
колы
грам
грабить
акти
##рета
воспринима
заказы
полож
банка
словам
пидаров
играют
мозга
воля
молчит
расскажите
##ааа
выплату
григо
недоум
поговор
огороде
европы
воспитали
статьи
начнется
цивили
кремля
птиц
предложить
стояла
ненависть
краснояр
пересе
служба
причине
ключ
десяти
третьего
отношению
железнодорожника
обнару
маршрут
пристрелить
стакана
комментариях
процеду
свекровь
означает
95
id
jox
аb
ала
дв
зрения
змеи
счас
умом
шеи
##кле
##рф
##ялся
##щите
##ht
##🤦♀
##точныи
невы
##даем
зало
котика
##рева
толи
выпра
отморо
##ляр
##ляться
##няите
суча
сухо
преиму
баран
посет
сижу
детских
##зываться
##зован
вернее
остаются
##комнат
##стрелять
красива
продажу
##дарные
ложку
красная
лучшего
смотрится
работаем
плохи
##ворил
##вью
тип
получился
алтаи
надежды
рассказать
оплаты
задание
собирали
плечи
сдохли
зима
улыбка
качестве
милосер
ебучие
картины
патриот
заняться
путем
незам
ерунду
разобраться
пользоваться
глубоко
молитва
острове
бесконечно
матушка
гноиныи
христиан
консульта
красотища
joxi
84
be
входит
гно
дж
клеи
лете
нит
ол
оду
омон
пш
пьет
хрю
##рете
##пке
##ав
##дных
##уи
##🎈🎈
поча
полы
наря
несо
невер
нехуи
##ликов
##вале
##итыи
##ковыи
зашка
задумы
просим
прокура
точка
##дилась
выступа
модели
состо
сожа
прилюдно
##вишь
ворот
будите
пин
мара
суме
духом
мель
больным
столе
перепута
страдают
##зок
верните
таню
показу
полтора
дире
семена
##акова
##ительных
бесит
имеете
родителями
вопросов
гуман
целую
ебли
трево
песен
тридевятое
учится
##женная
счастливо
счастливым
подальше
зону
волна
смогут
фильме
бесплатныи
свето
примеру
занимаются
подумаите
понравились
отече
свобода
некоторым
2500
бомба
##декс
водителя
отоб
врачам
повезет
генерал
республики
кормят
почитаите
кпсс
супру
каиф
сыновеи
взаимно
террори
февра
2х
82
99
me
влюб
ира
ипоте
сlаss
уехали
эль
##жится
##плю
##нным
почет
понес
завя
заинтересо
##ришь
кожу
прот
тобою
дос
дожили
допусти
##тифика
##шено
люба
обста
мала
подки
подсти
пари
##шается
музеи
детская
детскои
переу
жизненно
красивых
правления
скоты
темно
предмет
держат
##ебись
русском
положили
бабули
надпись
днях
болта
оплачи
морковь
подоити
слышать
попала
берег
одежда
одежду
медики
степа
абха
министер
организм
политики
острова
подробно
ебучая
научиться
медицину
траву
музыку
мороз
##ешся
испыты
базар
нежность
олигархи
лекарство
одинаково
плешивыи
ответственности
ватсап
несмотря
дак
дрож
жем
ждала
рим
сжи
ушло
шпа
яв
##сныи
##шная
потя
наряд
##енту
##корм
##нау
заду
заши
##дочка
продви
выпить
##рутся
##ебели
ногах
обстоя
обслужи
пили
разы
избе
##пии
пуль
##сою
лиц
превы
##бым
больни
насрать
перехо
беде
остальным
лечения
табли
гада
служить
##дями
предки
чистить
убивают
##дент
твоему
ответит
игно
крыма
пидораса
новом
сможете
хохол
береги
сраку
маионе
девчен
высота
букет
капитал
рассматри
артисты
зеленые
территорию
реаги
дама
вороне
боялись
убииство
изменится
заплатили
трахнул
##вшихся
управлять
энергии
бросают
руководство
ценить
психоло
разорвать
уволить
распоря
бессмер
красотои
брежне
компенса
92
блу
жди
иа
ини
исс
итак
опом
пм
свал
сходить
чс
шпи
##ргу
##еп
##дд
##мб
##100
##😊😊
поехать
поведение
##лар
##ниеи
заби
заха
##кина
промы
моска
отси
прину
привле
##кум
носили
голи
##чиком
рога
рожать
обая
девя
##хоро
##ционе
##живаю
подним
ведер
чечен
кухо
курт
бары
мешок
переити
##хани
инет
летнии
останавли
возро
поможем
комби
голоду
диви
предвар
2014
операцию
совпа
доброта
посмотрел
вкусное
двадцать
весна
наидешь
##зель
маленьких
узнали
июнь
морде
уметь
проститу
марта
ездила
устал
воспитания
девчата
строили
отличном
способен
обещают
##ууу
горячеи
вакцину
доказать
кабачки
поселке
юбилеи
федерации
гондон
мошенники
размере
обьяс
озеро
кладбище
вверх
потихоньку
##scr
49
пнев
рвать
сза
щенок
ярос
##юю
##чак
##61
##57
##щена
##стря
##акон
пролет
провести
выез
мочи
всеравно
дочень
ножки
гори
##мос
##стику
разницы
избира
тест
лицем
##сками
страха
сал
хуета
имму
плачу
черного
##циях
интересные
##способ
помнят
##тном
##стых
полис
забрал
##ительное
успели
открывать
бери
попроша
поддержать
вопросам
оплату
шизо
попали
талантище
сектор
поговорить
тупое
душевно
потеряла
достоиныи
отправили
😂😂😂😂
пальцы
дерьма
территория
полезно
даннои
приглашаю
публику
сорта
зверь
окружа
школах
здание
соответственно
откроите
позитив
запретить
события
коллектив
библиоте
вырастет
вдул
волгоград
зелень
поздравить
кавказ
середине
беззащит
технологии
пообщаемся
наплевать
выздоравли
73
зюга
инои
ошеи
тне
уны
ужин
фсб
##кл
##кса
##хами
##хнут
##вите
##змом
##эта
##гнал
##82
поры
пости
##рота
##рации
нама
нева
негде
##нину
##лона
##лочку
забор
коо
кои
кошку
мощь
##тины
отвали
ход
роза
кален
дежу
разби
##биться
стуль
подста
сунду
##пала
бабо
перекры
перевели
##зировать
здоровьем
верь
контеи
сложи
покажет
##инки
жару
##фиц
пехота
власов
работаете
дина
дипло
рубль
иску
кис
аргу
ебальник
домах
круче
ебнутая
согласи
аллер
открыто
##ииии
согласны
поддержки
победу
боля
обидеть
строят
спасет
собираюсь
беречь
недорого
неповто
решить
породы
факту
завора
снимает
низко
мечтать
участники
ставлю
митингу
переса
единственное
христо
четвертовать
яицо
незабы
достижения
обезьяна
троих
кормили
стандар
склады
автомобиль
пиздюлеи
планеты
компьютер
prntscr
зафиксирован
ани
аку
брод
влез
сч
срать
сдесь
уезжа
шля
##кер
##временно
##дении
##чению
##уме
##зму
нагру
затра
прохла
выпе
выстре
выбер
##руете
отче
прице
##шество
##няки
##зацию
челя
##щика
мурав
располо
котов
лечат
гал
черта
голодныи
фотогра
владе
##жуха
дима
вообщем
исправить
чистои
##гель
##ждают
сыночка
поигра
каждые
партия
травы
##ходишь
понимание
правильное
деиствует
настоящего
денежки
скорость
наиду
увидите
камни
обязаны
женщинам
лесо
внучка
самоу
последнеи
собаке
##щены
любимым
встречу
записаться
абрико
судьбу
возьмут
результаты
заметили
обучение
подруги
истина
старики
программе
ильин
максимум
пацан
##летел
методи
карманы
устроили
задержа
находиться
бюджета
товары
святые
монтаж
картинку
богатство
взрыв
буржу
гитлер
наслед
армада
самостоятельно
упраж
неповтори
ugo
збо
леи
рэ
упор
##есть
##изм
##аны
##дс
##od
##мл
##☕☕
##тье
помер
поехали
##новили
наби
насту
настя
##литься
##итет
##нас
##довали
кора
прочитать
выбирать
довели
##тир
прими
прихва
##маи
##шечка
##стают
кало
##жина
ствол
##ровую
ликви
лицом
сталки
папе
думы
ужели
реш
столь
расчет
сева
человеческого
останутся
конкурен
продаются
случится
работаи
парти
губ
коровы
##приз
##альное
крышу
будущего
алкого
отличается
дерева
объект
президенты
глуби
личности
сначало
выбрасы
ныне
##греб
единои
пенсионного
заслужил
поддерживает
растреливать
картофель
пятницу
обещания
ангела
регистра
утопить
объяснить
баллы
присмот
службу
программа
программу
поступать
сердцах
зарабатывают
представляете
лошади
простым
порядка
проходили
отзывы
кровати
уберите
финансо
дополн
велосипед
системы
содержание
появится
котята
пророка
степени
егэ
санатории
неадек
отклик
ада
ации
бам
зрите
кин
лот
лбу
огу
##тру
##тками
##юще
##вке
##нс
##нков
##🤔🤔
##😥😥
##рочки
##рополь
несу
несешь
##ваетесь
##гото
зае
зашла
пров
прожил
прошед
##дись
моде
дозво
##нешься
прива
прида
##вились
##ебать
вось
военные
##еньше
будит
общение
##чане
деф
##телю
##гин
разма
измер
божь
чепу
##пах
тера
лилия
виру
кусты
думу
сильные
знамен
перекре
##хает
скрин
летит
вернули
##делать
возник
концов
фоне
платно
полную
##тельство
думаи
правди
серви
гордо
цело
огне
начальник
красава
объеди
молчат
москви
зависти
завидую
зависимо
торгу
слышно
земляки
спасать
хлебу
гниду
произво
дорогое
выглядишь
посох
заработали
птица
возьмет
налог
доверия
василии
преступления
слышали
указ
выкинуть
захотел
u9b079b
привезти
культур
худож
прибал
выходнои
покоя
письмо
эффект
сфот
переза
эпидем
мерзость
81
u6
ано
ел
ере
зен
плин
укры
##жную
##вб
##шни
##🤗🤗
поют
пофиг
нара
##ворот
зашел
##дома
отцу
согре
прио
##вив
##сибо
рожают
родного
##части
каро
карь
капли
##циони
развит
изменя
##сос
боги
очнитесь
мыло
##нью
перело
передер
##хаи
распла
скло
оставил
ложи
ловить
красные
печь
правну
##держа
предлагает
поменьше
следить
цените
##ющими
негодя
осно
автомат
смеяться
##шиеся
целу
святое
болеют
технику
тролли
мамаша
маленькои
сердцу
##ванныи
москвич
неблаго
завидовать
звонили
хозяину
умеешь
золота
запада
отправлять
работои
продолжать
правительству
федо
страшного
продажных
готовлю
совершен
спрашивать
заявку
краинеи
систему
итог
приезжаи
бесплатная
крупные
инвалид
мировои
зоопа
картинке
халяву
обнулены
требования
хруще
килограм
появляется
конкурс
гараж
мусульма
спортсмен
спектак
51
74
93
sh
vk
ао
вт
долои
зон
мнению
нт
одеть
опуска
сь
сгу
тр
уша
урал
уклады
чь
эска
##рная
##ед
##альных
##ld
##нги
##шень
##товыи
##торам
поре
##рожно
нави
наступ
неп
немо
##ливают
##ковых
##вому
заходите
заменить
кобы
прощать
доидет
отку
отцы
##леров
приити
гон
##шев
общего
обменя
каша
жиды
##жах
пустои
суста
##быи
стаж
дуры
сили
режима
##хала
рассла
##ковскии
белых
бегут
человеке
верую
конья
турец
тащи
красивее
##рьевна
собер
голода
тварям
##нюк
##циями
##хии
##рования
хваста
##геть
понятие
актуа
##ственную
оборот
имели
корни
корень
кормит
8913
осени
рыбы
родную
гуляет
положение
связать
бабулечка
месяце
играл
##черк
именем
белои
относятся
почте
читает
грибов
несут
собакои
ездил
рабов
единая
потре
свободы
попробуем
неожи
сладкая
печаль
стараются
продуктов
космет
ожидать
позорь
вячес
приобрет
незнако
##ркут
активен
энерг
послал
иуда
производства
выставляют
кастрюле
генна
массаж
выблядки
долларов
размно
кусочек
контракт
кипятком
вырвать
турнир
анекдот
сигарет
сзади
оза
орать
ути
умо
упал
чбо
юра
ярко
♥♥♥
##бя
##яли
##ата
##зз
##фло
##👍🏻
почитать
нере
недоб
##калы
##нилась
##коп
зал
прогре
выла
выдели
выезд
дошло
##тине
отруб
##нея
##ебя
нов
нови
новым
пило
девать
##няитесь
##бись
стру
струк
подмо
изготов
тепли
вида
мишу
мур
страдает
саи
садик
##краси
##вность
пидору
##ленном
собрали
##форт
лапочка
кисто
##довлет
помет
желанию
##тельности
обору
уважуха
банке
уроки
успех
вдоль
отдают
волк
малышка
увидим
огромные
резать
петру
толк
читаи
бедных
уголь
выражение
чувствую
##щенко
скину
кримина
братьев
сдали
подумаи
тяжелая
девчу
бредя
погибли
собачки
покупают
страшныи
мальчишки
##етах
завода
готовят
вспомнила
старого
движение
лишние
забота
перемен
заболевания
героям
умирает
молиться
отсосать
публично
бутыль
карантина
культуры
зажрались
периоди
лысы
распрода
жополизы
копия
обнагле
температура
строительство
громко
мусульман
правельно
едросов
оформить
пресвя
отставку
почаще
шизоф
98
боло
впро
джи
злои
моль
осты
пако
уло
учиты
юности
##av
##нди
##нта
поту
##рочку
наго
нахо
накол
настои
##ститут
##каешь
##дес
выжить
момента
дочки
##ляете
##куро
##сило
##нушка
ров
##зав
##бают
сума
судите
очков
чеч
руке
тео
видом
куста
кукла
паз
варить
нетер
реал
расч
ингре
салом
##мым
верим
##сев
пидоро
показывали
##ленным
##щали
одновременно
служили
##фия
полк
сделаи
скорб
умных
исце
грана
масо
##ворили
брау
русскому
врага
имея
893
священ
урок
машинка
надеемся
долбоеби
тявка
зараза
улицам
узнал
глупая
кама
обид
закрыта
закрыты
читали
##ственном
морскои
умеете
недоно
##❤❤❤❤
подумал
##жопыи
единицы
продажныи
посове
придумают
владимировна
офице
##пустила
канали
барнау
выигры
догово
##еее
погибших
ворота
героя
засунь
разогнать
чудесныи
домашнии
выписы
солдаты
редкость
приходилось
божья
ельцина
обратитесь
пожизнен
сергея
таблетки
схем
начиная
финанси
маршру
космос
доверяю
америкосы
мотоци
сперва
эффектив
богородица
перевелись
дизаин
пригодится
активи
жемчу
незабываем
плинту
ингреди
96
бь
длина
жд
зрели
плет
фрон
ягода
##св
##ял
##ушки
##💖💖
##💩💩
нае
намер
##ливали
##стен
##стрен
##вах
##олен
##емая
заса
коор
топо
выгнать
дожить
##тишь
##несла
приму
привести
##мил
##чились
ходите
ходим
родное
кал
мани
##бии
подруг
##пин
##челове
##вету
саму
куски
стола
перего
страница
лежат
карте
классное
служит
правит
сыном
рожденья
аккура
приветствую
брал
поливать
проигра
8950
крос
крово
крутои
настоящим
билеты
богаты
богатые
учре
здоровыи
наидете
глупыи
случаев
каме
завист
бросил
стыда
рецепте
назвал
холодно
продолжают
закопать
140
кгб
радуется
ремонта
показала
##ционер
доставкои
турции
сбере
хранитель
экономику
причины
довольна
профессии
медведь
здания
##👍👍👍👍👍👍👍👍
выложить
послать
предательство
откроют
звучит
захочет
производство
событии
троллеи
хитро
соблюдать
адеква
фигура
варианты
претензии
француз
ангелочек
нанесен
регулярно
сквозь
ари
бьет
вклады
дю
джу
ела
жри
мн
орен
рс
сюр
трави
уве
узи
усили
шум
щу
##ющего
##пенно
##вни
##дца
##дную
##чами
##ir
##щами
##kr
полага
нехва
невест
##вани
##ваны
##ковая
##лово
##ловои
загра
##льку
##льники
тож
како
моно
##тав
##тает
##тала
##вия
##чилась
родов
капель
жиль
манда
манья
разбить
изби
##пар
лиж
##тывает
краю
куса
кучка
пал
посело
насме
перено
##пустить
рассу
##ствовали
делам
сада
перен
оставаться
лечиться
тата
планете
продавали
##чук
путине
##чьи
россииского
полков
кида
предска
предсе
акку
корре
891
вопроса
вопросом
групп
ближ
началась
крылья
советская
спину
увидишь
предан
##ведении
рассказывать
сообщении
свеже
90х
позволить
собираются
метра
метлои
##итых
названия
создали
руково
поверить
заводе
заводов
капитализм
старых
уебки
городов
лезть
старшии
подарите
обещал
милости
семеиного
восток
ефремо
научились
попка
попку
научитесь
украинцы
дамы
вонючие
вонючая
чужую
атака
чудесные
заплатить
закончилось
повторить
добавлять
контроль
принято
нажрутся
специалисты
лапшу
осуществ
искали
руководитель
командир
брига
анализ
росгвардия
цифры
километ
флот
телевизору
успокоитесь
фраза
отменял
дармоедов
пистолет
анастасия
сlаssис
севасто
09
глю
еда
иркут
маки
моти
ош
пь
снов
стель
ушед
фру
хим
чебу
эгои
##кв
##рные
##жкои
##дня
##зак
##ka
##bа
##😱😱
покое
##ровыи
##етки
##стся
##кана
прочие
проработ
прочее
выко
вывести
##миться
гостеи
рожала
общ
обре
спут
##телям
##зание
развед
##бия
##совест
##вете
руби
куба
ставили
##густа
посколь
стома
работники
сели
сады
##цева
танки
голодные
лом
сделаешь
народные
##летит
##ченная
##ственным
имела
898
поздравление
ебла
били
порвать
маленькое
функ
стиль
бедня
растение
курят
комментариев
спасает
последствия
создавать
средняя
одежды
проводить
пьянь
сроки
оказалась
пропала
госпита
доставки
обществе
заметила
политику
сверх
уверены
стараюсь
спрашивают
заявления
падлу
слушаите
отпуске
андре
бутылку
честные
санита
питания
бизне
фантазии
коммунисты
портрет
казахстане
магнит
жалею
запомни
безмозглая
шакал
шакалы
избавиться
концерт
капуста
помоику
смертную
предприятия
притя
анатолии
наступающим
ткань
категории
педераст
промол
рестора
истреб
стерели
предварительно
челябин
поселок
110
77
gо
ss
асс
апель
вп
врет
грыз
дольше
житель
итого
мебели
оа
снес
угла
##бч
##блю
##тных
##дре
##дков
##дным
##чени
##зв
##эн
##vе
##😅😅
начис
##вам
##вающии
##каре
##восто
##емыи
зару
косо
прочь
просил
выве
дово
отменили
дарю
прию
##сина
##дует
люда
обси
##чаешь
дефиц
##тером
##хова
##бат
##пия
вел
веке
##пари
##щины
препара
##чности
бага
бабка
мелко
посвя
решают
меняю
страте
получения
человечески
верто
оставь
остановить
тало
тату
платим
##ниях
##щаются
жарен
комфорт
красную
полные
##нема
правят
грусти
скорую
##фото
##держи
##глазы
фили
пендо
поидем
целая
открыты
деревьев
##иии
домам
выполнять
##зели
глупые
шестер
личного
личность
достал
простран
придурков
##волен
несете
сдается
нахрена
нахлеб
аппарат
учатся
команды
отличного
результате
шикарные
зеленая
яблок
спрашивает
василье
фотография
объяснять
объявлении
умирать
наркоман
бабла
зарабатывает
беспокои
смир
быстреи
моральныи
великолепно
смены
товара
богатства
упокои
##интерес
буквально
зареги
вобще
спросите
чемпион
батюшка
youtube
ютубе
принцесса
ностальгия
поскольку
66
аня
ааа
воле
гры
дно
злая
иl
иско
кы
мла
плы
рако
сье
эл
😡😡😡
##ml
##ону
##дря
##дцы
##нена
##гнуть
##ki
##🤬🤬
поехала
нала
нация
##вадно
заим
заново
##довал
тош
выгод
##руите
даете
призыва
принял
##нув
##нуем
росто
##гаю
развле
подкре
извер
сухои
вероятно
вину
пали
мишка
мыши
больная
перевести
закру
законе
бежит
седь
переби
возда
леч
констан
чума
помогла
показ
продажи
многовато
интервью
##фига
никчем
предков
убивает
##ченыи
мужскои
партию
трактор
рыжии
пампер
полотен
##вляют
словах
крыс
успела
открыл
трес
##везли
##долюби
великого
счастливыи
подарили
легких
спинои
побед
расскажи
меру
обычные
тормоз
козлов
готовила
выбрали
##нутых
уничтожили
погоду
чудови
неповадно
пьян
должности
хорошему
белорусов
неделе
исполнения
министр
спросила
заметки
голосовали
голосования
возвращается
подарков
яблоко
смотрим
батьку
единственная
бывших
патриар
благодарим
современные
выложил
услышать
остановки
постепенно
воевал
оставлять
мелкие
контакты
логика
сергеевна
хлоп
хорошенькии
микрораи
вариантов
окончательно
стабильность
иисуса
принесет
пункт
сапоги
шкуру
двигатель
альянс
васильевна
гвардеи
агресси
ваибер
армении
джинсы
неправда
76
bе
wh
ази
вступ
дез
ищем
мнении
ооб
ссо
ценности
чмы
эфи
##ип
##дита
##джан
##шков
##голя
##ri
##🏻♀
##😜😜
покор
зава
забе
коре
коже
коня
кости
##дено
проста
пропо
вытя
выучи
##тались
##тался
дачи
водку
нихуя
катя
канику
пиа
##гипе
разбо
##ровку
пускать
бон
судеб
##пад
рукам
рулит
##щица
листь
личныи
лилии
превос
вир
куры
пасту
##пев
реп
##итан
##вном
ташк
гады
##немся
харь
потомки
##деры
работаите
пиздит
счастьем
##дях
кирил
предна
масшта
арх
##тности
цент
желает
тракто
господу
смелыи
прекрасных
прекраснои
живое
бабушку
пидорам
богатыи
учитесь
подарить
проблему
госуслу
народы
пидараса
бросили
оплатить
подоро
умею
свежии
соседка
задача
рис
выбрал
вырастить
хлебом
##щенные
гниды
##190
сволочеи
устали
набрать
ненадо
купите
встал
снимал
книг
голуби
заметил
сверд
##детесь
опытом
защищают
ставит
##ненькие
столк
##уууу
отопление
попут
основная
пересы
издеваются
воровство
патриоты
бутылки
берутся
дедушки
острову
сказке
##😍😍😍
приеду
жалеть
##4136s
сетях
колбасу
цветочки
##сорти
осторожно
волнует
лагеря
бандиты
коллеги
недалеко
публикации
##app
u9b079b4136s
впрочем
перенес
бр
гас
гении
дже
ехали
ящи
##сна
##ог
##тт
##жер
##жок
##ab
##нак
##шш
##гка
##ночек
нежныи
##лист
##доме
кося
прог
проходят
прописа
дове
##тику
##тирова
отцов
приб
приле
примен
военно
##сих
гостях
робот
##луста
кадр
живым
дель
##няла
##заи
раздви
пузы
боком
веков
лиф
##дному
стани
пане
##сковать
меняет
инструк
склад
бегают
сено
##вности
импера
собрала
локо
##тельств
##форма
пиздят
пожаловать
интересы
плодо
помнишь
арка
рождении
спорю
всякое
восполь
проидут
игрок
расстреляли
обрабаты
мужиком
целью
вашими
настоящему
совету
советских
играли
мирного
узнаю
победить
закрыто
закрывать
сумас
подонки
видио
тормо
попада
вниматель
собирает
идиотизм
придурка
создание
среднеи
выглядят
медиков
фашизм
команде
клип
оказались
поступают
голубые
качественно
повышение
истину
гандоны
герою
тюрьмы
германия
##телями
убиицы
убииства
поставлю
провокаторы
памятники
теплыи
восстановить
захотели
засран
соответствует
собственнои
справки
##😘😘😘
впечатляет
арбузы
полицаев
упако
кпрф
горбачев
##and
столовои
фарту
оперх
поимал
журна
виновен
препода
появляются
иисус
заставляет
подвиг
америкосов
выразить
перчатки
монасты
иллю
жириновскии
69
72
встав
ввести
внача
ею
ждешь
звали
кб
ое
опусти
тп
уль
##dа
##ср
##сен
##еся
##пкои
##драть
##денно
##lо
##нкои
##моло
##чны
##товые
пони
подох
попута
похва
##рочно
нафиг
##ковое
##емь
заце
##рился
##льд
ког
##деся
##делы
всеоб
отменить
прии
##женое
##вики
носят
##енькая
##стал
кати
делу
##няи
разры
##жими
подме
путя
личи
лишить
преоб
кура
пахать
патро
валю
барах
##енях
реки
значения
##теры
страницы
##новна
пери
летят
верныи
худ
тунея
голов
россииская
пели
##фов
владель
трубку
бесто
народныи
слегка
актера
имеешь
осен
кругу
родились
главная
##шенные
алена
забывать
узнаешь
долбоеба
молда
постанов
болгар
просите
самовы
позвони
учись
сливо
идиотка
гражданин
кризи
компот
среднем
устала
подобного
##словно
правосу
извини
правительстве
фео
владимира
парад
заслуги
##головыи
заметку
прожила
минск
алкаша
батьки
фонтан
пускают
отсоси
рекламу
хранить
домашние
сорти
серега
##чонок
нынешнеи
республик
представьте
национальности
опоз
хозяевам
обратите
черепа
кредиты
улицах
уголок
вкусом
виноград
розовыи
заживо
нуждается
миллиарды
смешного
мудрость
призыв
лимона
реакция
альбоме
##оvас
прихво
академ
коментарии
баланс
градусов
конфискациеи
обеих
эскадра
63
68
врут
доль
едим
зона
ир
ие
оф
оран
тк
тень
удовлет
ядер
##бже
##ьь
##пя
##плу
##дэ
##дна
##мас
накло
##лиз
##ваешься
##кат
зала
зачет
##доби
ковы
##ответ
такова
##дитов
сопер
водка
ворует
носила
##стает
росли
##мости
кала
кале
пик
##гат
##гате
деко
мае
разло
папои
парик
мешки
мешало
стоил
раску
сканда
деньгах
перца
лежала
концу
##щал
жаба
комменты
служат
полном
опгипе
серыи
дирек
фило
предста
чистые
2018
получала
держали
горчи
обоити
рыж
понимаем
заказывать
мужику
##росит
святая
нормальным
трез
великие
друзьях
наидите
легкии
спирт
тварина
почтои
внука
телефоне
равноду
отвечаю
свечи
сосешь
торгов
позвоню
спасение
творите
##фера
экзам
документов
одея
ооочень
чбб
стек
высокии
##💋💋💋💋
накажет
местами
судьи
спросил
налогов
ассорти
растрел
голосовал
отсасы
передачи
реале
реальные
баллов
заберите
экономика
пляже
провокации
провокация
танцы
встретиться
млрд
невероятно
##грыз
доказывать
автобусе
пиздуи
##ats
побывать
литровую
рекоменда
спустя
солнечныи
разбираться
вкусу
узбек
заявил
блюдо
отстаи
сплошнои
гитлера
демократия
окончания
дегене
принадлежит
десятки
артем
балкон
прозра
##bег
выродки
чубаис
кадры
атаку
петербург
заодно
бассеин
международ
бонусы
геноцид
зашкаливает
инициа
пневмо
иммунит
развитие
неожида
аккуратно
вначале
67
st
алеи
аss
брита
вво
влю
взо
гы
днев
дтп
ехал
кер
одар
питу
рб
рту
уход
устав
##бет
##бать
##ьер
##ьев
##жы
##ины
##ился
##ане
##атр
##ny
##ag
##чт
##чника
##зке
##ew
##re
##736s
нано
нено
##лине
заты
кокт
чтож
проби
проехать
выезжа
дочку
##руем
дача
дачу
прив
прижи
##мара
воити
##рын
##есе
хомя
пил
пила
писю
разная
развала
##равится
подни
изы
борода
сур
сущ
ведитесь
чех
дубин
##рями
##пее
сидим
река
##0000
значить
простому
##асибо
распа
##зила
бег
белом
лед
левои
лечили
галя
красивым
лучшим
пидорок
чернои
лохов
пела
скорои
лаво
трубы
колесо
##бери
благодать
##стым
##ворим
типи
девочке
парнеи
посмотрели
смеха
смешите
полоса
всюду
успеха
дальнии
счастливое
источник
наидутся
маленького
имена
белого
увидит
петр
бросила
расскажу
суммы
морков
##ческими
берега
продолжаи
набрали
тяжелыи
редак
достоины
стул
идею
заслужили
бчб
огурчики
лезь
артистов
отдыхают
поляки
картошка
звездо
сравнить
сладко
дружбы
сомнения
защищает
пальцем
злости
регионе
воздуха
десантник
бывшего
разочарова
мясоруб
причин
##b0736s
реклами
мамочке
товарища
развалил
устраивать
кошелек
u9b079b0736s
устроить
адвоката
энергию
наблюдать
тетра
позитива
мелочь
сомневался
кольцо
законам
жертва
скореишего
пяте
##ыыыы
экран
пострада
виктория
бульба
составе
шкаф
щенков
поцелуи
оригинально
транспорте
заканчивается
охренеть
израиль
тупых
безмозглые
фальши
баклажа
всевышнии
януко
сериал
преимушество
обстоятельства
зарегистри
59
bас
аа
ален
брен
брыз
литера
мит
оска
смени
фри
эр
##жам
##ине
##ls
##здрав
##шлись
##цкая
##💥💥
пови
побли
наха
называет
##ватся
##вающих
##году
##нировать
##лому
забить
коменты
проез
прочих
##дило
догада
отло
отдела
дарит
приклю
ноут
новень
обсле
жилья
##жность
маша
маник
##гивает
разду
раздели
##банк
стена
подстав
##жаются
##питься
##льному
##дыи
течет
лицу
прекло
старень
павел
вася
валь
бац
баня
мил
силои
рекор
##асить
расса
институ
сеть
перет
летнего
лест
тух
##шом
##бели
главы
педри
сертифика
женского
пиздишь
предполо
##ительным
коленях
граб
правилам
чист
масле
сынов
светлыи
светлое
всякого
ответы
получилась
1991
закаты
заказывала
шабло
прекрасен
корону
цепь
##прислать
бир
цвету
новому
новостях
здоровым
зоны
овча
белое
сторонои
передви
резко
квартир
петров
##ственность
отвечают
свекрови
слышит
америки
приятные
понты
позорная
создания
скинь
затолка
волон
свободно
збб
поверх
выборами
поступить
поступил
заслуживает
##ционныи
турцию
казалось
поддерживают
артиллер
ограбить
мента
вернулись
500р
воздухе
научись
матема
помогали
знакомыи
условии
поставят
людми
отсохли
рекламы
бесплатные
изменения
закончились
хамство
четверг
боец
##lап
##летела
нелюдь
наблюда
натуральныи
выросло
предостав
комнаты
комнату
обезьяны
одинаковые
приносит
пожалеете
аптеке
маразма
подрост
поликлинике
подключить
трамваи
серебря
рождаются
вырастут
диване
кормушки
отпиздить
леонид
хирур
вторник
бомбовыи
туфли
подстилка
девченки
христос
кисточка
лечеб
архите
450
64
ts
ежем
жрут
звания
лже
мот
ржа
сры
сги
фэ
фле
шев
юность
🇷🇺
##км
##кту
##жны
##юре
##пл
##пно
##хин
##аг
##ak
##нo
##ev
##ib
##фан
##эс
##товая
##нову
наст
натуре
##енку
нечто
неравно
##лович
##рились
проли
прояв
просили
прокуро
точь
выш
вызов
выдви
додума
докто
домом
##тием
##тировали
отб
открои
##лес
соска
сочета
прибе
##ебали
военных
##бочки
##шева
ром
роста
обво
##чаете
##еза
мах
подер
##сагd
##жались
пап
пало
ваз
поспе
решает
знаи
значение
детского
расцвет
беги
саб
летать
остатки
лепе
##пром
##планет
кладу
плачут
гага
показыва
##жден
лото
любитель
скорая
серии
дибил
колю
правил
любимую
чище
рождение
поимете
посмотрю
понимания
прекрасны
##шенныи
рядо
будучи
добавила
праздники
песо
отдадут
наиди
сможешь
весьма
потеряв
июн
ублюдо
##140
##делки
читают
мяс
равнодуш
стрель
выплатили
растя
идиота
##380
скидки
встречала
##цова
одевать
дорогах
среднии
статье
собачь
поверь
реальность
местныи
достоиные
угомо
рассчиты
херня
грязные
оскор
поворот
ненавидят
участке
вокза
вокзал
чистого
старается
доверие
подпись
спрашиваю
водители
говном
советов
дяди
фотка
маидана
##навливать
крупныи
ребятам
американцы
кухни
армяне
наказания
оправды
захожу
северныи
конфет
нищеб
питере
хабаровчан
понедельника
славяне
психологи
статистика
итс
дальнеишем
комнатную
баталь
паспорта
гениально
возможен
дибилы
модераторы
олимпиа
ушлепок
рюк
договоримся
сочувствую
далбаеб
котеика
независимо
добровольно
пельмени
денис
выздоравливаи
божьеи
москвичи
обнаглели
плинтуса
прихвост
072
апо
жителям
квест
пo
снял
уде
уез
уты
убы
уходи
уходить
элит
яму
##ква
##рв
##рта
##юм
##мп
##шится
##eт
##eb
##ec
##эк
##120
##🤮🤮
##топ
##тово
погла
попра
##роси
набо
налево
##лика
##гон
##вот
##вода
заходить
##льп
##льнее
коно
провод
проходить
выско
може
доволен
отъ
отремон
##леп
дается
состра
соску
##сив
ном
носки
носом
родни
родом
##мова
пива
спин
разжи
##почку
##писи
##паи
ставь
##тус
бат
баль
##рази
син
рефор
##будет
##бурге
бездар
инжен
луко
сквер
сесть
первыми
перспе
возбу
возгла
конди
чурка
##сец
красивую
продавец
##щаю
которыми
коммент
лохи
полет
##тельных
умереть
##енек
##рованная
плот
##пыт
##пых
светит
##добныи
корпу
##нительно
творог
осло
банда
свято
деистви
пидарок
отличие
открываются
праздника
богатая
богатых
тротуа
цветами
забываем
великую
счастливого
попросили
##960
узнает
спиз
проснулся
читаешь
морды
девушек
спасли
козлина
собираем
творит
знакомо
мужчине
никакие
огорода
сраныи
провоци
побере
несколь
аппара
орден
ордена
стоишь
кеме
пришлите
уебков
приговор
меню
сравнению
ставрополь
##рублеи
восторг
алкаши
требуют
реальныи
дрочи
процвет
экономики
атмос
сохранила
омск
хуеплет
яиц
выродок
являются
боевое
шутки
эксплу
остановка
##вшиися
##🌹🌹🌹🌹🌹🌹🌹🌹
навальныи
защитники
отказался
выхода
комната
##шуюся
пообщаться
поезда
доказательства
молитвы
высказывание
схему
выблядок
жидовская
юмором
определить
истери
прощаи
апреля
классика
озера
брюки
внизу
осиновыи
##хлоп
санкт
извращен
фирмы
намордни
немало
благоустрои
азербаиджан
амур
штрафовать
трагедия
восхитительно
прислали
иссле
неважно
перезагру
вти
вкалы
жрет
зоб
лд
мтс
рта
схо
ув
уче
укол
уехала
хлам
шои
юрьевна
яд
##птом
##шена
##гл
##81
##цкого
##🙏🏻
##us
пожить
поправи
надя
нег
нежные
##ливых
##ваемся
запуска
заголо
провели
выпен
доходы
##тирует
оты
отстои
##нено
даю
призи
##виков
вож
воли
воняет
##сика
##шись
хор
рожает
обб
кату
спон
матом
##вывать
развра
развлека
##пидо
суха
надоел
русо
лимит
##оидет
куб
кул
купаться
пары
дуби
бах
##шара
##ряк
мука
музе
##часа
меняют
переработ
безда
закла
получ
##кратно
хуем
турки
табу
гало
##товки
красного
полете
##поля
##стояние
исправи
колена
любимое
убира
ебалу
##тельное
доброты
поискать
обозна
трассе
короб
ряжен
деиствовать
открыла
открытие
тридцать
троль
множество
легкои
молчу
списке
камеры
камера
почту
обязанности
государстве
лесом
городскои
достать
простит
соседям
растения
приятная
царствия
##790
позорные
холоднои
продолжает
огор
законов
укре
нормальнои
##780
##ющиеся
существуют
страшнее
##правед
поступили
вмф
вставить
вставаи
площадки
офигеть
исполнении
снимали
организо
заработа
спросили
##ницам
рассвет
эконом
##ненькая
количества
перестаньте
поганые
требуются
оскорбление
научили
##♥♥♥♥
объясните
охуел
сосут
основнои
появилось
морози
картину
германию
боицов
глядишь
ебанутых
замечательное
встретить
встретимся
алименты
##надцать
жестокость
нынешние
соцсет
ошиблась
говне
постели
киноте
добавлю
ролики
божье
франции
ресурсов
искала
выбросить
прививки
поимали
пиздоболы
экрана
евгения
поликлиники
присоединяюсь
анатоль
едрос
племян
относиться
алкоголь
сковород
расстояние
ответьте
соору
куклы
дегтярев
января
зависимости
озабо
зрелище
тошнит
филосо
##atsapp
коктеи
сыновья
атом
бру
ище
ржу
сном
толе
уа
чле
щенка
💐💐💐
😘😘😘
##бес
##жов
##доле
##ac
##уа
##шер
##gе
##gи
##🤷♀
##👌👌
поум
наку
наса
напе
находят
козы
пропор
##аса
торо
##дилось
выставить
отрав
##леба
даа
вонь
##бола
##нусь
нищен
любых
пище
##гается
разбе
разницу
куби
##шались
месту
мешают
большими
муса
детка
саня
леха
кончится
продажа
##ленную
собчак
голои
хари
серь
женская
диск
счастью
##летия
правои
##тивныи
гордится
светлого
поиск
поидешь
господин
положите
целом
целыми
говорим
уроду
техники
био
машинки
весом
фана
народное
предал
личном
телефоны
польза
риск
развелось
чувствовать
рабочем
крепко
тысячу
погоны
кричит
кричать
кричат
скульп
установить
записы
сдам
талантливо
##760
уважают
радуися
пьяная
покупаю
стену
стенку
организма
достоиную
судьбе
вспомнил
отправил
барха
городом
снимок
награды
поганая
золотое
поменяли
взглядом
игроки
##рованных
мороженое
заберем
справедли
солидар
прочитал
боишься
причину
бесплатное
снег
афга
социальнои
беспоко
школьные
кармана
ошибку
мыслеи
ногти
глотку
звук
отказалась
задуматься
мелкии
пандемия
опери
загружается
равных
заливаю
арома
сыночек
свадьбы
отваром
березо
обьяв
имущество
подъезде
настаи
приготовления
экспери
фабрики
вытаски
социализм
кузне
концерты
забудьте
евреев
тренер
отрубать
пресвятая
макия
сумасшед
директора
аван
вбо
ет
ждал
звать
иs
ищи
крав
мете
пж
пена
творить
уютно
шить
швеи
ямы
##тятся
##пением
##oo
##ниту
##чам
##зит
##🙈🙈
##ночку
нари
называются
##стрем
##вана
##вочка
коф
ковер
прое
проезжа
простая
бывало
##дика
выписа
моста
дога
отря
отзов
##ляции
##талки
соеди
сослужи
сопрово
прико
##вие
гоп
##шечки
##нулось
##чиками
родо
обнули
жира
##заны
##стическая
разба
разгра
развя
извен
измель
рубеж
листо
лидия
през
вирусом
важнее
базы
башки
батя
##ьян
медо
поспо
безраз
работников
бель
делами
сестрен
оставила
хую
клан
планы
##дних
##тельным
большее
педик
лат
##👍👍👍👍👍
женские
дикта
трудолюби
границе
чили
204
рождением
акка
брако
всякая
обороны
прекратите
8924
убере
маловато
мужикам
##вляет
целовать
гео
гель
праздно
##шаться
красату
трибу
надежду
##женным
подала
неее
животного
постановка
малыши
малышеи
увижу
шеп
дырки
сумки
счету
##ter
вырастила
назвали
названием
мужчинои
160
##160
15966
15963
начнем
участвую
игрушка
игрушку
реальности
высокие
кремль
результата
показалось
канале
рассчита
удобства
голубо
пытался
пыталась
ненависти
колон
оказаться
пальмо
регион
регионы
половины
иванович
лягу
службе
построики
сентябрь
приезжает
поставьте
фотку
бесплатнои
талантливые
выкинули
ебанулись
большинстве
честныи
конституция
третья
пацанов
похер
отношениях
##яяяя
соловьев
побывала
моральные
##сюду
мелочи
кпп
конфеты
неизвест
московская
смену
плешивого
завидуите
завидуют
училище
пополам
осторож
сплошная
скольки
ведущии
заставляют
альянса
используют
михаиловна
ветеранов
направо
тарифы
неприятно
шампан
ноября
бездомных
ночам
безобразие
самоизоляции
оружия
автоматически
лицемер
огурец
посовето
младен
whatsapp
шоигу
130
in
ая
аля
гб
еги
ешь
икра
китая
лут
раси
сру
сду
свы
шок
шваль
эфир
ям
😄😄😄
##бами
##ющеи
##ппа
##вч
##вшеи
##oz
##нном
##ep
##il
##196
##😉😉
##👊👊
поно
почто
пограни
##ровые
##нар
завет
заразу
завое
##льна
коса
##решь
пробы
прочим
выти
моменты
доча
доски
доходит
отцом
##летов
дально
дарить
соидет
##мал
##мира
носу
##еньки
##чивается
##стовер
##олог
##ологии
##меся
##ровер
##пились
суды
##дые
надоела
румы
преста
вилы
курить
кулак
##турои
валера
мизер
детскую
передох
##тери
##терна
раско
распре
##ковского
добле
закреп
верность
временно
чур
слои
помоему
помоика
имби
нужное
продан
червя
##рман
семен
##хим
беспри
##рованы
нашлись
2015
спосибо
путинских
обосса
html
рыжая
1975
кругло
закатать
##ительного
ценои
##шенная
рядах
болел
успеть
цветут
порно
мирное
велико
здоровые
овся
проснется
петро
досталось
ширина
девушке
соседа
позвоно
начинаешь
паскуда
инопланет
аналоги
сработ
устанавли
тюль
умнички
##ющихся
свободе
ознако
высоте
180
выбора
высокая
переводс
малышам
каналы
удовольствия
улете
доставку
обуви
прожиточныи
звезд
чистое
награду
количестве
подпис
родственникам
слушаю
разрешение
заберут
переживает
отпустить
танцу
ключи
домашних
таигу
медведе
одноклассников
штам
десяток
замужем
малоиму
сказку
соцза
жирная
небось
улыбкои
достиг
казахстана
послушать
навального
суббота
пообе
кастрюли
большом
большому
капусту
теплая
хорошенькая
духовке
корову
системе
апрель
страничку
обыкновенныи
адекватные
племя
##друзья
связано
калинин
потрясающе
монеты
косточки
санкции
сексуальная
желудок
осуждать
накормить
сюжет
гимна
таджики
госдуме
подкарм
сучара
показуха
обстанов
зашибись
принудите
календа
абрикосы
неадекват
энергети
нетерпением
стратеги
ненорма
отзовитесь
cov
бров
дите
ен
олен
оден
орут
псы
сби
улья
хм
хз
штор
😍😍😍
##ссо
##юшка
##пите
##дло
##чс
##шнего
##💦💦
##новил
наду
наклеи
неот
нехоро
##никова
##дана
##дании
засы
застря
прого
проме
мони
мода
модно
дочке
##тике
отвар
дау
сои
причес
приема
##вина
##боя
##мия
ного
носил
годом
##шель
##чивыи
нищие
росс
росте
обита
##чался
като
катится
спя
разва
изна
пушкина
сутками
верои
руля
теку
линеи
краски
кукаре
старе
палочки
##кель
мухи
сиро
сирот
репре
перечисли
##хают
инсуль
##зина
скажем
жизнеи
человечества
верхов
веришь
лево
леди
лежать
##провод
гадов
черту
черное
слуги
##филь
пел
работаешь
арс
мужья
получаются
праде
земных
обоб
убьют
крути
короны
прямои
огня
огнем
россиянам
немцев
##ланд
совета
бил
мирно
попросить
здоровыми
ужасныи
случаях
постара
считаи
шелу
отношусь
фильмах
свинеи
предали
зарплатои
властью
сбербанка
несправед
рабочая
скидка
гнилои
подумали
пьяные
погибло
белоруссия
высшии
улыбок
встали
образованием
неделя
прошлои
предложил
барсе
##ционные
особые
борщ
вернулась
администрацию
договари
погибшим
научить
клум
данным
заидите
бывшие
построил
итоги
приезжают
убииц
современнои
закончилась
выживают
хуевы
похудения
пользуется
смарт
смаили
направление
ауди
боженька
хуесоска
поселка
пирожки
приняла
поездки
бумерангом
кабинете
короновируса
установка
прибытие
брилли
рисунок
анализы
секрета
предупрежда
запове
заткнись
##🎁🎁🎁
собственности
сегодняшнии
лопатои
планета
мэр
проекта
борьба
щенки
наступает
страничке
симпатичныи
педофилов
серафим
легенда
гибнут
посторон
индивидуально
традиции
унитаз
входе
##тегсагd
молодого
здравоохран
вдохновения
безнаказа
тамара
пшени
сожале
допустим
ингредиенты
ежемеся
извените
престаре
si
vи
бво
вно
деб
мля
меи
мвд
сдер
снится
хами
эки
юг
😁😁😁
##dи
##сне
##ора
##ритесь
##анов
##знь
##эр
##гро
##гол
##😳😳
##🤩🤩
повя
попить
##рабаты
нажима
нелег
##етка
##стке
##кового
##еми
заш
заси
заходит
заряд
коем
котики
чтото
прокормить
высе
вывоз
вынес
морга
дона
отрави
##ленок
сорок
прибить
##вись
военныи
возом
гонять
##шивается
ходи
роже
рости
бутер
будеш
обреза
пираты
жидо
##ходов
##стия
развер
разбор
подходят
##мешь
бодро
вероят
лиза
старую
падает
вал
механи
синяя
силови
сильным
##ньем
знамени
переку
перевоз
индии
добром
сажают
летняя
человеческии
версии
возна
лечи
гадены
продаст
продаем
##щат
любителя
пеите
хар
хан
усло
женскии
дико
тружени
интересны
##ровались
плоды
границ
убирают
удачно
удачного
удалили
ебанныи
актеров
прапор
любоваться
восемь
парши
8923
рыбка
1980
крутые
похожие
шари
прекрасным
гуляют
положил
ряды
болеет
согласия
крыши
бабушкои
советском
поражение
##везти
портить
подачи
##нены
малышке
потерпе
обижать
брови
рассказал
закрыл
возрастом
стресс
слышишь
позвонила
приятныи
западе
чувствует
чувствуют
никакая
принимали
крик
единого
начните
взрослым
существу
существа
страшные
мальчику
улыбки
офиг
##280
готовит
размером
городок
дождик
хищ
включить
снизу
николаевич
поганои
##форми
батьке
гандона
теплои
преступник
тюрьма
заберет
переживаите
чужое
чудесного
невероят
задницы
замку
закончился
занятия
теплом
клоуна
каранда
частично
кефир
одиночество
методом
сантех
поедем
услуг
справку
удивляться
жалости
побыстре
контроли
прокляты
хреново
хреновы
смена
цыга
шакалов
##хххх
##вшиеся
запрещено
станции
хорошенькие
искусство
искусства
грибами
убери
замена
венти
приводит
первомаи
химии
аллаха
заключается
проекте
клетку
насосала
деревенские
выставил
кирпич
подписал
тельня
секунд
сообщили
ночами
изумру
прихлеба
театра
висели
воронеж
опомнитесь
салф
попрошаики
зюганов
ересь
подмечено
skr
ане
ама
брян
внес
ввели
гг
гита
еше
жер
кве
ндс
ожо
сена
сцен
тени
уд
участь
уехать
хэ
цвз
чоб
эле
😀😀😀
##свет
##рении
##нетесь
##зни
##ia
##фин
##гs
##51
##тона
##тологи
пораз
поток
##роды
##новать
##новым
##рад
нага
##енки
##аке
##итые
##низм
##наи
##вола
зана
##рио
##домо
коша
костре
комент
##дея
##рено
проры
просла
прогно
выдума
высыла
##руются
отго
даешь
сокрови
прислу
приходить
примор
принести
##вию
вороб
нои
##нутои
рок
буи
общая
манев
##ням
##няем
##стии
##стин
разное
подсо
подход
подбор
подлец
##ровке
изя
изв
изда
судеи
судят
теста
лишать
вине
стажа
паша
вани
банок
мышеи
посре
решет
регули
хорошими
знании
детское
рассе
расход
##обла
##ствовала
##сур
леночка
худеть
тар
татар
нужнои
пидором
голосом
##олено
полки
пиздешь
умники
испе
фирма
##хивает
плом
##нета
слав
желающие
держите
одень
окном
ответе
детишек
осла
190
круже
кресла
утрен
шаи
королев
гера
начался
отдаете
величаи
подавать
тянут
считаешь
победили
днями
звони
дым
ротик
преданные
очередное
рассказывал
оплачивать
обычнои
строки
бедненькии
хохлян
свежие
слыш
##цент
секса
секторе
уничтожение
продолжа
##щихся
нормального
проверять
взрослая
посовету
пропадет
сахаром
будте
миниму
ступ
заслугам
политике
пытались
включая
подружка
символ
заеба
ангелы
стараться
злоб
интернету
смертью
продукции
реальная
##хера
наука
заботу
украинскии
помогал
разрешения
краине
##рованное
стери
разруха
убиицу
современная
##движи
вакцины
заднице
закончила
разводить
следующеи
трахают
управления
указан
восстанавли
частенько
автобусы
необходимости
прикольныи
выбирает
доступно
сельское
предопла
протесты
божьи
захочешь
отказали
мерзкая
ежеднев
противополо
знаки
выдавать
нефтя
столовая
витя
инфар
длительныи
делиться
ограничения
добиться
подтвержда
равны
забирает
повторять
организация
гарантия
трудовои
плиты
космонав
деревнях
закроют
холодильнике
коричне
лаикать
пристроить
безумно
пидрила
аренду
подзабор
витамины
защитить
матронушка
швеица
захлеб
наемники
чемодан
привати
хлебушек
пометкои
предназна
сослужив
u2
вь
гроб
зов
квали
ове
осел
ске
усо
улет
щел
яку
🤦♀
##du
##кни
##тное
##плом
##аги
##az
##нн
##нитель
##шня
##шников
##цца
##💃💃
##тория
##тью
попи
попере
понос
покру
##ровых
##енции
некраси
##лился
##стного
##лаи
##говои
##воем
заз
зарос
##дером
##девра
##десят
##ама
прожили
топить
вые
выса
вылет
доска
##тируют
отвлека
соса
сошли
присе
##ська
##вицы
##вичу
воста
водя
гоните
бул
обя
каца
каблу
пирож
спал
##ология
##цин
##понима
##жало
рулет
крах
виды
валют
дуру
духи
мышь
##педи
##разде
перешел
##зывая
рассол
беля
серо
севере
человеческое
##сколько
##граде
плата
плату
##ленко
собрал
лого
красное
полным
ребяти
грузи
напишут
властям
фигур
##хия
##рована
народная
грабят
массы
удалять
2017
ценам
ценами
##тельного
русское
полит
игр
антон
осмот
шара
банде
цепи
##шены
красивого
крыло
деиствие
отдаите
мною
соля
новостеи
мирных
забывают
подарил
выполняет
легкие
подскажет
огромнои
замечание
мясом
личнои
зарплат
языки
развели
чувством
работо
рабочего
погоды
поговорим
##порта
произоидет
лента
подобрать
сдавать
сдохнуть
защите
должность
белоруссию
породи
мужчинам
заводить
исполнилось
##станции
##головые
плюнуть
лишних
отдыхали
картофе
передачу
половине
востоке
блок
прошлыи
украинцев
игрокам
пригласить
вызвать
указать
выживать
афери
зерно
похудела
американские
вредите
желтыи
комплекс
флагом
приходили
носите
нежности
удивляюсь
приедет
проходил
ветеран
торговать
ветерина
нормы
росгвардеи
тупорылые
аппетита
статистику
розыгры
итд
смета
ухаживать
упала
выставили
религии
твориться
холодильника
растерзание
присягу
погулять
законода
влияет
юриди
миленькии
империи
применять
пешеход
насеко
материалы
расписание
офицер
шашлык
директор
игнори
корабли
дозвониться
основе
сгущен
чьеи
вячеслав
лысыи
репети
свердлов
поближе
затолкать
толеран
безразли
covid
sе
аво
аза
алю
бм
ежи
икру
мв
мда
пв
псев
ср
тита
фре
цел
чая
эв
ял
яна
👍❤
##сот
##пам
##хую
##денье
##лк
##мень
##мез
##гри
##гнула
##щением
##sи
пок
пошу
поголо
погру
порезать
поехал
##нора
ная
напу
надеть
недвижи
##стет
##дара
##дона
комо
##амет
просту
тошно
какова
вык
вызо
выжил
выдает
вызывают
выпустили
доя
отсле
##ляешь
##нели
давала
соу
сода
ворю
новер
##вель
##чивая
##стах
буди
бунк
бухать
обслу
##чались
##чалась
жируют
##ези
дева
##жном
разбу
подда
подходя
пушкин
пургу
##честву
веки
лихо
видов
кули
варю
баню
##ряз
мели
мега
медали
##пел
рекви
передела
странныи
##сскую
инста
добреи
северо
##ствующие
летние
вернут
остаток
оставит
##против
чужими
лучшую
продала
жадность
любители
пев
усраи
блага
предпринима
убивали
мужские
тимо
земе
горла
светлые
путинскои
обога
политик
рыжи
##зур
пидараз
открыта
дереву
отдаю
##женное
счастливых
счастливыми
##черы
подав
подавала
выполнена
волка
волны
##пресс
##ванная
списа
звон
звонка
звонил
можна
бросать
закрывают
толпои
котлеты
шире
пользы
тортик
отправите
собираю
понравится
снаря
собакам
ездит
лентя
одежде
законом
сдаете
сдохнут
сдохнешь
состояния
##180
маиор
15964
срока
поверю
порося
трудности
пропали
встала
шлюх
сильнои
министра
сталине
старому
гроши
дешевые
олив
гражданства
группах
возвращать
ненавидит
передаите
бараба
петуха
полезная
государством
горячую
данных
заболевших
проклина
приглашаем
нарушение
поднимается
грамотныи
американскии
трахает
агент
указанному
облака
незакон
пользуются
собственного
костюма
потолок
выбирал
распростран
либерасты
соловь
футболи
записьдрузья
отказались
мерзкии
ромашки
пользовались
официальныи
рекоменду
хренов
сильнеи
таблет
нижнии
горького
длинные
пострадали
заткни
основании
начальство
даааа
оценить
деню
прилично
комнатная
апреле
съесть
удостовер
ветераны
возможна
регионах
бездельники
дивана
транспорта
проголосовали
разнообраз
выступления
настроить
голубеи
корабль
обнимаю
баикал
последним
независи
оккупи
бухгал
безнаказан
промышленность
свидетельство
##более
чинуш
сплетни
возникает
съездить
кадыров
поговорка
маионез
расчлени
координа
лижбы
97
sи
top
wat
голь
дот
джа
жень
идешь
пюре
сходит
сведения
усть
ушеи
фро
цу
##слом
##ево
##ждои
##ив
##дну
##oy
##a0
##em
##фср
##гром
##ti
##bs
поход
поучи
покров
##ровои
##новая
настав
нагре
непол
##годно
##кона
заебись
##дос
кони
корма
копать
##деться
##амен
просила
тоесть
быт
##дис
##див
##дину
отчи
отзо
##лятор
##неет
даруи
прику
##мана
##чинка
ходор
любым
обры
кат
каторы
дедов
деграда
марии
мазь
##нях
##выр
##ереди
подвале
подгото
##совет
боися
чечне
личке
онколо
стареть
ставил
палла
духо
дурь
##ряет
сирии
меняются
доле
распу
рассы
расходы
молоток
человечество
##гради
вернет
тум
помогу
покажу
черную
##товка
компози
служи
полка
сделан
печи
##фом
лаза
лаби
лапки
пиздои
умного
киров
фиоле
интересую
интереснее
грабли
помол
##ченая
следите
2021
получаем
славу
брак
братом
свети
хуинеи
##разум
кормила
парла
парню
игрои
рыже
1970
1990
##ренко
закапы
креа
смеется
главнои
##шенных
дебилка
дебилизм
настоящеи
второ
отдает
отдаст
мног
скорости
заметь
маленькую
фунда
узнаите
везут
победил
шедевра
звонок
резер
проснулась
специи
фильмов
обидела
мерсе
шишки
гип
особенного
курит
учил
метр
вырастают
органов
гражданам
встрече
помимо
душевные
среда
повре
депутата
##жопые
девки
потерялся
белорусии
клиенту
мальчиков
смолен
форми
параш
возьм
спроси
макс
соболезнуем
происходя
турция
уебан
грязная
двора
мечтает
китаицев
молодеж
чудесно
далбо
уверенность
поворачи
звезду
сними
старались
перестала
##ееее
##ителями
америкос
дрочить
косми
уидут
обоидется
драки
силами
выздоро
омске
памятника
встречаются
частном
кефи
чвк
алигар
веселые
услуга
предлагают
случиться
услышал
щед
направлении
овощ
охрана
невро
уродам
кирги
домики
почитаи
комнате
конфлик
яндекс
товаров
блядство
генети
квас
специалист
специалистов
колбасы
ненасы
фарш
розовые
жидкость
дмитри
разберутся
тупорылая
екатерин
деятельности
обсуждения
окрас
милашка
мебелью
##⭐⭐⭐⭐
мудрости
ткани
самолеты
перезво
паразиты
сбываются
прежнему
днюхои
театр
десантура
заблуждение
смородины
обалденная
хочеш
папина
рассуждать
разговоры
очевидно
магическии
тихановская
больницах
сднем
ковида
назовешь
ведерко
ярослав
рсфср
чудовище
оперхции
оранже
ноутбу
эксплуата
вознагра
watch
870
аl
аме
араб
бзо
блен
вро
вле
впа
дк
еби
лак
озо
отом
сл
сходи
схва
ушки
ящик
##хт
##нцы
##шению
##гнет
##цкие
##щет
##bо
поот
##новых
навоз
назов
нечая
##стным
##лаг
##вами
##гоп
##ници
зачис
##доз
кость
прото
продума
пропил
пролете
торга
##дины
выходи
мокро
всея
дошли
доктора
отдель
раба
дабы
сосал
соус
пристав
привоз
приидет
##сьте
##мали
новыми
ниче
##еса
бугор
обру
облом
обнять
общеи
##мочка
пир
сплю
##жности
##стина
##пора
##пова
##понен
излу
##пишь
##пился
пулем
босо
надое
челю
лив
лиси
крат
вики
кушает
стану
дуро
бани
баночки
##шаются
миссия
мешо
местности
##дье
##дька
послови
сия
детском
переписы
##мены
беду
бегали
лету
летнеи
##мысли
версия
чужим
газом
красив
лучшему
покажется
продадут
жал
##ждением
карди
правителеи
хара
диску
диамет
исхо
##хина
интересного
граница
##летие
удалите
блядям
одоле
совхо
горю
брас
108
1972
утре
родили
гуля
король
главного
ебнутые
урожая
дебилом
открыт
отдаи
великим
волков
маленькими
радовать
сторона
увидят
увидев
шести
##драли
посадила
обиды
петровна
благодарности
рассказывает
толка
толпа
телефонов
бедным
рецептом
польше
углеи
попался
попадают
приятных
медсе
отправляют
последствии
недоступ
чувств
уничтожают
плес
занималась
тупость
набрал
фести
стекла
высоты
покупаем
вставать
платные
площадка
##740
материала
происхо
совершил
размеров
быдлом
мудрые
##рятли
дворец
дешевая
китаицам
проживания
возвращаться
яблочки
##жутся
вокзала
##фуют
дерьмом
истинныи
благополу
свадеб
заботы
теплое
убежда
обоим
привык
пляжи
танце
замечательного
чудесное
вязать
закончил
честных
переворачи
четвертыи
участия
баку
дворня
веселыи
поеду
бороду
обманули
натуральное
аук
опозо
популяр
добавление
арбуза
портит
обосрался
профилак
хуесосы
наваль
кислоты
очистить
понадоб
великолепныи
физически
александру
необычно
московскои
любящих
рыбку
кастрюлю
приносят
нищета
зеркале
могилу
коляску
порядочныи
сердечко
требовать
охотник
достоинства
автомобиля
посидеть
библии
свадьбу
пиздюк
пруд
уточнить
предприятие
предприятии
романти
беиру
дальнеиших
появятся
имущества
критику
упырь
напрасно
тариф
предпочита
олимпии
госдепов
университ
охуевшие
пиздеж
недельку
комментировать
нехер
азербаиджа
бесподобно
ксения
дьявол
неудобно
бедолага
состоит
проституток
наступит
нереально
манипу
эфире
раскула
дубинками
маникюр
шаблон
##lапds
анатольевна
нарису
бровь
несправедливо
220
380
650
lи
аш
дз
ебо
злых
мкр
нот
рака
тере
уко
уху
унес
унас
хая
читая
яб
ядов
😢😢😢
##оном
##рскии
##бен
##пками
##всем
##альную
##дны
##мка
##учить
##уголь
##гет
##7s
##500
##щя
##200
##ub
пофи
погран
##рога
##нот
##ножки
наре
навы
накра
надела
##нисты
##ковым
##емы
заде
задор
костер
тоска
вымо
выдают
выдумы
выходили
вывозят
доп
досту
##руешь
отби
##лядь
##ляция
воя
водила
ворье
##бочка
носи
говя
гоняют
##чику
##чивые
##шик
обни
обжа
общии
кав
##гандо
делов
разб
разныи
разом
##бик
нуля
стя
поджи
##сая
##пина
##пило
самоле
листа
линия
пашут
варе
вале
##люзи
мече
больного
поско
сине
сима
рель
##сковье
детса
переклю
страдать
странная
интри
инфа
##мена
сего
салон
танк
гастро
##щах
жары
черни
чертя
одноразо
многом
ложек
полного
думая
груст
напишет
женскои
править
чип
##ченным
ебали
слеса
2016
горбу
этап
обосс
имеются
парка
8900
##ловке
чашу
1978
1977
кроко
заказала
смеши
гун
гуляли
давности
мужиками
##шеннои
связан
крылом
добавили
добавил
вдвоем
дурака
великое
великому
мамаши
мамашу
украинои
овцы
фуфло
узнают
глуп
везения
считал
победит
камен
огромным
покупки
расскажет
внуками
отвечаите
сообраз
задавать
западу
экологи
назло
занимает
продолжения
мусоров
спокоиствие
ныть
тяжелее
покупаите
пропало
психо
стука
показатель
ветра
быдла
заметка
дворах
старших
подарю
альтерна
заебала
пальто
пальца
николаев
милое
погань
петушок
воздушно
воздухом
природои
хранителя
фонда
данного
заболел
долбаебов
разрешили
курицы
проценты
андрея
копеику
ключе
компанию
профессия
8908
заняты
посылку
феики
следствие
трахал
восхищение
управление
путлер
пацана
кухню
здании
молчали
полномо
кошечку
культура
республика
дерьмокра
справка
выбирают
национали
олеся
катастро
инвалидов
назначили
выкладывает
предусмот
пластиковые
захватили
приедут
запретили
событие
противоре
отсутствует
поднялась
немед
торговыи
сломал
сбежал
##🌼🌼🌼🌼
выпускать
собственность
металл
уточните
##👎👎👎👎👎👎👎👎
трахаться
лебеди
несчастныи
клетки
вкусняшка
местом
лагерь
договорная
ничтожество
васильев
мамина
гребаныи
коммунальные
охренели
борис
устроит
платошкин
сбросить
авиация
справиться
нечисть
хочеться
оружием
продуктами
офицеры
новосибирск
георги
аbг
##http
выпраши
выпрашивать
брежнева
девяно
динамо
завораживает
сервис
оренбург
ассаси
дефицит
каникулы
бондар
бестолко
декора
алеикум
сущность
инженер
соцсетях
свыше
отправителы
170
71
750
94
d1
ly
sо
бэ
вите
впо
гена
кт
клят
лон
оск
пн
рв
свари
сменить
сфото
тs
ую
усе
учет
увлека
юб
👍👏
##очень
##брь
##яла
##евои
##жники
##пак
##иеи
##вят
##ары
##ыш
##нская
##нках
##чете
##зн
##зда
##гб
##345
##sта
##vо
##🍷🍷
##толог
попла
попов
навести
нажала
нахуя
нек
невос
##лис
##лится
##лава
##ерьез
##итки
##ниш
##кома
##лость
заходи
задро
##рист
##довала
##льская
копы
проник
пророк
тороп
##дировать
высу
выкру
выдум
довести
достояние
##ружи
отбро
##тарь
##левои
приступ
ворам
##душные
##чими
нищих
##стоит
##стого
каши
##гаешь
спам
депре
##гиба
##стическии
##бабу
##ровья
изло
изоля
##пидор
пустая
##вутся
бошку
##дыш
лицен
предел
##быми
старом
палки
##туар
милои
медом
##пели
##00р
простое
передо
переехали
странные
тамо
белым
сестрои
сараи
салют
перья
переры
##родныи
##пери
человеческие
лежали
людишки
импорт
проданы
##леныи
глазом
собя
лопу
россииским
##фии
опры
сделаем
нужныи
нужды
лаг
умоля
кидать
##неишая
любима
##пым
славы
славныи
красоте
окнами
##читала
обош
врагам
парков
899
получиться
1976
убеи
крутить
закат
автопере
смеются
смеялась
банков
целое
крыла
крыжов
открывает
береты
играла
солен
##женнои
попросила
##205
волю
наиден
##шихся
спине
камчат
болен
спеку
фильт
фильтр
деревень
городские
долгои
доставить
подошел
рецепта
сообра
матерью
позволит
сливы
последнем
ббч
готово
марге
##104
занимался
продолжаите
произведения
произведение
подумаешь
девочкам
воспитании
проверки
##ваемо
участвовать
поступает
купит
парамет
##ционнои
комиссии
заметно
мечтаю
лишнее
добраться
добрались
полях
пятки
профес
передача
печали
подписи
истины
отделение
минске
водителеи
научилась
свами
железнои
тихонько
горячая
костя
пересмот
практику
прочитаите
бвб
атаки
молитесь
современныи
выебы
##монтаж
андрю
крупная
звереи
большинства
медведя
медведев
развалить
переводить
устраивают
восхищаться
школьнои
1983
квитан
нынешнее
давным
пособии
опущен
удивляет
достовер
жаловаться
овощеи
##летают
предоставля
нагле
протестую
художе
бумаги
##🌹🌹🌹🌹🌹
внеза
ощущения
🤣🤣🤣🤣
принципу
арест
горбачева
рабство
задумаитесь
нефти
поднялся
руководства
жертвы
жертву
мульт
целиком
пожерт
ленинград
киеве
сядет
доллар
викторовна
исключительно
смешнои
металли
свадьба
сборище
сплошное
присоединяитесь
планету
посуду
милиция
насиль
колено
вкуснятина
кусочки
утвержда
зафиксировано
религи
ботинки
строгости
гвардия
кипятка
парази
курорт
зажравшиеся
сср
путаите
победителеи
пропаганда
безусловно
жалуются
испове
оболдеть
последних
здравия
становиться
ебанашка
сценарии
локации
гвозди
опублико
интелли
##ционеров
наращи
периодически
браузер
травить
аккурат
подкрепления
рекомендации
неожиданно
мясорубку
баклажаны
серьги
немедленно
210
4000
61
8000
bl
dо
апло
ахаха
драз
еван
иже
ксю
клян
оть
огла
пд
пень
пдд
рп
сходите
тс
трын
фраз
чю
шкура
🤷♀
##dn
##da
##кты
##ктив
##жж
##пси
##ппи
##аl
##ok
##неры
##чю
##зительно
##зиты
##ii
##ъем
##sе
##😪😪
##👄👄
поже
потро
##россии
##ною
нажать
неле
нече
##ликт
##каз
##кости
##надо
##лоб
##ловая
запута
заходила
всу
всплы
пропустила
##асо
##астья
бываю
вымер
мок
отко
даты
дату
сог
соток
прису
применить
приписы
##вило
возить
##мик
нога
обга
пис
малина
##вывают
##зает
разным
разными
##житься
подсу
подстре
подбира
подьез
изли
изго
изнут
извили
пустить
пустили
бод
судит
судим
##дык
ручная
лин
прео
пафо
ваг
балу
минет
мера
синие
сильных
силах
знаите
значительно
деталь
переход
долб
страхо
молочко
луна
жизнера
беите
бедно
бегу
белую
сестер
##суемая
человечек
оставив
##стребо
черном
собесе
ложить
ломать
пекла
правители
груши
грузии
грустныи
##фона
усмот
напиток
пиздите
диплом
мамам
кирова
кинуть
пожало
пожалуста
бессовест
удачу
##ченное
##ченые
ебанные
следы
##лема
##новато
горят
теряет
обочи
8960
понимали
крепо
обращать
шавка
шавки
##метр
коробку
положении
цеп
целях
##ального
ряду
соглашусь
деиствую
зоя
улиц
##ванных
стиму
радостно
квартал
сможем
считали
камаз
народного
просле
просматри
дыры
обидел
свиня
леснои
хабаровского
толпы
долгое
строю
##менил
попадет
курсан
начинаются
собирала
творчестве
экспо
душевное
семьях
семьями
умничать
выглядите
клиент
поросят
утрам
##графию
орто
##работа
заслуженныи
вспомним
ветром
держаться
неодно
грязныи
шикарное
участникам
братство
умерли
бзб
доверять
##страивать
семеика
востока
фотографию
сосите
железная
тихонов
храните
украинскои
ляп
травят
заигра
отказаться
пиндосам
заболевании
знакомым
драго
##💐💐💐💐
поколении
подсолне
серьезные
маидане
чудесная
попробовала
крупно
ракеты
1000р
окружение
сказочно
агро
слезами
частныи
боевои
подъехать
засра
поесть
спаль
активныи
ошибками
натуральные
опух
послали
попугаи
охраны
солью
протесту
девчонка
абсолют
записькак
кислород
четырех
проходила
горбаче
менедж
запомните
цыган
письма
антиби
зубами
освободить
купаль
яркии
рамки
рамках
нищеты
колбаса
##брасы
хорошенько
командира
прибыли
помоике
внешность
##лавливать
дырявая
замену
гондоны
женился
сбора
определитесь
конкурса
сотрудники
одобрили
борьбы
борьбе
улыбается
отметить
учителям
поцелу
холуи
симпатичная
гарниту
ничему
снимки
##ферен
валерии
трусливая
ласковыи
категори
шерсть
легендар
алексеевна
активность
разработчики
##земпля
пошол
вишня
литровые
дармоеды
режиме
режисс
боксер
универса
родительских
демонстра
мероприятия
океан
необыкновенная
тараканы
пидерасты
донецк
ближаишее
форум
автоматом
пеиза
##ккеи
комфортно
плохих
избежать
##союз
пмж
комбине
коопера
складывается
бродя
галсту
фотограф
поиграть
восьми
негодяи
контрактники
шизофрени
адекватныи
стоматоло
васильевич
кризис
иммунитет
артиллерия
алюми
псевдо
паразитов
изнутри
жизнерадо
550
812
ало
азии
гл
джо
ево
ик
ист
мк
мят
мрот
мчс
ола
ода
орет
пт
ртом
счит
тща
чье
##dо
##сра
##сред
##отом
##женно
##пg
##пут
##вну
##волено
##af
##чкова
##ушка
##шнем
##шением
##гт
##щению
##ъе
##bи
##🌻🌻
##😇😇
##un
##💞💞
##💲💲
попе
##ровая
наступи
##енти
неграмот
##лины
##годы
##нило
##нички
##емои
зано
##доне
кореи
##делся
вскры
просы
прокон
провел
быст
выры
выехать
вселенная
##тивы
##тиками
отряд
отчая
рах
##нею
##талась
##летом
дарят
сока
соре
сопля
соедин
##вика
##сины
##силась
##стьян
##чив
##чикам
##шилось
хоккеи
родить
##мона
##мому
кашу
пищи
жирик
дегради
##хозя
малыи
##зая
развести
##живается
##жания
сует
очен
лить
линк
видя
курга
падать
ваня
дурои
бане
башкои
муници
реке
##скоп
переки
пережили
безответ
распуска
инна
инсти
институт
##зики
##мота
лукови
сестру
перене
лева
туман
класе
чугу
таин
##щала
глади
собственныи
полнеишии
##тельна
певец
##полз
оов
нужную
харя
властеи
пизд
кинул
##хивать
##евскии
грабе
слабых
ценю
акс
мразоту
годам
термо
брату
украсть
ответят
прекратить
господ
анк
антина
воидет
автовок
банках
ряза
добавь
100р
песка
тропи
мирныи
забываи
велика
денежку
источ
проблемами
болга
болту
резин
просрал
дыр
дырку
свин
благодарен
##делка
оплате
строит
уровни
экземпля
выбрала
знакомои
несчасть
езжу
рабочеи
занимались
занимаюсь
кричали
ленты
подобным
писатель
братьям
сдают
сдавали
терпит
##725
146
радуются
200р
александро
поступила
пропадает
встанет
платите
местам
заработан
авторитет
вспомнили
##кладывать
1300
##ционная
мудаки
беларусы
вбб
гражданская
качели
бордю
царе
симпот
митингов
злобы
перестал
семеиныи
спрашивали
истинное
алкашеи
поменял
территори
ивана
гандонов
полег
медицины
падлы
помогаем
воровали
признать
приглашает
поставит
выебу
нервни
сложности
храб
храма
медведи
занято
честным
1989
подъезд
превратили
полноцен
устроил
ошиблись
постель
улыбаться
фантазия
выкладывают
предоста
коммунистов
обалденно
невз
контролировать
послушаите
бросает
великолепная
спуска
любящие
забаика
стремно
дождем
убого
сезона
ферме
невинов
белорусскии
испытания
спарт
челси
грудинин
гаранти
электричество
демократи
забором
сфере
шоколаде
кремлебот
полюбо
телевизора
серафиме
балабол
религия
стесняюсь
позиция
заставили
##мысля
зделал
подворот
выродков
присутствует
пассажиров
продавцы
дождаться
##💰💰💰💰
дубровскии
миленькая
техникои
здравии
поработать
помыть
сопут
дозака
изделия
льготы
братишки
сбудется
обозрение
министерство
кухонныи
окружающих
лесопо
терапев
нттр
жрицы
палками
преданность
самовывоз
феодо
обоитись
шевченко
инопланетя
барселона
topic
википе
чертям
сфотографи
автоперевод
1кг
bи
бдите
вл
вводить
вклад
дрем
джен
еме
едем
женя
иб
ине
иба
кет
нк
нью
охо
пса
сче
сбил
сдви
устра
чут
шко
шлан
ыи
эсто
ювен
##сут
##рных
##рнои
##тнои
##ька
##ео
##жнеи
##поле
##вится
##дже
##дром
##чница
##шнои
##ef
##фт
##gо
##ul
##vи
##точного
попер
погре
поведения
нагля
насили
нагаи
нево
недра
недолго
##лагать
##вано
##вающие
##олка
##нист
##нились
##ничать
##даны
##воды
зате
засте
##рис
##рие
коза
прова
провали
пропасть
проводят
##дием
вырезать
добо
дочкои
дохуя
досих
ранен
##непри
дат
дани
даге
прикос
приспособ
воп
вошел
##мир
носо
нику
хоз
ходя
##мора
каб
каль
капе
катю
пивом
дешо
##тек
маз
мале
##гинал
##нялись
##завод
разного
разгля
##билась
подли
подставля
подольше
жечь
##подоб
##жаюсь
пугать
суши
ведом
ведется
рух
тепере
лим
либе
линию
пресле
препарат
##тыся
##бывать
стациона
пат
паши
варен
вацап
дуба
микров
меду
мучительно
послан
сигна
референ
значи
переходить
безмер
##пую
##ссс
раскла
расстрои
человечи
лек
клави
тапки
танечка
пламен
гази
газель
##ленность
##чусь
##щаем
##щаите
главно
глазу
однопол
интерна
слухи
пеку
нужные
нужным
##фоны
хана
блажен
кисть
киса
киска
кисе
кирко
предъя
интересен
помни
чистка
##берут
красотки
держу
горбаты
свету
светло
окса
вздох
взамен
корне
##зываи
##зываете
вопросу
1941
убьет
##думаитесь
расстрелял
кревет
автором
бандитов
цепля
болели
написана
деиствуют
дебилои
бабуле
живую
порту
надеется
надежныи
весы
весны
подал
скоростью
раиса
##преки
стирать
поэт
поэта
греха
победои
камнями
болот
прослу
петя
брон
##служ
благодарны
государственнои
хозяики
рассказали
##ственности
долгожда
польша
возрасту
свек
90е
угловои
растении
задачи
спасла
последнюю
секси
##364
готовили
недоу
недораз
чувак
назвала
создана
лукаш
##198
непод
подобрала
чмош
повз
медикам
потру
федор
собачья
порошенко
высокои
замечательных
площадку
книге
показания
заслуга
госдумы
ветки
комиссию
удобнее
ассо
газете
вбз
обучения
проживает
бомж
качественныи
качественные
зеленую
картошки
уверенно
поворо
ненавидеть
мент
снимут
сладкое
братва
##ндалы
##260
##декса
2020г
дерьме
красавчики
женат
спрашивал
петушара
следующие
продукцию
реабили
медицине
роспотреб
музыки
нарушения
переживаи
глянь
фотке
обращаите
указывать
изменении
переворот
американских
встречается
яицам
боевых
рыбалку
санти
привезут
боролись
генерала
республике
приходила
сплошные
базаре
костюмы
иоси
амби
головах
загнать
защитник
кабачков
противопо
великолепные
конфликт
обеспечить
хитрыи
дочереи
подняться
забуду
сожрать
столовые
плакала
##ррр
исчезли
хулига
короновирусом
внешне
уберут
бандеровская
отдельности
тупорылыи
улучшения
##фикации
сегодняшнего
демократии
##🎂🎂🎂
обыкновенная
протяжении
упыри
варва
позиции
учеников
##🎉🎉🎉
сознание
ноябре
смелость
таскать
армения
пропустить
жутко
чубаиса
брежнев
колхозы
ютуб
экскурсии
экскурсию
караулов
залупа
составляет
алмаз
подозре
шнур
братишка
раздражает
##🇷🇺🇷🇺🇷🇺🇷🇺
позволяют
##комнатную
ошеиник
мусульмане
спектакль
подмосковье
учитывая
долбоебизм
кроссовки
полагается
севастополь
оштра
чебуре
заимитесь
листьев
императри
воспользо
удовлетвор
ковыря
янукович
архитек
пропорции
догады
круглосу
медведева
многолет
ассасинов
бондаренко
муниципа
инстинк
перенести
6000
850
877
jp
ахи
бросит
вли
врот
дна
ео
едои
ехала
зре
ия
иза
мю
нэ
оча
одели
пята
сш
сход
сгла
слить
трю
трене
уо
юбка
##квар
##кнул
##рятся
##бно
##тет
##ються
##ают
##дзе
##лкам
##as
##ay
##ed
##iya
##фак
##фек
##😂🤣
##7b
##8s
##🌹💐
##нокра
нац
нежная
##лим
##стку
##олю
##каите
##кове
##воли
##емые
завести
задыха
##кино
##льце
##льнеи
комен
чтоль
проко
пропита
прогуля
томат
каков
мотор
##тино
отпры
раю
##лел
соды
прила
прилет
причаст
приказа
прицеп
примут
##вирус
##сие
госте
горами
##дун
нить
##ессу
роду
бун
обье
##мощ
##стоять
каприз
пионы
спите
мата
##няешь
##зают
##зался
##стические
разучи
стр
подже
##детели
избы
##жащих
##пира
пух
пустят
пукин
##ченок
бока
очуме
ведутся
##паю
##пались
тесты
липец
лишили
куст
кузь
паре
пачка
важен
мик
дружи
мешать
мыше
муку
мухо
стою
столом
перестрои
страхов
расто
моложе
##зион
##зилась
скаку
садиться
перм
лео
лежал
конвер
туго
чуток
жарить
черви
последу
коммер
ложке
россииское
##ческому
##фили
скопи
хал
хаби
лает
усер
диско
труб
интересна
##ительную
##евка
колот
народных
правильная
масками
благосло
##ченнои
ебашить
##денныи
слаще
аквари
##жительно
землеи
15000
часо
поисках
проигры
рыжик
1973
1993
родил
родинои
обратить
группои
коронои
твоими
##вляю
целеи
молодчинка
крыше
добавка
богатои
трогает
машинку
весит
дураком
дурачок
поддержал
волж
волки
ужасная
ужасное
узнаем
неува
неуме
молчите
случается
##дешься
просвет
законно
пети
##145
женщинами
рассказывают
рассказывала
толстыи
умеем
гиган
отвечаи
сообщает
##ina
стрелки
светом
растите
странам
некото
начинаю
учила
##щиеся
пыли
пыле
уровнеи
снаружи
сектора
творчества
##365
ббз
экз
душить
небесах
езжаите
прелести
плечо
##фана
гнилая
произве
казну
тюрем
спокоиныи
##126
##етик
##308
редкии
уважает
уважаите
потен
отечества
извинения
накажут
##контак
##135
исполните
местных
заработки
достоиных
канала
неопи
проживание
пытаюсь
пятыи
включать
снимет
сладких
пальчики
видна
ольги
перестанет
перестанут
добавляют
погибшего
научил
научила
диаг
матч
пробовать
врачом
данное
помогала
проклят
благополучие
старикам
воисках
поднимает
стихии
подсолну
серьезныи
благодарить
содержит
отсосал
современных
заморачи
телевидение
снесли
субси
третье
признак
сережа
1986
похвали
рыбалка
интересуют
лысо
удивляемся
познаком
ногтеи
глоба
количеством
охраняет
ублюдкам
послушаи
##😡😡😡😡
спусти
обезьян
скорпи
геиро
кольца
московскии
любящии
письмен
ягоду
революция
шахты
короткии
каифу
добились
халяв
перемешать
авито
железнодорожников
увеличить
забирают
японии
норве
павловна
достоинство
смертная
дарья
проплаченные
жених
жениться
ошибаетесь
вольные
напрочь
державу
посуды
вылечить
насильно
шкуре
младшии
##😄😄😄
котяра
выиграть
отпускать
навряд
прочтите
слюнои
вдуть
подлость
копее
постоять
безграмотность
работяга
подеше
набирают
ушлепки
алкоголя
виталии
перчатках
педагог
чувствуешь
оккупа
наркоманы
гимн
эпохи
висеть
аеsт
ролеи
вежливо
лизоб
стадион
змея
змею
оберегает
недоумки
посетить
лететь
несовер
февраля
горизон
аллергия
партизан
зенит
бредятина
болото
троллеибу
сюрприз
талоны
правосудие
парикмах
##ews
выпендри
дальнобои
авось
реквизиты
назовите
нечаянно
гундя
пожертво
микровол
375
dе
апи
боти
вр
вени
дн
драть
есс
ежели
жва
зы
кл
псов
тэ
трать
угля
удел
фени
флага
шле
шесто
щели
ювели
юбки
яз
##рного
##рением
##ткои
##тках
##жене
##жными
##хника
##вна
##дением
##ыз
##og
##мки
##шы
##шных
##ex
##iv
##этаж
##🍸🍸
##💔💔
##👹👹
##тове
насти
набе
нацию
наполи
##лишь
##олы
##гоф
##кову
##вость
##лога
заез
заика
запомина
занят
заменя
##рилась
##риум
##льке
##льщик
вско
##аму
топли
вым
выпло
доно
доехать
довел
дормое
##тинои
ота
отво
раши
##тация
##лечи
сопротив
прид
пристро
привели
принесли
принесла
##жества
##вилось
военного
##боток
ноют
ногои
гони
##нужна
##стар
буде
обер
обго
облег
кацап
##гаите
декрет
малые
##живали
##бает
##ерешь
поджа
подразде
бою
бооо
самоо
лива
личных
ливень
кун
кушают
##быль
падают
палкои
##рях
дружит
##пед
муха
мудила
переко
переез
перепол
##путин
страсти
рассле
##зиеи
закол
##зора
бегал
бедности
салам
##новке
##цына
вернул
верили
конструк
тав
таина
##дником
австра
гадить
лучшем
пидорос
черных
черным
ложу
фотос
любителеи
дорогих
дорожка
скон
лапы
лапочки
темныи
ислам
николая
сытыи
мужская
следом
слепои
получаешь
аква
желают
телеку
гортен
этажа
взвод
##ловки
рыбки
1945
1917
пишем
родиться
шары
##вляется
целых
гелен
открытыи
открытым
пробки
подачки
выполняют
ужаса
надписи
маленьким
радовались
молчи
спички
огромную
проснулись
##ведена
мерза
толпе
внучки
достала
подонков
гипер
строя
девушкои
торты
матерям
риску
слив
приятное
отправьте
гриппа
сексом
##798
##360
небеса
принимал
холодная
вечеру
крепче
скиды
скидкои
ремя
компли
мусором
средне
казнокра
чмошник
повсюду
нытики
депутатам
##жопая
правоохран
единов
##153
уважали
радуите
пьяных
важное
собачек
клиентов
порошок
букву
платная
площадке
факти
достоиная
птичка
птички
прямом
предложили
мудрыи
выидут
съели
бомжи
артиста
лишним
кассе
бабушкам
подружки
чистота
окажется
милота
семеинои
спрашивала
полезные
полезное
иванова
охуеть
нацист
300р
церков
боялась
заболела
заболевание
христе
проблемах
разоча
штуки
приезжали
переживаю
чужого
поставь
молится
дятел
двоиное
провокаторов
доказывает
встречал
школьная
автобуса
жестокие
1987
1981
1985
нынешних
превращается
напал
летают
кармане
блевать
сплошь
выбираем
представители
чзб
спорта
спортом
национальность
щедро
послала
воспитывает
##atal
тишины
протест
портят
принцип
маринад
выставляет
рыбак
революцию
контакт
контакте
доказано
бумеранга
купались
логично
уголов
сетку
коллекции
продлили
могилы
разводят
существование
горько
горькии
переместить
выбросили
бригада
росгвардии
температуры
первому
хрустя
голосуите
изуро
попытка
доверяют
спецна
##🌺🌺🌺
заразы
приложение
печенье
характери
варенья
трусливыи
недовольны
грозныи
бешеных
слюни
малины
малину
сцене
шампу
проголосовать
зделать
работяг
секунды
борисов
мышцы
благословит
придумывают
успокоися
кавказе
жандар
##чивость
путешествие
мобильныи
смородина
ишак
взаимопонима
рисовать
толька
матрас
примером
вытащить
лозун
лозунг
ученые
междунаро
аsтегсагd
сбудутся
декабря
вынуждены
прикиды
куколка
незамет
компенсации
привлечь
упражнения
ликвида
коньяк
масочныи
офицеров
председа
ростове
патриарх
госуслуги
неравнодуш
процветает
учетом
получше
божьего
соцзащ
календарь
здравоохранения
изящ
поперек
поучиться
обоссать
считая
соревно
роспотребнад
лизоблю
572
575
9000
афо
бя
вэ
дят
едешь
иж
кэ
мп
оу
ора
осе
пшел
рет
рент
сса
тремя
уступ
фоль
хак
шра
шторы
шшш
яков
ярки
❤❤
##d8
##снои
##рск
##ься
##жити
##юк
##пт
##пять
##ину
##ада
##для
##чв
##чз
##чом
##ума
##ште
##шитель
##im
##if
##эль
##гни
##гент
##ъяв
##🎂🎁
##zh
##👋👋
##🌸🌸
##😋😋
пота
натер
##лие
##лиеи
##лаз
##канал
##нины
##ничество
##нала
##воры
##еме
##емых
зау
задать
задол
задум
##рине
##ныч
##донос
##льца
коме
коту
ковар
косить
козе
котел
моду
дожде
откло
отписы
рая
##ляя
##неров
соф
собою
пригля
##вину
##визор
##мает
вора
востребо
##сиком
гора
годо
##чивали
##шины
рои
родном
калу
катор
жилось
делись
##гивать
##гивают
разлу
разок
подмет
подчер
##мели
##пие
##чел
боток
суде
сухие
очка
веро
##парт
руса
ружье
теща
кучи
кулина
стаи
парал
ваню
ваннои
дури
духе
##шах
мигран
мужеи
репо
реша
рестав
##ньи
перекус
своиства
закре
луд
луны
белья
бегом
саиты
##новского
##ствующии
человеки
##склюзи
вернутся
худе
хуева
тупее
чудное
##бее
главу
##жденныи
##дарю
лоды
полчаса
опровер
печать
грузин
смотре
работающих
дичь
умение
##хих
бесстра
грани
чистую
сыра
сыворот
удавить
ебала
ебаль
мужского
славные
ценят
правыи
оператор
тихии
браке
хуила
вздума
корню
##тях
чаша
рынка
заказывали
крестьян
##ительнои
обрати
смелые
прекрасную
положения
бандера
целые
##ьева
геев
болела
крышкои
алле
купишь
пидораст
нормальное
открытия
машинои
надежде
дураку
великих
##докс
раиону
стихов
стирки
долбоебом
глубже
спир
неис
звонит
дышит
закончить
роты
покушать
обиду
брони
предадут
рассказы
закрыла
👍👍👍👍👍👍👍
долгов
обычных
позвонили
сливки
таланты
отправка
козлу
уровнем
позорят
вырасти
недодела
небесная
собаками
двули
уничтожил
информациеи
встречать
##195
непосред
уродство
тупоголо
сраные
установили
##709
одессе
сдачи
спокоиствия
среду
ссыкли
##158
потас
пьяным
свободное
участвовал
игрушек
брез
собачке
##ренько
покупал
жуков
ремонту
накоп
заработала
орхи
вспомни
бчо
госдума
##ционных
зуба
дождеи
аспи
гробу
огурцами
старшего
запчасти
полянка
пятна
включаите
сравнение
сниму
цара
острыи
сомнении
повысить
повышения
ураль
николае
виднее
регионов
золотом
истинно
истинная
отдельныи
диана
присвои
штанов
украинские
хранили
перемены
дамо
признал
убедите
бывшая
приезжала
переживать
боицы
зчб
грамотные
компань
песнями
храме
храмы
профессию
учительницу
домашнего
хвостик
##марк
медведеи
честное
заднепри
следующая
следующем
встречали
восхищения
1982
запросы
шутку
карманах
поедет
успокаи
активных
оправдания
услышала
тетка
олечка
коронавирусом
коммунизм
захватил
оригинал
ерун
фашистам
оставшуюся
понадоби
ежегодно
нажраться
неизбе
##стрыи
общаюсь
оооочень
цып
##ххх
воспоминании
кормим
забудем
логике
психиа
беременность
искал
схема
цветочек
мульти
развиваться
норме
экране
охоту
разберется
проголосу
сбежала
отчеты
улучшить
стрижка
запаса
деятельность
начальника
обсудим
обсуждение
уборщи
сотрудников
обвинять
отмажут
битва
наживы
классах
мощныи
снимите
подъезда
самолете
ученики
деревянные
закроите
свинью
секунду
кандидат
сообщить
традиция
израиле
полицеиские
фасоль
дождались
ракетныи
##спасибо
макароны
расстоянии
наслаждаться
чувствуется
плитку
ссука
наглость
вагон
брошенных
оппозиция
документами
корзину
пределах
белгород
аэропорт
охранник
новороссии
следовало
разъяс
божия
цивилизован
##августа
еблище
отечественнои
бессмертныи
померить
вирусы
килограмм
укладывается
геннадь
ефремову
километров
стельке
дезин
попутал
##iber
рюкзак
деградация
понадобится
невоспита
умоляю
еванге
паралле
bit
sа
аха
афи
ааааа
вступи
врятли
гем
грем
гнев
гнус
ек
елены
икры
иор
ками
овец
плу
рвется
сак
хреб
ценно
эст
энг
🌹🌹🌹🌹🌹
😃😃😃
😆😆😆
🙏🏻
##рми
##рского
##яю
##яи
##тную
##жья
##пес
##ае
##лков
##нением
##мс
##чк
##усь
##шs
##is
##945
##цена
##щут
##216
##ct
##🥳🥳
##💣💣
##🤭🤭
##раны
нанима
нето
##лику
##личка
##лагер
##гона
##каю
##нис
##даете
зачи
задох
##доваться
костеи
прогло
проходите
пропит
выслу
допу
досу
отбить
соити
собор
припра
##ебо
ворон
военное
водкои
вопреки
##куны
ночнои
##дуар
##нуто
##нувшись
##чивых
нищии
рож
рожали
ростом
обстре
##мур
калит
писец
делить
девка
##гими
##нян
тыкать
##стическои
размыш
стереть
##пон
изю
##честер
очер
вела
##пало
рудники
##щину
лижи
ливан
лидера
крапи
висло
стая
дум
минь
вампи
##скам
мух
синт
передали
##буть
ихние
доля
долбить
##ковская
работая
скакать
сестри
садов
получении
##родные
##крас
человеческая
верности
хуям
класть
чуд
чурки
танец
плавать
последова
голосов
##ждем
##енному
лобо
ловит
грусть
хачу
хаос
дикая
умрет
испу
труду
труба
трусов
физ
нихрена
интересах
массу
##берт
ударить
удачнои
нашлось
правом
земнои
совхоз
горшок
украшение
украшения
поими
обож
взве
коррек
девочкои
траги
##кладки
##зываешь
круго
крутится
заказов
утю
потомучто
гусь
положила
##рюга
написаны
будущии
успеешь
живодер
пидорами
взялся
открытую
бирю
богаче
тротуар
машинах
пораду
дальне
##женного
мирные
забыв
счастливую
подаваи
поддержали
ужасные
фара
возможностеи
фура
неугод
подскажете
сволот
замечания
болт
спешит
бронете
благодарностью
мяко
сумка
сумку
##литет
зарплате
подокон
умели
уместен
хохлят
выплачивать
отправляю
бережет
эксклюзи
готовыи
мета
марте
марья
##108
двум
уничтожения
скинул
продолжите
продолжаться
сраная
##705
казак
казел
душевныи
душевного
сдохла
##123
воспитан
##305
православ
федоров
высшее
покупает
поверите
породу
сахалин
псина
достоиного
судьбои
готовится
##ждено
сотворить
происходят
удобныи
быдля
голубых
асса
##итаться
дешевыи
гражданскои
льва
сладкого
😂😂😂😂😂
колоколь
использую
поменялось
продукция
узко
блока
штаб
заботится
прита
слушают
пиндос
признают
солнышка
обычное
выебут
реклам
грамоте
бесплатную
выкинул
звере
таиге
карантине
следующего
яицами
укропа
1984
напали
фигню
бендеров
республику
прикольная
иоан
говню
тексти
похожая
опущенныи
иуды
воспитывают
мягкие
##креп
либераст
либерастов
откроется
скрывать
диванные
пластик
захват
наглыи
номером
оставят
оставлю
упаков
выхожу
пироги
нажр
описы
запомнить
##доровья
выпустить
западных
небольшая
##атру
купальник
яркие
раздавать
виногра
центральнои
хлопот
коротко
короткие
руководители
прибыль
собрался
блюда
приведет
разберитесь
потратить
упоро
удивительного
состава
известныи
уборка
##тащить
очаровательная
премию
педофил
выиграл
призывы
стесня
бессмыс
ласковая
самолета
мамины
##😭😭😭😭
застрелись
рубашки
многодетных
бешеные
планшет
круглыи
семечки
чьих
выступать
предполага
ильич
присяга
аппетитно
энгель
платошкина
ммммм
ловят
узбекистан
узбекистане
епта
икона
корыта
гребут
италии
империя
комары
замерз
примета
здравомысля
прогулки
взятки
какао
природные
маргарита
партнер
патриотизм
тенге
чинуши
возникают
следовательно
материнскии
введите
##🤦♀🤦♀
светофо
светофор
отобрать
куртка
наступил
калории
зрителеи
художника
силико
сигареты
##👍🏻👍🏻
прогресс
председатель
приюта
кырг
##rig
всеобщее
##оvасн
оскарб
сертификат
бездари
табурет
ульянов
условно
побыстрее
минимума
недвижимость
инстаграм
плесень
обошлось
комбинезон
ювентус
повзрос
jpg
единоврем
576
vк
астры
брус
вши
впра
греи
гасить
джек
ени
есле
зрение
иса
клин
лер
пше
тц
ужи
уба
уходил
хр
хря
шин
шлем
щеб
ых
эстра
эдита
юго
яро
🤣🤣
##без
##ьется
##жников
##юшки
##ием
##лака
##гнул
поши
подела
погля
неси
неду
небом
##лив
##ваш
##вата
##итета
##кот
##даешь
##наго
##вою
##воре
застои
засол
засса
##рину
##дово
##доки
коси
косы
кобель
котиков
проток
прощение
пропустили
проебал
бык
##диш
выгнали
морю
донести
##тих
##тинка
##тировал
оту
отпе
отнять
отписа
раны
раста
##ляися
##тале
дана
дарите
призе
припиз
##виз
вопло
военнои
##кун
##боров
##мии
##мись
гору
##вера
##енькои
##нутое
##стое
кари
кабы
качать
пидж
##газ
##няете
##стиков
разнои
##бился
##жины
нутри
##бар
стас
подвер
##жалась
пулю
##сосы
боз
суи
сувер
судом
вечную
русскую
##щили
преде
ставьте
станешь
пачку
##ряют
сило
сильное
репута
меняли
перечиты
перепуга
##меры
##пусть
страсть
распло
инфу
скачать
добер
##менко
скре
бетон
сау
##мыми
верте
оставаися
##воине
левая
лежу
лекси
кончить
чуда
пласт
авст
позва
##деися
красивеи
покале
продано
##леные
##ленными
жаре
собран
интерне
лодке
##чью
служите
полета
опг
опол
сделана
сделаны
##тельны
пехот
пекар
скотину
хаха
лапа
влад
##ранья
дика
дикии
уменя
умным
кидают
бесси
плов
чис
армеи
сыром
удалила
ебаное
20лет
##дента
##тивные
##тивнои
терке
##страя
комуна
врагу
админа
##ловскии
получим
вопросе
##ходило
чатель
понимая
крохи
убрала
воинов
смешать
роддоме
##иках
прекраснеи
главные
полоска
бандю
говориться
праздну
двадца
трепло
трон
хотябы
солжени
тяж
тянуть
наивные
наидена
фууу
радостных
глухои
случая
магадан
магазинов
покуп
посадки
петра
расскажут
внуком
оплачено
образец
шир
гиль
гидро
начинали
##дроб
запаха
западом
западнои
таланта
талантом
собирались
снаи
сектору
примеры
готовые
##итыми
несите
четверо
##103
тысяча
называете
гнид
гнилые
огоро
##166
сдал
срезать
набрала
воспитала
##185
свободнои
потеряет
мальчишка
пояса
ремонтировать
встает
шлюшка
офис
образован
##дишься
исполнится
министров
глазам
пенсионном
##вольте
идеа
идеальная
старым
##ьтесь
актеру
дождетесь
заметить
газон
газеты
газпром
ограбили
полянки
пятер
пятница
включите
цари
поживем
##ковато
дружныи
необходим
повыла
митинго
видны
отдельная
погибнет
помеха
научился
удивительная
храню
фонде
клуба
слушала
героями
##443
##рованнои
морозов
забери
привычка
справедливыи
прочитали
дядю
произошла
пляжа
дурку
обращались
обращаюсь
соотно
встретились
тьма
выкидывать
измену
замке
выписать
окружают
разворовали
##ладится
##надца
желтые
##летели
нападение
нравился
наказаны
выложила
собственных
энергия
приходил
наблюдаю
натуральная
остановке
тонн
тонкии
уебищ
инвалидом
улыбку
улыбнется
либералы
либералов
моральных
##вовна
записьнужна
защитит
лекарств
находился
клубни
##рьевич
безмозгло
воскресенья
поездка
жополизов
святых
запустить
туристы
табак
оформление
могиле
убогии
нижнем
таракан
руководством
жертв
штопа
забираите
аптеки
ценим
грудинина
библия
веревку
оставляют
химия
орех
шоколад
громче
поцеловать
спрятался
планируется
выставила
изолировать
технологи
добыл
коррупция
племени
успокоится
просмотра
коврик
раствор
коммуналка
старуха
испортили
выступление
напомнить
зелени
яхты
спортивныи
обманывать
##🔥🔥🔥
смущает
обалденныи
благоустро
кипятить
примити
переобу
роскошь
отрабатывают
ученыи
арестовали
переписку
позднее
подозр
восстановление
мурашки
слабак
опрос
интеллект
цитата
процедуры
прокуратуру
ипотеку
абхазии
брежневе
захар
обаятельная
доченька
эпидемии
приорит
богиня
непременно
пожизненное
##свг
учреждения
полковник
госпитали
изверги
воздастся
кирилл
пузырь
панель
катимся
личико
пятеро
маразматик
поправок
лутше
элеган
подзаборная
лабирин
браслет
религиоз
преодоле
неоднократно
аксессу
лесоповал
сантимет
неописуемая
диагности
мерзавец
энгрос
cop
gи
lте
na
news
sт
viber
брои
вна
вене
впло
вставля
вводите
вступа
вьет
гряд
дь
ещ
едите
еgа
зять
илю
клы
мo
птен
рты
слет
тая
уст
упомина
уступить
улар
фразу
члены
шпри
шмара
эсс
яма
яга
##сн
##схо
##ктов
##бр
##бв
##ящии
##жую
##житесь
##жками
##вр
##вкои
##вскии
##дками
##na
##ул
##зен
##зако
##энер
##cf
##💓💓
##носы
направи
надеися
нека
нехо
негра
неволь
некто
##лично
##ститель
##вательно
##вателеи
##ковы
##даре
завы
замы
заступ
заливать
засыпа
проле
прома
промо
променя
проходя
провин
топор
вызывать
выжили
вымя
выкор
мосту
доити
доску
##тиву
отчего
отслу
отжима
данная
соде
соски
сози
прима
припом
приеха
прилетит
вод
ворку
##сиона
##мие
носа
гог
##веть
нифига
хода
росла
люк
людо
буря
обь
##чаток
##луют
##сторон
кастри
пися
спереди
##олок
маты
##гиеи
##цина
разбили
##жимо
стеб
подши
подвал
##помо
изве
избивать
##сались
бочки
бочку
очем
самар
##паны
##паешь
ручками
телу
тежа
лис
лиши
липо
лижет
лижут
пресс
краше
вины
вадим
валите
дубо
бава
##шатся
мировую
месть
меха
мыла
сифили
рекон
##верх
детали
столик
перепла
передума
безы
бездеи
безвоз
долгая
инду
тамбов
котом
луки
лусть
жизне
бето
бежен
серая
сап
##новки
верил
левыи
лечатся
тума
тушить
##стречу
плати
покажут
продана
продадите
##ленка
##рьев
чертеи
комба
однокла
ложе
ломо
красных
фотомонтаж
##тельную
большего
ребро
любез
##ступил
здравствует
правде
правдои
лазить
лабора
услов
семян
мамка
исходя
кишка
трут
трубо
фито
интересных
интереснеи
колго
##ровался
##перации
удается
слежу
2013
ценит
праис
желаете
##тивная
тира
тибе
пенсиеи
гормо
терра
поиди
ведьму
##рети
104
воспа
имеите
имеющие
корнем
парф
детишки
##кладка
освои
чаика
шаика
смешные
смеялись
родня
гугл
еблу
прямая
прятаться
болеите
бабульки
советскую
богато
вмеша
выполнил
попросил
здоровых
мозго
наигра
фаи
надю
охоты
##тридевятое
##строить
стиле
именами
легкая
камер
посадил
предаст
##ведению
##146
хозяиства
хабаровскии
закрываю
толком
внучку
обычного
достанется
размеру
подонка
умель
гиа
хохлам
сообщество
деиствительности
языку
слышите
обещать
##лкин
задании
собирал
##794
экстра
экстрем
выражения
двуно
холодное
создают
плечах
любимыми
занимать
занимаитесь
занимаетесь
produ
гниль
красавиц
встреч
грядки
##125
ссылкам
##722
владивосто
укреп
15962
##769
отечество
начну
свободныи
2005
взрослого
зимы
фельд
вырубили
бредо
##новила
погибают
804
строил
строику
ремонтом
накорм
##745
##132
переводят
##289
местная
достоиное
орфо
результатов
героиня
##ционеры
фургалу
мудрая
поддержим
китаискии
способна
поляне
сравнении
царица
##805
молодыми
дружок
сомн
поделился
дембель
симфе
симптом
необходима
обещает
повышают
митингах
урале
подписаться
заявки
поменяю
помешает
батько
двереи
блог
блогер
горячие
заботливыи
прошлым
взгляда
заиди
признает
преступники
разошлись
разрушили
вонючее
чужом
глянуть
чиновникам
поднимают
курицу
пиздаболка
дурнои
замечательнои
встретишь
попробовал
укажите
домашняя
опасности
замки
окружении
сказочные
3500
перевода
разуме
восстанавливать
частные
солдата
губернаторов
евреиская
блево
соответствии
приходило
ошибся
##😘😘😘😘
обсуждают
удивляются
жалобы
откроет
тишину
ролика
захватить
морально
музыкан
прыгать
задержали
мерзко
клубнику
беспредель
опипе
франция
рабами
выдержит
учебу
глубокои
забудешь
столовых
ухода
короткая
вулка
капусты
характера
наводить
порядочные
собралась
фердина
зажига
##емость
складе
пострадал
разберемся
##🌼🌼🌼
исключения
миллиардов
окошко
металла
генераль
забора
строительства
лентутридевятое
усынов
усыпить
битву
негатива
персонал
клетке
трамп
выиграла
батареи
серафима
гениальныи
есени
упыреи
навстречу
грудью
коррупции
категория
позицию
ахуели
бездельников
спасают
алексея
комментариями
называемыи
чемпиона
остановиться
тупыми
безмозглыи
пчелы
иконы
гармони
колхоза
ладони
педагоги
далбаебы
трудяга
трудяги
необыкновенно
лопнет
обижаются
обновление
воюет
единоросы
промышленности
инструмент
молотком
пациент
зеленого
съемки
инфекции
кукуруз
кумир
омонов
кобры
красноярск
наряды
гуманита
испытывать
дрожжи
поднимется
присмотритесь
федоровна
бредятину
превосход
сливочное
стекля
ослож
деиствиям
побережье
нескольких
русофо
членов
макияж
швеиная
распреде
репрессии
арсена
усоп
работода
снаряжение
безнаказанность
дотя
заметьте
вознаграждение
босоножки
мешочек
антибиот
гарнитур
тщательно
быстренько
императрица
благослови
поделаешь
product
240
816
950
bо
dа
lе
land
s3
sbег
us
аста
абор
алина
впи
вправ
вранья
гну
гсвг
епа
ждете
зин
лгб
мт
нра
оло
осли
осте
опечат
прут
раки
сже
сча
снг
утер
флю
хь
чеб
члена
шло
шот
шты
эдуар
##сч
##яна
##яют
##твра
##юра
##хни
##вла
##вную
##вшее
##аго
##дере
##дене
##ow
##nik
##нство
##нскои
##чере
##🤪🤪
##зде
##шне
##гас
##ць
##sk
##💕💕
##vet
##точек
порос
поган
покормить
##нор
##ради
нату
налить
недол
##стере
##стное
##вае
##вав
##вация
##итер
##кается
##наро
##логе
зади
зары
зашить
##рись
##доба
##льство
##льщики
кода
кобе
всле
всерьез
##рело
пролета
такти
##дира
выре
выяв
выходите
мочите
вселеннои
дор
доки
додела
добира
дошла
доставля
допустить
##тира
##тиком
##руд
отчиты
##нел
##тации
##леть
дары
сосала
приг
привозят
воровал
##ситься
##сион
ноче
ношу
нович
гоме
годик
годика
##шевели
##веш
##чиваться
нисколько
ходь
ходишь
обс
обр
обходи
обрести
жиру
##гана
деточка
##телен
мане
мажо
мавз
тык
##зана
разрых
##билы
подго
подку
подработ
своев
##жатся
##пию
##пилась
пуго
богда
боимся
##палась
рубить
ругаться
##щиком
теlе
лили
лига
ливер
личка
личная
преу
пребы
предать
презер
красе
виден
еслиб
станок
ставила
старин
стадии
палку
мелки
больными
посели
сид
насмот
реже
ревизор
перешли
переезжа
безру
безграни
индеи
интим
скамеи
васю
лучи
бедного
бесятся
летних
человеческих
верблю
останешься
возят
сложнее
сложится
таги
тащит
помоики
плачем
##дника
авт
##бец
черему
карт
слух
слушает
##филова
ребено
печени
ооч
##фоне
хап
усра
серые
дивер
вообра
умол
умнеи
кинули
кидает
труп
трудиться
##хивают
народным
помя
удара
получаете
цензу
акт
##ющимся
дерз
держал
горле
братан
поимите
любопы
русскими
взб
пардон
игри
траве
травои
чаем
частности
рыбои
1974
маломер
смеша
короле
коробка
целе
молодца
рязан
будущие
дебильные
взялись
вдвоине
отличить
треуголь
богатым
проблядь
живущие
поражаюсь
весен
величие
согласитесь
здоровои
поддержке
замечать
молдо
молюсь
молчим
списки
списы
##508
камнеи
проснуться
бросят
созре
##148
мерзав
читаете
внучек
мордо
подождать
гиги
128
125
польшу
стреляют
стреляли
завтрашнем
выплатят
торпе
спасите
##795
##368
пиздаболь
вырастили
##щенных
маркса
рабочим
создает
тысяче
криво
казни
##124
провода
проводили
##ющиися
дорогого
укр
##303
##763
##торами
радуга
радуюсь
проверку
фашизма
федя
степан
белорусь
высот
клинике
##чешься
страшнои
1800
букв
смеи
натали
шлюху
капитала
крема
местного
достоина
парадокс
возьмете
возьмешь
беларус
искр
заслуживают
предложении
налогами
фургало
уебка
горошек
общественном
способно
голосовании
помидоров
##353
сравните
снизить
пожилые
участка
элект
передаче
награла
ставите
администрациеи
караваи
сбрасы
отделения
поменяла
ебучее
следующих
реанима
красноар
диабет
объяснили
наполе
тихому
горячии
украинская
клубе
лямов
помогаю
отказыва
убежал
чаиную
драко
разрушить
слышат
ебаться
серьезная
талантливых
выкиды
изменит
заплани
выпил
честность
пидорасам
третью
трахали
трахну
трахнут
кипения
михаила
врешь
школьников
желтая
баксов
дедушек
подъем
трогаите
похме
молчал
заслан
кошечки
нелюдеи
воскре
слабость
выбирали
оправдают
представитель
водопровод
тексте
фантастика
бумага
олигархам
маяк
защитников
закупка
магни
мирового
череп
нажмите
единорос
туалета
солнечно
солнечная
поезде
доказательство
повара
столовую
вкуса
сетка
шахтер
безопасность
палате
сарафан
авата
станция
руководителя
руководителеи
длину
херои
коляска
описании
взрыва
выблядков
поуби
приведи
венг
повторяю
попова
викторович
варианта
повторюсь
свалить
элиты
бульдо
оставляет
плита
преподно
голосуют
конфисковать
относитесь
относительно
пароль
посуда
беирут
стабильно
загляденье
флота
критиковать
натворил
принадлежат
гарни
грузится
михаилович
мощная
печеньки
гаджет
застрелить
грозит
жизненные
кнопки
кнопку
спросит
паразит
познается
познаватель
дожились
проверяют
сознания
столицы
вишни
футболки
расширение
защищали
тренировки
безумныи
желудка
изумительно
перечислять
фаса
тупица
помощник
придумывать
намек
госдеп
намордники
пидрило
комаров
отделении
ломают
фонтаны
пешехо
нехрен
грубость
воюют
мужества
испугался
штрафов
трагедии
скрины
ресторан
дыхание
сценарию
аэропор
тарелку
дисци
откровенно
декабре
тенден
гомосе
гнездо
бедола
колыму
одуван
больничныи
свалку
привлекать
пролетар
библиотека
подстава
неблагодар
хрущев
кобылы
геннадии
мнением
рубины
##немаю
##интересу
памперсы
полотенце
треснет
станислав
локомот
похваста
экзамен
приключения
доктору
сочетание
гагарина
батальон
погладить
перспекти
кондиционер
изнасило
хамить
маневр
божьих
инфаркт
списания
удостоверение
координаты
пофиги
кавказа
лагере
крыжовник
внезапно
просыпаться
аеsтго
парикмахер
фотосесси
copy
212
2шт
565
913
cl
sp
бин
дров
елен
жрат
зд
золу
иро
кен
лч
мота
оми
осту
соле
упом
уходя
устран
фсе
хруп
чар
чок
эми
юно
ябы
❤💋
😊😊😊
😥😥😥
🥰🥰🥰
##dr
##сак
##сво
##снет
##сники
##ору
##бл
##дках
##ллет
##нл
##мк
##чои
##🙄🙄
##зел
##што
##шое
##шным
##eg
##ear
##фоб
##гы
##720
##796
##щенец
##тори
поша
пособ
покон
погуля
почерк
##ночке
наладится
##енте
##енком
##литесь
##лагода
##каться
##камен
##наде
##лову
зари
зата
зату
зашли
забил
заднии
загран
заходишь
##риль
##ристи
##рикос
##льскии
кок
кону
коче
костра
кощу
проход
прожит
прочув
прочесть
##асто
тону
выма
выби
выбе
выдать
модныи
вседоз
доить
досмот
##тилось
##тиях
отмо
оттра
отпусти
отчис
отходы
##ляюсь
##тают
давы
припер
приход
приклады
##сье
##вимся
##куль
##мино
ноге
носик
гово
говар
гонора
##дуют
низу
##стали
роса
розу
людочка
бура
общее
обдолба
капля
пилить
пидро
пирами
##гаются
спла
спол
декор
делюсь
##хово
маш
матов
мафия
##няшки
##зано
##жись
подбо
подхо
подстри
##менов
##ровская
пул
пули
##чествен
##совои
боица
сучки
вещества
вещами
##дых
чеш
##паите
ручка
##щин
##щить
##щикам
лида
лиса
кума
куря
кубов
старт
станице
дуло
духу
дурить
##чностью
базу
мелька
мешали
##пек
##петь
болью
посчитать
сивои
реку
##терии
##мерть
страши
странное
расц
раски
##чему
ингу
молочка
работник
скатер
добру
деньгам
лучик
скру
белень
бедра
бегите
белыми
севи
седина
серого
сажали
саровскии
##цын
##ствуете
##ствующих
вертика
остальном
леит
##пробо
##платель
кладут
слову
импот
плав
##дников
позе
гале
##инг
черты
лоток
слуг
полз
фоток
большеи
нужная
правую
дорожки
лучшеи
хах
харю
работах
кише
добрыми
интересо
##ительны
##ровалась
чистым
арте
удачныи
##ченными
ебальники
##стыми
слабые
ценныи
##лемент
тери
брака
152
всяком
доброму
доброжела
10т
##страхо
восхва
взлет
ответу
ответишь
##тями
8927
8983
чате
рыца
1979
правильного
кресле
крепост
утка
обращения
похороны
шарик
смелая
родными
губки
коробки
##вляться
ебнулись
августов
начались
связку
пидорасом
билаин
живущих
поражает
весели
денек
денечка
мамаше
подарила
томск
проблемои
наидем
ужасов
маленько
фур
шевели
кампа
зависи
болтов
дык
дырка
закончатся
роте
смертныи
свидо
свинар
бровеи
очередную
закрытыи
мерить
меркель
толпу
👍👍👍👍👍👍
мордои
гинек
строите
рецептов
хохлами
выплачивают
торже
странами
курва
начинаите
земляков
золотых
##варивать
рисковать
западные
собираите
собираться
ресницы
##799
берешь
выработ
хлебо
##385
##382
##нутым
марк
марты
езжаи
уничтожению
назывался
скинули
скидку
гниет
скучать
166
записать
подобрали
зелено
сдохните
руководить
тяжелые
волочкова
отель
начнутся
пьяном
проверьте
потерялась
абсу
абрикос
высшего
климат
80х
строика
строике
десерт
высоцкии
накопления
наташ
образованию
##133
стенки
стуле
стоила
стоимости
результатом
показательно
показатели
божественно
заслужила
вспомнит
цветом
турк
общественных
зубов
грох
беларусии
двою
дворы
политикои
съел
мечтают
олигоф
##356
заполо
бомбы
каска
зеленскии
картошкои
подарка
мастерство
мастерица
включи
##408
подругу
красотуля
умерло
администратор
стараемся
злость
милость
барабан
перестать
золотого
отдельные
добавляем
петуши
помещение
помещении
сварить
иваново
сосна
научит
научится
родственник
удивлюсь
травма
аифон
дрочит
ворона
заиду
боялся
ожидала
преступников
пригласите
стерва
наркоза
вонючую
патриотов
выебал
бюллет
танц
сооте
грамотеи
вакцини
хвоста
выживает
занятие
округа
ребятки
хуевыи
зерна
разворовы
третьем
третьих
американскои
беспоря
беспомощ
чвч
школьную
захотят
захотела
нравилось
нравишься
сандали
услугу
адвокаты
бензи
бензо
культуре
экспеди
использования
оправдать
жирные
жаркое
отражение
отстрел
обсуждается
кормлю
кататься
иудеи
##курсе
##яяя
предательства
предотвра
пластики
приказы
обосрались
упаси
кисловод
##гвардеи
мерзкие
клубники
выходе
проклятые
позав
выставляете
туалеты
манчестер
шансов
доказал
симпатии
копии
плакат
плакал
ухожу
дождемся
пандемию
осуще
продлить
пожалеите
профессионалы
историеи
раионах
развивать
бандеровцы
длинныи
возмуща
исключение
##апк
поликлинику
хруста
емкость
преподобныи
уборку
скромно
генератор
премьер
шедевры
спецслуж
колечко
резиден
немецкии
страничка
упадет
лампа
поглу
десятков
батарея
напрямую
михаилов
зомбоя
эир
навре
ласковые
недовольные
эффективно
жизненныи
здохни
вылезла
уютныи
вытворя
смелости
нарисовать
усатыи
хрони
##🙏🙏🙏🙏🙏🙏🙏🙏
испога
входа
кузбас
хаиям
мероприятие
гамлет
крючком
максимальныи
эпоху
лозунги
оборзели
японцы
уникальныи
природных
зеленои
производитель
набережная
девиз
журналист
журналисты
интеллекта
комфорта
положительныи
молитвами
джон
прокуратура
танюша
отобрали
явление
контеинер
##млн
торгуют
зоопарк
обнуленыша
космети
оборудование
барнаула
уведом
мандаво
корректи
проработала
истреблять
стерелизовать
gоld
багаж
##глазые
##глазыи
седьмого
центры
трактори
##снаб
преобра
питух
бренд
старенькии
менталитет
извращенцы
лдпр
ищешь
накуи
обьявление
рубежом
закрепленном
безнаказанно
sima
экипа
лечись
прапорщик
розыгрыш
соловьева
расчленить
рыжего
убеждаюсь
поскорее
собянин
опрыски
драгоцен
засранец
нттрs
круглосуточно
ерундои
вислоу
бронетехника
##right
реконструк
фердинанд
разрыхли
презерва
copyright
7000
lа
tt
анус
гд
дл
днк
еа
зр
зл
иси
исте
кво
лям
мемо
ням
омер
оон
пени
пье
питаться
сн
сит
сба
сити
счаст
сваю
сбили
трена
уступа
цем
ции
чите
швы
эмб
👍🏻
👎👎
##сное
##бам
##бби
##тным
##ько
##ись
##ице
##дко
##дака
##дными
##oc
##нте
##нце
##нск
##мку
##мес
##зят
##шам
##шное
##штеи
##ip
##tr
##116
##130
##115
##900
##цет
##gн
##b6
##❤💋
##ud
##😝😝
##тового
почки
повар
подель
полюб
##ровое
##рано
нале
наеб
находит
неит
немы
непре
нефиг
##ливал
##стром
##итка
##воци
##вости
зача
завели
заступи
заменили
##кис
##льщиков
костро
кофеи
всо
прови
проехал
промах
проведения
пропустил
бывал
выя
вывер
вывали
выдох
вычисли
допи
дожил
отв
отбира
отчество
отпор
отхуя
##лялись
##неют
##нецы
##тае
##лека
давит
привела
прибила
придержи
##мала
военная
возили
ноз
носятся
##шело
##дущии
##вещен
##нута
##чиха
ходом
бузова
обсе
облик
кагда
пидер
пинка
пищу
##гаем
##гались
##теле
малая
##няло
##нялся
##выбор
##зались
разд
##жились
подлыи
поджечь
##поро
судили
веша
вечные
вечнои
##дым
##пав
кран
висят
кустов
кузов
ктото
пасти
паха
##тут
дурка
##гую
басту
батон
##шаете
миф
мех
мыли
больниц
поспать
сизо
значок
детены
стобои
перегру
перестрелять
##бур
##бурга
безли
страху
##обе
скачут
добрую
спасибочки
##онка
##менте
##ментировать
заклина
лужи
сква
бедность
сестре
селит
селах
саль
сажен
##сын
##родная
оставаитесь
лека
тура
туал
платила
красивы
продался
жажда
компре
комбаи
головку
лову
лодку
ползать
опере
песика
думаем
дорогам
хапу
латы
женское
смотрятся
диски
дикие
умницы
предвыбор
##довка
бестоло
колли
##спон
чистки
##анныи
##тному
##берг
удач
следи
2012
##денные
##денного
тиг
светлои
##совка
русско
восприяти
кормите
8928
понимании
1968
крошка
крутая
крестья
утки
обратилась
ебнуть
ебнутыи
связала
россиянин
дебилу
дебилам
##шности
отличаются
песча
ребенке
трижды
отдадим
богатеи
дальнем
евпа
евдоки
объяти
объедин
денежные
выполз
заработок
зовет
##ненко
стильно
долбоебам
грехов
спины
##🙏🙏🙏🙏🙏
##драл
камере
народнои
звоню
почты
болеи
болтать
просро
покупке
обижен
предателя
государств
очередного
хозяике
рассказывали
читаем
мяч
оплатили
подошло
подождем
гибри
простят
рецептик
хохла
хохлу
свеча
свежем
выплате
попадешь
попадает
счетчики
спасения
отправлю
грибочки
творческии
##зким
##369
позорит
пиздаб
вырастит
разведки
знакома
знакомиться
орган
##388
марки
##102
холода
холодныи
гражданина
называешь
ремень
красавицу
встречаться
168
среднего
##708
##портаж
произвол
повесе
спокоинее
##129
##184
девять
понравиться
##767
##тинскии
пьянои
##785
цини
чбч
высшим
существовать
клини
клиники
порою
мальчишек
пропагандо
реальнои
купят
высокого
наталь
наталия
фактов
##743
##графия
организме
идеальныи
фургалом
уебать
горох
общежити
грязнои
дождешься
голубая
мудаков
особыи
гроза
старшеи
вбро
вброс
съела
способности
бомжеи
отдыхающих
львов
поляна
подарит
подарками
яблочныи
трудную
борще
борется
подругои
символи
колодец
старалась
караван
водителю
погибнуть
оскорблении
отоз
железныи
заботиться
хранится
переми
вакан
вороны
косме
героем
уиди
ожидает
приглашение
практика
##655
пожелание
условие
воровства
вонючка
дядька
стихия
произоити
бабам
танков
грамотная
душит
мамочку
выживет
посылки
товарищеи
заднем
заговор
заготовки
третьеи
пенсионера
трахат
встречались
указано
губернатором
превратить
молчание
засрали
устроиство
блестя
выложили
культуру
предлагаете
активные
говнюк
тонко
тонкая
национальныи
доступен
жалость
мягкая
сообщениях
предоставить
обажаю
захватывает
сосиски
наглые
конкретныи
прикалы
приказу
мораль
контроля
мелочеи
мелодия
🤣🤣🤣🤣🤣
поселения
производят
принципи
магн
жалеют
ситуациях
октябре
ушами
позави
опиll
московские
##вшими
приносить
забавные
стремиться
контактныи
дочерью
законами
святыми
ветерок
забудет
уголовное
уходу
нищете
нищету
центральныи
убогие
убогая
инфра
хулиган
ножом
покрытие
загрузке
халява
руководству
задолбал
верхнии
перемести
прививку
духовка
замены
норму
киева
журнал
гондона
поподроб
доллары
организацию
организаторов
гарантии
собственном
свадьбе
дополните
кукушка
отмечать
голосуи
милашки
скромныи
притворя
загадо
содержания
иисусе
орехи
шкафы
битве
лебедь
очевид
вкусняшки
гараже
варвар
различных
кончились
построен
многодетным
связаны
подушки
гребаные
переиме
гибнет
турнире
испортил
стиральная
вакцинации
вишне
работяги
снято
сняла
называемые
фраг
приезжал
литровых
зажравшихся
благословении
краснодарскии
оформила
сократить
вручную
тупым
пропаганди
кадром
придумывает
##🤣🤣🤣🤣🤣🤣🤣🤣
поводке
##вшегося
почистить
зимнии
намордник
смородину
наберите
охуевшии
черножопые
сэко
тараканов
обижаитесь
плитки
луганск
аборт
саитах
испугалась
самоизоляцию
дистанционно
отрабатывать
подчинен
гавкать
одеты
диспет
набережнои
ппц
кокорин
астрахани
консультацию
гнобить
нитки
директо
обстановка
абхазию
психолог
поднимите
стульях
болячки
выстрела
владеет
наследству
регистрации
чепуши
обнуленыш
распродажа
нахожусь
договора
схеме
финансирование
нехватает
каково
ресторане
пендосов
пространство
харьков
станисла
тунеяд
сортире
рыжую
одеяло
ассортимент
отстаивать
преклоняюсь
подростков
лжец
нищеброд
номере
кемерово
афгани
выписали
родослов
сестренка
латвии
швеицарии
поголовно
барабану
фронт
пословица
изоляции
квитанции
обочине
дозаказ
ассоциа
противопоказа
потенци
незаметно
рентген
ярким
дальневосто
лгбт
вседозвол
леитена
абсурд
116
520
999
gа
ma
my
tv
u76
аки
аба
аут
азе
абал
афана
бк
втя
вступить
врете
врио
вконтак
гет
ета
зю
ипа
нн
нота
ож
омар
пез
пака
сны
сходила
тo
тфу
убои
хх
хла
чак
чво
шва
шмот
эро
ява
🌷🌷🌷
😱😱😱
🙏🙏
##рди
##бз
##тво
##етов
##жень
##пто
##пится
##пако
##илась
##хро
##хер
##хта
##альным
##дры
##a8s
##уса
##зды
##зами
##шного
##шами
##ek
##ig
##ite
##фар
##гс
##419
##175
##ker
##ce
##pl
##☝☝
##тоны
полеи
покуда
поставля
пострелять
погреб
надума
накру
наглая
##ену
неком
негры
нежных
неинтерес
##стится
##ваеш
##нив
##нино
##кою
##вон
##воде
зачаст
застрои
занес
загло
копа
кострировать
##деет
##дело
этож
прор
прох
проза
точ
таков
##итеи
выми
высы
мосты
док
доли
доеба
##тима
отк
отхо
отнима
отвя
отбор
отнес
отбили
отменил
##лята
##нель
дашь
дань
даун
сошел
сосно
приши
призывать
привел
приходя
придне
##сья
##виль
##виенко
##манов
вози
вошла
##кул
##сиз
##сину
##сился
##стье
ноу
ножи
горои
##чиваем
ники
##еспо
рого
рожде
облить
##мовер
када
кабе
пина
спс
спреи
деваться
маха
##стике
разга
##равни
##покра
изно
##жаете
##жался
##пик
##пида
пугает
пустую
пустил
##сона
боку
бочка
богов
сул
суете
чеки
рубе
ручнои
телом
краскои
вип
куту
кушаите
ставка
стажем
пах
падаи
варят
##гуль
бабе
баночка
мине
милеи
##еням
мужество
мудило
сиси
сирию
синюю
сирене
насмерть
егор
долга
рассо
##зировали
скатина
скажете
лупить
##зовои
бесят
бегала
делая
получение
##ствуешь
летает
человеческои
верха
лега
ледя
##прос
##проду
хутор
концом
тучи
клана
чужая
чуточку
слона
сложныи
сложная
форм
тал
гадю
красивыми
красивень
продались
##ленки
##рьте
черте
какоито
односель
##ждению
красными
слуга
##фил
пеген
правителя
грустные
скока
##рант
сериа
мамон
##циям
исход
кинула
предлагать
предъяв
##ительство
плотно
чипи
артур
убивал
удали
удалась
2010
слабыи
ценное
рожден
желать
телекана
дерут
##риим
гордости
термина
светлых
##арр
путинскую
эталон
часами
поиско
корнеи
господом
получились
убью
правильном
смеси
гуляла
гуляи
блины
сукам
пряч
прячется
геста
началом
крысу
крышки
##шаяся
дебилами
бабулька
месяцы
нормальными
советами
открывают
биологи
песков
надежно
надеждои
весну
подаро
мразью
##965
наиболее
##хаться
##вающее
узнаете
кварт
считаются
победе
шеф
спешите
фильтру
посадите
свидания
бронь
государственные
алексана
рассказала
мяу
сумме
городского
телефоном
##нимся
подор
подоби
гибели
122
сообщите
стрелял
соседями
попалась
идете
риса
слива
западныи
отправь
собирался
собираетесь
ресниц
##792
позорник
недостои
стыдного
занимаешься
лукашен
скучает
казаки
подобныи
одесса
##❤❤❤❤❤
##128
терпят
постоянного
состоянию
волосами
девчат
девчонок
едины
нахера
потем
взрослои
##788
абра
сроков
оказана
жулики
находясь
букеты
высоком
257
факел
исполняет
капитану
снимаю
##285
необразо
##графии
форту
книжки
папаша
угодить
рассме
близкии
плюсы
разгонять
выиди
старшая
политическая
помидорами
пригодиться
бомб
двигаться
лишняя
отдыхаем
касс
карточку
включается
пожилых
передаи
поделить
необходимость
чистоте
колония
ангелочки
##262
посмотришь
барана
частью
союзники
половинои
##248
столбах
востор
погибла
помешал
полезного
объяснил
штрафуют
##989
матве
иванови
блоге
научите
десантных
уксусом
удивлен
30000
травм
данную
убедить
убежала
##448
картинок
наркотики
пережила
воровскои
поднимали
подниматься
изменился
высказала
произошел
поступков
современного
нерчин
крупных
домашним
вакцинои
опасен
таига
бутылкои
заплатил
теплым
теплее
##шеннолет
похуже
4500
одиночку
ласка
автобусах
жестокое
1988
комплекте
нынешняя
дворцы
трогал
трогают
превратился
методы
карману
поедим
адвокатов
пользуитесь
пидарасам
потоп
тексту
мысленно
спорте
##ббб
естественная
направления
сельского
глотки
##😍😍😍😍
хозяевами
ориенти
эмоциона
бумагу
бумаге
фашистская
бросали
пустобре
упря
разобрали
разобрались
запретил
кабачок
кошма
👎👎👎👎
александров
реис
необычныи
проходим
общались
общаемся
отсутствия
выдержать
ооооо
троика
путевки
садится
солнечного
доказательств
небольшие
нефте
разбирается
разбираются
психически
палата
палату
саратове
авария
пандемиеи
могила
исчезнет
массажи
беременности
сноха
длится
марион
жесткие
деликат
перемеши
##ссель
увеличи
собрано
собрание
реитинге
рисунки
завидует
аптеках
обмена
мастеров
виновных
сломали
нуждаются
садись
привозили
именин
температуре
подросток
повторно
оставляите
наслаждение
скольких
африкан
мэра
конфиско
генералы
парово
оценили
преми
насилуют
отключить
шкуры
щенят
подключение
несчастные
несчастных
компьютера
теряите
съест
нюан
деревенская
паспорте
различные
гавна
гавню
недовольство
прочла
кончилось
настанет
ахуе
безделья
деревянныи
внутреннии
познавательно
коммуналку
разноцвет
ноябрь
богородице
волгограда
фруктов
договориться
кладбища
корабля
архив
победитель
европеиские
тупик
госдепа
вверху
жанна
огляды
законодатель
сковороде
баикала
караул
караулова
отработала
здравие
посчитаите
куклу
крюк
умудря
приблизительно
максимально
фальси
материалов
единоросов
недостаток
вооружение
вытащил
психушки
психушку
томаты
привлекательная
путиноиды
ковидом
сериала
госдуму
вынужден
сыграл
увольнять
граммов
задумываясь
феврале
париж
надписью
компенсация
диплома
митингуют
упорно
ликвидировать
лотку
ушах
немогу
обменяю
суставы
структуры
джигур
кустар
мотоцикл
засадил
французскии
ушедшим
препараты
палица
константин
ташкент
масштаб
джеин
дельфи
##десятых
перимет
фэик
вокзале
прихвостни
утырок
наборы
кинотеатр
пжл
принудительно
бриллиан
секретарь
постороннии
бутерб
гаденыш
посоветуите
бандеро
мвф
новерно
бункере
мерседес
челюсть
ухуд
мечеть
##https
витеб
##sтаg
маргелов
алоэ
тепереш
горбатыи
недоумок
амбиции
##квартир
дискоте
геленджи
гемор
сволота
кыргыз
лермон
пластмас
насмотре
##плательщиков
соотечествен
поглубже
инфраструк
зачастую
5лет
560
790
dl
mar
ser
ару
ате
апа
бх
бры
вжи
впу
вкла
гв
дри
доло
дин
еде
ети
едь
ебе
зят
иv
кз
кера
лая
лаком
мс
ога
оме
орали
орел
рен
рвет
рвут
рвутся
сцеп
уре
упу
угод
улов
упре
упали
фз
фит
хто
шкур
эски
№1
🎂🎂🎂
😭😭😭
##спа
##кнет
##кнулась
##оро
##бла
##бере
##брик
##яния
##тков
##ьевна
##пятся
##воло
##дению
##лками
##лверх
##ob
##мак
##зев
##шитесь
##эмп
##☺☺
##3c
##150
##цк
##цки
##щщ
##👏🏻
##fs
##♥🌹
##yд
##🤦♂
##🤦🏻♀
##тови
##товым
##точные
##торию
поща
поинтересо
##ровым
##нове
##новую
##номить
##раешь
наму
наце
накро
находить
нарезать
##енна
нераз
##лило
##лита
##лились
##ливала
##етика
##аками
##олки
##олеи
##нище
##ничек
##коз
##коза
##воров
##восток
##лот
зац
затер
залет
##сян
коруп
тов
токо
токои
тополя
бывали
бытия
##диеи
выте
моб
мох
моне
мокры
догнать
отсте
отреб
отчаи
##несу
##лером
##леток
сош
сочные
совок
припе
пришед
прикрои
прилетел
##жеш
вооо
##сируют
##бовые
нориль
гост
горах
##шево
##дуна
##енького
##нум
##чике
##чица
бум
буть
була
буда
було
общие
обсер
##лудо
каре
кару
каже
калы
катер
кастра
пицца
депор
##хон
мару
махо
##нята
##нялась
##зациеи
##циоз
размет
разнови
##баров
стря
подко
подмы
подпол
подлая
подлые
подлин
подхали
##ровкои
изре
##сает
##пис
##пим
пуп
пуст
пусти
пудов
##сора
##совыи
боря
сучку
очо
очу
очках
веди
ведете
веществ
##щинои
текут
либер
личным
лишил
преи
##тывать
виска
куха
ставим
паи
паром
важныи
баз
##шав
##шан
минера
дружили
##пела
больна
больны
муч
мучает
мухам
посоль
сиз
сиам
насу
режет
речка
речке
решении
реформа
знамя
##утвер
стопы
##ссиеи
переходи
передает
раскра
инт
инета
инспе
молода
луну
склон
беси
бедное
##новку
##цыи
персики
##супер
летним
верных
возоб
кончил
тупую
клапан
чушка
платил
ган
гадина
продажное
соберу
собери
компро
классным
лоя
лосо
лоха
красным
полем
полнеишая
опт
певи
##полу
скотов
харо
хаты
хахаха
лажа
успен
потомство
темные
дибили
кису
трусе
фикси
##ительница
бесцен
##неишее
плод
плоти
правильнее
маск
убирает
благоро
мужское
правая
##ственными
часу
любопыт
##совку
ведьма
полив
врагами
вкусного
##ловку
хозяюшка
осет
рывок
большен
понимала
1992
1969
убрал
##рены
круги
крутит
воинои
заказываите
полосы
началу
начальных
связываться
болею
алли
##😂😂😂😂😂
добавки
100000
открылись
берется
беретесь
треп
билета
песне
трико
отдавали
богате
хватать
цветка
цветения
пораньше
дальнего
объе
##женную
подали
попрошаи
##208
источники
здорового
тяго
##966
фари
фуф
узнавать
глупы
молю
греф
малышки
спина
спишь
везли
унижать
неимовер
звонят
болота
дырочки
спеша
##дким
покупку
обидели
обижаите
свидетели
созво
благодарные
лесная
лесов
доставать
моркови
шиф
шиза
строится
строителеи
отвести
польши
стреляет
выплатить
матерь
начинал
начинаем
земляк
риа
спасут
отправят
ббв
позорное
особенности
выбраться
несло
облаго
принимала
##384
##щенная
##106
занимают
гнилое
чудотвор
скулить
сражени
##704
##163
сдаю
сдает
##мяг
среде
средь
китаю
##726
постоянные
##186
депутатом
##765
##155
радуют
пьяного
проверка
20000
потеряно
озлоб
высшая
покупателеи
поверили
жуликов
пососать
купленные
высоцкого
придумано
##няясь
владимиру
исполнитель
##283
организовать
заработает
студию
птицу
продукто
каналах
затруд
фургалов
удобная
размеч
шума
близнецы
лезешь
политическои
вбч
мечтала
китаиские
##358
проживаете
прожиточного
пытаться
пригожин
бомбе
##905
касси
поляну
карточки
герман
сравнения
дружбе
умерших
поделили
поделились
колонии
награб
наград
старался
повышать
татьяны
доверяет
перестает
союзнои
##244
##243
подписан
истинные
отдельное
минздрав
восторга
##ебель
оскорбляет
полезныи
полезным
реальных
диаб
отож
василия
узел
штрафа
матвиенко
балтии
приснится
##серде
населению
удивлена
украинского
##739
церк
совето
травит
дрочишь
слушали
разрешить
ожида
ожидания
ожидается
бывшеи
##рованным
##рованную
умирали
чаиная
засунул
##левна
позора
изменил
изменилась
серьезное
вызвали
вспоминаем
вспоминают
процента
маиданутых
звб
зверя
опасность
8904
сибиря
##довании
снести
занятии
хуеп
хуево
похудение
клоунов
феис
мыслить
непросто
путлера
путлеров
алиса
запросто
хуярить
нынешнего
евреискии
веселее
испытать
привезла
использовали
потолки
выбираите
услышит
услышали
жирныи
впечатления
остановите
мыслях
лыжи
бюджете
каталог
приемлем
валентины
мягкии
улыбнись
опове
##нджер
популя
скрыть
охранять
пластика
достижение
футболь
обосрать
звука
электроэнер
ельцине
домике
пустота
задерживать
прописка
закупку
кислота
тряпка
клубника
беспреде
почитала
проклятая
позади
сильна
зооо
асфальта
обеспечен
забавно
##танты
плешивая
беременная
молитву
нижне
##коснов
##ova
волшебныи
порядочность
сезоне
выбросила
профессионал
профессионально
сердечно
сердечки
внешностью
мультик
адреса
дырявые
япония
заменит
бандеровскии
предупреждение
просьбы
садист
садисты
угрозы
прокатит
организаторам
обсуждении
пруди
парням
держатся
африки
известен
твердо
сотрудник
изобрет
очарование
загляды
сапог
учителю
мертвых
приготовил
уволили
холу
колхозник
батаре
протянутои
мощность
вложено
валерия
выпадает
выпадают
мамин
подушка
пиндосовские
##мыслы
##🥰🥰🥰
вакцинация
анекдоте
вишню
переверты
агрессии
угаре
курорты
##азч
мышление
элементы
холодным
реакции
помалки
модератор
лохма
дресси
осознавать
альбомы
выносят
полицеиских
публикацию
мммм
возвращались
корыто
базель
кремлевская
обманывают
судимы
древние
опека
опеки
черножопыи
хвалить
отработал
пропускать
пропускают
ложкои
православные
фонтанах
предыдущие
мероприятии
обалденные
витамин
вязала
##поддер
заморозить
кипяток
разговора
умудри
##✌✌✌
обязанность
оппозиции
благородныи
халат
употреблять
охранника
сарти
##💪💪💪💪
вывезти
новорожд
фонари
финлян
отморозки
##комнатная
полынь
сожаления
перепутал
террористов
париже
обслуживание
таблица
распоряжение
шпион
обьяснить
пролетает
попрошаика
сложилось
митингующих
уезжают
буржуи
упражнение
прихвати
глубины
дополнительные
дефек
перекресток
перекрестке
переломать
кобыла
умора
мишустин
криминал
скорблю
калмы
джун
сюрпри
ебланы
бизнеса
снесут
микрораионе
вступать
превосхо
прописано
локоть
обрабатывать
тормоза
фартук
ультра
офшо
отсасывать
чехол
рекорд
педрило
сгинь
батенька
бальзам
##пидоры
музее
коктеиль
фанати
поспоришь
обстановку
стратегические
наклеики
бодрости
прорыв
каторые
онкологии
эксплуатации
отдельных
диаметр
медсестра
происхождения
полномочия
тамож
протестующих
пожаловаться
менеджер
человечище
пламенем
поджелудо
несовершеннолет
ботинок
софья
##партам
реставра
дамочка
заднепривод
цыплят
эстети
повылазили
содеян
бавария
севилья
туалете
вконтакте
пегендарные
##лверхэмп
##лверхэмптон
115
578
923
by
bel
dи
lо
аго
асо
алы
аин
входят
гены
деба
ева
жэ
жуль
зва
зил
иное
ксе
нд
оти
отои
опустил
олени
пк
пэ
питера
рво
сваи
сжима
сходил
тт
тн
тшит
ула
узо
устои
утили
узур
фля
хас
холе
цвести
чзо
чрез
шов
эа
эру
эээ
юге
якут
👎🏻
##кеи
##ома
##ркои
##бь
##жках
##ющую
##пs
##ило
##анали
##дт
##днее
##лс
##лa
##нком
##змы
##заки
##ee
##ie
##775
##300
##цер
##щак
##sо
##sа
##zи
##🤷♂
##😩😩
##❗❗
##тость
побу
##рови
##новали
##рана
##рало
##раль
##рабы
##ратов
##раживает
нази
нареза
направить
неса
нежели
неграм
непред
небудет
##ливои
##лительно
##ливым
##вора
##вочки
##лости
зами
занять
замени
заходят
запустили
задрали
кова
коря
вса
##амбу
##откры
проло
проше
продела
прочеи
промыш
##асов
тона
тонка
точные
бытовои
выта
вымы
выдали
выслать
выхлоп
моет
модер
мостом
монг
дочу
добить
##тиве
##руя
отп
отри
отсе
отнести
отлавливать
растить
равен
##ляк
##лялась
##неть
даша
соа
соду
содои
приру
привод
##вины
вове
##куз
##боо
##боры
##минут
ночеи
ногам
##шеш
##еньку
##чиваю
нис
##шину
##шивание
хобби
ронал
рожеи
ровень
обч
обле
общих
обрезать
##мостью
кабан
кашель
пища
пират
дек
малю
мазо
##гиб
##заите
##стину
##стическое
разе
раздает
разбил
##живала
нуле
##бала
##ерея
подры
подпуска
подзем
подкорм
##мец
##мера
##ровно
изма
избу
##жав
##жане
##пито
пуля
пуза
##ченои
бочке
сучонок
суждено
вешают
ругать
рубин
тести
лизу
листов
лизал
вика
куни
купо
курь
кучки
куколь
кубок
##были
пани
пана
паста
палу
пазор
парочка
вата
валу
валят
дурят
дудку
##губ
бало
бабок
банан
мылом
муть
сино
рек
рекои
регла
релик
репортаж
хоронить
детек
стоите
столы
меняться
перепа
перестре
переходит
переходят
беззако
стражи
страдания
расп
расхо
расцен
расчиты
инжи
инвен
инжене
##зирая
работникам
луком
бего
белки
делаются
сеан
саг
человечность
верила
ледо
лечь
##процен
кончается
тулу
тушен
слон
сломан
тап
талон
платы
планов
плачь
##дним
позвольте
гастар
##седнев
##шов
##щаи
черника
лось
##чьте
россиискую
служе
полна
оппонен
##тельница
пеки
песи
печен
ското
##ранныи
работающим
дикту
рубят
##итировать
##трак
##трахт
кишки
киньте
трубу
трусах
фишка
интереса
любимому
убирали
##ждается
сыт
сытые
слеп
следит
слезу
получаи
красотуль
прах
прабабу
блят
##шиися
держала
приветы
приветству
приветики
типу
горды
гордитесь
браться
путинское
путинским
доброте
поиске
полизать
корнями
парнем
##зываем
1967
утру
суперрр
банкро
ебливыи
огни
гекта
##зуется
дебильная
животе
нормальную
взято
вторым
советах
отличия
биться
машинами
машинке
порвали
порцию
портал
пидорги
дураками
забывает
тянется
поддержите
поддержит
##964
наидены
противная
глухо
постараться
спири
списку
шеве
ублюдку
болят
пидарасу
посадит
обижаться
свида
петрова
броне
хозяином
рассказываю
толстая
внучкои
достатке
124
##ine
стрелок
деиствительность
свекла
##сант
904
903
углево
позволил
попадут
золотыми
##варию
##центра
спасаи
местечко
грибок
грипп
собираете
творца
позорныи
позорники
недовер
принимаите
##383
отдыхе
создан
создала
создается
вчераш
называлась
##фаши
далека
погоде
компет
компак
затоп
скучаем
##702
производить
голые
голлан
одес
повседнев
##724
постоянныи
воспитанныи
воспитанием
142
##жор
##жоп
девят
##154
начни
радуи
проверили
свободные
2008
взрослыми
взрослому
##754
смыть
фея
брест
бреху
стенои
клиника
клинику
ситуациеи
поверит
журавли
высоких
встанут
образовании
заводах
##286
необъ
орде
судью
параши
спровоци
маке
божественная
идеал
бчч
происходило
134
удобрения
мудака
выиду
##355
проживет
заплы
движется
льется
полянке
ментам
пожилои
##256
##259
передавать
передается
чистоты
обещании
стараитесь
стараися
пальцев
семеиные
поместить
васильки
##985
охуе
выходным
напя
блого
науки
удивлять
хранения
прошман
недаром
совестью
взгляды
вороши
краинии
ожидание
издевается
фамилиеи
старину
привыкать
драная
драться
нарушать
нарушите
практике
ахма
солнцем
экономике
прочитав
одинок
пятьдесят
измениться
высказать
обращаи
обращаются
бюст
нервов
танками
встретил
клюет
довольная
пидарюга
ракур
сохранились
сохранился
заплати
заплатят
ччч
выжила
снегу
афган
окружаю
хамства
переворо
приобрела
разума
призн
призем
восстанови
укропы
чвб
путеи
воспитать
ласки
боевые
армянин
трогаи
превратилась
искреннее
веселая
нравилась
наказали
бендер
экспресс
приходиться
давненько
пиздун
ошибках
дружелюб
водоснаб
остановит
национально
доступности
катаются
постельное
определенное
назначения
побыть
побывал
номеров
захочется
ватцап
внешности
пустое
пользовался
пользовалась
беспредела
проклята
проклятыи
отношением
ресурс
ресурсные
запомнила
выпустят
отсутствуют
выдержки
знака
блядскии
стремится
мелкая
мелких
##атры
яркая
плакатом
оформления
зеркала
торговля
концлагер
вулверхэмптон
шалавы
волшебное
подтверждает
малют
стерилизации
внешнии
развивается
завидуи
павла
предупреждения
просьбе
длинная
испытал
запорож
обливается
виновным
нуждаюсь
отдохнули
тупорылых
маразмати
смертных
исключением
подростки
проплаченныи
выпускает
потратила
цифра
елиза
держава
пустых
притен
одобря
ведущие
стабильности
600р
насиловать
борьбу
лебедеи
лебедя
компьюте
младшего
сметан
сметана
сметаны
##😁😁😁
теряют
грузди
используется
едва
навяз
навязывают
адекватная
адекватных
напрашивается
рубашке
балкона
балконе
посылаю
подписали
активности
заставил
просмотров
эксперти
подлости
гибдд
столице
стиральнои
анекдоты
сосуды
едросы
расшиф
угадаи
лавровыи
массово
студенты
оценка
оценки
пассажиры
холодную
пропустят
израиля
пугаче
процедить
успокоить
театре
возвращаются
свиноры
ракетами
избранные
унитазы
гармонии
колхозе
выращивать
ладонь
середины
посмеялась
петербурге
замеры
пробуите
расписная
примере
знаниями
почувствовать
октябрьская
англиискии
тихановскои
спортсменов
дыхании
дегтярева
##maker
халатность
изделии
одета
заставят
башню
распространять
переболели
астраха
отродье
элементарно
новосибирске
георгии
сгни
цитаты
чемоданы
автоматическии
гнезда
божиеи
воспринимать
процедура
невыно
выступает
состоится
сумел
террористы
досрочно
переубе
реагировать
москали
чеченцы
дивизии
завораживаю
прохладно
выберут
конкурентов
торгует
ложиться
неблагодарные
зоопарке
спортсмены
зонтик
тащить
потребу
кастрюлеголо
новгород
моментально
чечню
барнаул
##💩💩💩💩
невестка
маньяк
руководит
ефремовым
кубани
ssmaker
пропове
разбогате
столкнулась
применения
инструкции
патроны
болгарскии
равнодушие
торговли
дегенераты
поднимет
изыска
распада
разочарование
овчарка
проводится
сострадание
лукошенко
атмосф
исследования
русофоб
разбежались
кравчук
измельчить
аккаун
шампанское
египет
кулаками
передохли
имбирь
позвоночник
перечислить
инсульт
постараюсь
бриллиант
престарелых
рядышком
карандаш
виселицу
сокровище
извени
лентяи
фундамент
шедеврально
америкосам
отбросы
параметры
интеллиген
ксюша
проконсуль
спартака
бдительны
дагестан
киркоров
креветки
свеклу
недоразвит
оштрафо
чебуреки
хабиб
апиll
тратьте
австралии
фактически
соотношение
арсенал
опечатка
красноармеи
упомя
сполна
диспетчер
приднестров
аинтрахт
113
570
gl
vе
vа
zh
аню
астро
дота
ике
ирочка
кек
нг
олю
рк
рвал
сз
срам
уно
усу
упер
уск
ущем
уходили
фота
цру
чм
шма
щет
ые
этак
элемент
южныи
юбку
🎂🎁
##сных
##бры
##язы
##яние
##тs
##тем
##ель
##ицы
##хле
##вп
##вская
##дени
##дство
##la
##нх
##уют
##ele
##гнут
##ry
##750
##730
##778
##119
##980
##ks
##bl
##b45
##✊✊
##😷😷
##🏼♀
##🍁🍁
поц
поеб
понем
поню
покла
помина
##новое
настраи
напасть
нафига
неру
недов
##лива
##стна
##стную
##лаж
##лали
##ваты
##ваеться
##низации
##коли
##коми
##когда
##дане
засто
задом
забили
##рино
##рины
##сята
кокои
вси
просо
прополи
точныи
бычка
быстрыи
##дище
выпер
выдал
высыпа
выезда
моська
дону
дошел
дочек
доехали
допустили
##тища
##тишка
##тиям
отжать
отступ
оттого
оттен
расту
ранет
##лялся
##ляитесь
##нером
##тант
составить
содрать
прия
приди
примо
припи
притом
приспо
прихот
прикола
##мага
воен
##сировать
##бова
нобе
гоб
гои
гом
гонит
гонят
##шера
##еньким
##чило
ником
нибуть
##если
хок
любыми
бугром
обва
образу
обновить
обкурен
кане
кавы
жилет
живыми
спится
дето
мастеи
##гивается
##няков
##затор
##цил
##стиком
разря
раздать
раздел
раздают
##база
##меть
##дети
##порации
изюм
##пилось
##пидора
пушки
бов
борт
бокс
борисо
сумо
суке
сухая
##паете
##пался
ручку
ручкои
телка
лино
лидеров
препят
##тывают
краска
вику
виски
видем
винить
визу
виктора
кувал
курю
кукло
##был
пахнут
валит
##гун
бау
балов
мигра
мешал
мешков
##енять
больное
мучени
мурман
##дью
посходили
силе
речку
стоим
перепу
перестан
переходите
перерас
безпре
бездуш
безнаде
##хат
расчи
расша
расстав
расклады
молоду
этикет
беже
белка
садах
летал
##скаки
верная
верту
вернешь
вериться
возвы
возме
левом
туп
чудом
чулки
##ствени
##стрел
плащ
плавно
галочка
пидораз
показываите
##чуть
комбина
комитета
однокомнатную
карка
кардина
многого
интернат
служа
##фим
полта
опри
печку
дорожает
хао
хата
хату
ларь
серия
женских
потомков
дино
диету
мамки
##акос
рубцов
##ития
умными
кио
труде
нихера
предья
народную
плоско
плоха
грабеж
правильным
сыро
удаляю
удастся
благотвор
ебанная
конечныи
конечная
слепая
20г
##омет
славная
акси
правед
праститут
##лекс
##тивных
держим
тить
тибя
спору
гордыи
терем
##страда
проиду
корпора
парное
посмотрит
детишкам
трасса
трактора
8920
вкуснень
чаики
рыно
1999
##ренныи
круга
крутя
малость
расстреливали
заказу
образа
шапка
авторы
главным
##вляются
вашинг
прямую
##прият
уроков
крыль
крышку
##зует
##зуем
##зусть
##зуемо
успеет
живого
пидару
советским
открытои
праздников
многая
играи
цветах
##слали
новостям
дуракам
забывается
вмеши
подаи
подавля
здоровая
##моися
зорь
проблеме
волне
наизусть
фары
хотеть
сердю
##ваннои
президентов
смор
глум
легкого
легким
неучи
потерь
сторонам
побела
побежал
камы
завидно
звонки
спеши
пидараст
квартирах
ротен
покупка
обида
обижают
обязанно
государственныи
##143
лесбия
хабаровску
досталась
достаток
достатка
шик
шила
12000
отвечаете
сообщ
выплатами
растительное
позвонил
курса
начинаниях
золотую
задал
собираемся
придур
шорты
##366
##фея
позорно
##умно
готовил
информи
знаков
органах
принимаем
принимаются
крепкии
крепчает
ремнем
криста
непоси
помине
помиловать
##706
повесят
повесили
проводит
ссыт
владивосток
постоянная
постоянное
дороговато
воспитатель
воспитанные
тяжелои
нормальном
##156
начнете
начнешь
проверил
смыслом
фено
збз
бревно
командои
озер
озвере
радиа
высшеи
высоту
поверят
повернуть
страшна
пороге
журав
посолить
реальное
платем
накося
##749
попробует
министры
стучит
парады
идеальные
низкои
сталину
сотворил
каналов
затеи
уебаны
близкого
хернеи
поддерживаем
девушкам
заметке
ввс
старшим
политиков
политические
гражданскую
артикул
отдыхаю
льви
полянку
яблони
включительно
опыте
ленивые
##253
подруге
чистоту
колоть
печальная
вернусь
определ
караба
поганое
семеиство
столб
отделе
добавляите
петухи
оторваться
помеч
краснодаре
сосны
выходя
балбес
заботятся
заботливые
удивительные
прошлые
коснется
заболеть
заболеваемо
прокру
убежать
ожидал
драка
разрушать
пожелаю
воровская
атеи
поколению
куриные
ебанутым
позорить
современ
бабку
рекламе
обращалась
бюро
нервно
зчо
##чковои
выкинула
выкидывает
выкидывают
домашнее
вакцинировать
сортов
замк
замол
ччб
🙏🙏🙏🙏🙏
##934
социальная
социальные
##ревна
указали
комплекта
флаги
##носится
поедут
адвокатом
блеск
соответствую
обмануть
собственным
собственник
республиках
давления
прикольные
потолка
потомок
неприкоснов
воспитывали
сельхоз
глотать
определенныи
опора
великолепие
светлану
охраняют
временное
обоснова
контролем
ззб
фашистские
уплы
закупки
кислотои
находимся
поселение
ромашка
числах
субботы
##😡😡😡
почитал
проитись
официальных
реид
позабот
горбатого
незнает
общаешься
разговаривает
одинаковых
учебники
блядская
блядские
шанта
западло
мелкои
кормил
соблюдаите
лапша
глубокии
вкусы
8952
психиатру
монго
торговые
400р
продле
сносит
вуз
нижняя
делитесь
парнишка
огранич
##ost
порядочности
пожалела
фигури
собралось
блюд
напоминают
невиди
навеки
нормои
бандеровцев
аптеку
росгвардию
сломала
финансы
угроза
угрожает
ценили
топливо
первокла
электрическии
сборе
свалил
👏👏👏👏👏
присоединиться
химию
милаха
парочку
газовая
милиции
изобрета
денги
комнатнои
лаикнуть
учителем
поцело
исправно
наживаются
стаканы
дистанцию
немногих
использует
удочку
баламу
кирпича
навязываю
прихода
гавнюк
выплю
приготовлю
многодетная
посылать
посылают
подушку
ругаитесь
жизненная
##😢😢😢
дибилов
семечек
##хамду
свидетелеи
пошлет
пошлость
перевернуть
перевернулся
фабрика
потрясающии
ирины
бездомные
иностранцев
наполнен
кандидатов
завалить
сократили
батюшки
сообщил
кормушку
пассажир
христиане
малолетнии
олимпиакос
пугачева
осознать
пушистыи
пушистик
яхта
подрабаты
извращенец
спортивные
квадрат
унитаза
мрако
мрамор
тесно
бананы
гармония
поощ
идеальном
итальян
доходчиво
лимоннои
бандерлоги
океана
технология
налогоплательщиков
въезд
донецке
наркоманов
медицинскои
отрабатывает
эпоха
пенсионерка
ученых
баклажан
##😃😃😃
выкапы
аеs
тарелки
кукуруза
объектов
толстого
подожди
отросток
почталь
прикинь
питомца
сатана
заросли
доигра
допускать
сыграть
умножение
отмороз
христианство
консультация
танюшка
влюблен
жизненном
сжигать
переходе
сундук
аргументов
бродит
счете
самоубии
наследство
алкоголик
прошедшим
вирусов
скринш
эпидемия
аноним
изменяет
правнуки
москвичеи
спектакли
суставов
хвастаться
вячесла
выделить
мурлы
нахожу
жемчуг
фронте
жильцов
избивают
фрукто
чебура
разведка
селитра
татуи
филип
шестерки
плывет
азиа
ташкенте
перенесли
довелось
засранцы
преподаватель
монастырь
##молодец
тунеядцы
постановление
пневмония
поднимут
бегем
типичныи
тетради
##ыыыыыыыы
януковича
институте
волонтеры
поверхности
##120a8s
отремонтировать
реформу
тротуары
##🙏🏻🙏🏻
коробке
членом
опериция
настаивать
осторожны
ознаком
малоимущим
россгвар
обитания
клумбы
смаилики
ежемесячно
vиbег
разборки
силовиков
шариков
салфетки
оденьте
отзовись
парашю
далбоеб
поворачивается
дмитриевна
хаять
девяностые
клятву
проникнов
трындец
нечести
подстрека
крепость
режиссер
демонстрации
гладиолу
александрович
нквд
##тысяч
иосиф
разучились
дружище
ессенту
придти
пидоросня
мультивар
геннадьевна
евангелие
нажретесь
енисеи
интернетом
вплоть
безысхо
террариум
владивостока
орфографи
симптомы
вправду
мелкими
##лагодарить
беспорядки
мемори
##gнlапds
поподробнее
u76b45
деликатес
гастарба
служеб
u76b45120a8s
1и
3до
960
co
goo
u29
vр
аv
аст
ата
аве
алу
аварию
бс
бака
баки
вдо
вуль
ввел
втю
глина
дш
джем
дзер
еlе
зa
зто
ич
лют
мз
оро
ось
одела
орал
орб
пс
пьем
рит
ржд
ржать
рlа
сцу
сяв
сведению
тети
уф
уне
ужа
узор
уфа
ужина
фб
цска
црб
чg
шш
щит
эм
эля
эшело
юр
👏👍
👏🐑
😊👍
🤔🤔🤔
##снуть
##рению
##еву
##приим
##ати
##дская
##днеи
##aa
##нни
##нна
##нци
##нками
##зите
##зже
##зкои
##шол
##шле
##шени
##шете
##ist
##гене
##700
##772
##920
##цкои
##цкое
##sарр
##👍❤
##zn
##zz
##☀☀
##uh
##😈😈
##😬😬
поче
повести
##раем
намо
натов
набил
нагор
набора
небу
неим
##лица
##стут
##лать
##лана
##городе
##ничныи
##дат
##вочку
##логу
загла
залог
##рило
##риков
##рировать
##льскои
кола
козо
косои
кодекс
вспы
##рево
##рель
##речен
пропол
прочая
прослав
проезда
токси
##дими
выкрои
мос
моды
моско
можите
##тип
##тирую
отц
отки
отвез
отучи
отпустили
##нева
##леком
##легии
дач
даем
дави
сорат
прича
придела
прически
##вист
вони
вовы
ворова
вовочка
ношение
годи
гоми
говари
гонду
##чины
##стать
роб
роде
роды
росия
буф
бугра
булочки
обди
обмо
обхо
обрет
общении
##мовои
кая
каво
качает
пив
пиц
жидом
##терам
мана
мазать
машенька
##гиз
##гино
##вывает
разь
разгла
разгру
##бишь
##бились
##жив
подвод
подвала
подбро
подчерк
##метов
##ровского
свора
##пое
извести
##сап
##саи
##ятти
пус
пуд
пуки
бокал
суду
суют
веща
вечна
чехов
рулят
ручную
##щине
лик
лип
лион
прести
онко
вил
курочка
стабои
статеи
пада
парои
пачки
падали
патру
важна
дуре
##люби
баби
бази
баночку
мишку
миллер
меде
мешке
##пело
муда
мучается
##размер
посмер
посред
решит
##ньке
знато
знание
столу
столетия
менял
просторы
перешла
переплю
##ремен
##бук
бездушные
здохли
раскру
инвести
молодую
работника
своиство
##ментом
луку
##зовали
бежали
сану
саран
сарка
перчаток
летали
леж
леги
лечитесь
худои
худая
худень
чук
сложные
тарии
пламя
авро
гадо
##сенок
##бек
##ленному
##щаитесь
глаго
##стели
комитет
моими
головки
голодного
классами
класссссс
ловил
лоджи
красном
##фик
пек
нужнее
##динка
##стояния
правдо
грубить
лада
лапо
##ранные
сердец
##хуа
работало
работающии
дикои
дивее
мамку
рублях
кири
киску
кидали
труды
трудились
пожары
интересов
##ительна
беско
бессим
##евск
колу
граф
маскои
архан
##анная
##берку
##ченную
2011
получая
сладости
ценник
аксе
акцию
##тивное
сказанно
добротои
поищите
поизде
##читал
##читали
обоо
обожаем
##разуме
101
полина
проидите
имеющих
жопо
парты
творец
трассы
вкусненько
забас
анга
андро
ослеп
рыбе
1966
1994
1964
1971
кролики
кроликов
круиз
воинам
заказали
заказываю
идиотом
крепись
обращении
похожии
шагу
шапки
супермарк
гус
гум
увас
положены
банду
прячут
красивом
уродина
технике
написан
деиств
купим
живодеры
пидорасты
##ооооо
вторые
открылась
праздниками
биат
билетов
учете
цвете
цветные
порадовали
поздравляет
поржать
объять
объема
надежные
надежных
##женными
новокуз
выполнения
попроще
историк
волга
замед
ужасе
фабрик
охла
молнии
молчишь
подсказать
постаново
греции
списка
считаите
побегут
##505
шест
шествия
унижение
зависе
резина
проспект
дышат
спецом
сперации
закончили
##возь
##возки
пидараска
смертность
##линг
преданныи
предателями
государственная
толя
##ственному
городских
##площа
подошли
шипов
гио
гиb
##rov
строчки
справок
свежо
свежим
угле
углом
позвонит
задавить
комментари
спасали
запахом
козлам
гриша
ошибо
шор
шоп
секции
##363
##362
бережно
готовиться
вырастил
недочелове
знакомого
обладает
марго
марка
маршал
холоп
холопы
рабочее
удивилась
называю
админу
кристал
кристина
анапе
непоря
##ерых
записа
подобнои
##168
тюмени
сдала
спокоиная
среды
подумает
повсем
волоса
побрыз
единыи
##159
потере
апd
пьяни
пьяное
жилищ
правительством
2004
зина
##758
учав
збч
##хват
озере
белоруси
высших
высшем
покупаете
покупатель
поверил
продажным
продажными
находя
пропадают
сахалине
ремонте
высокую
замечательным
платныи
платное
##💋💋💋💋💋
офисе
сильного
##746
исполнять
министром
##шкова
низкие
заслужи
канаде
армиеи
барсу
##ционное
##ционную
##ницами
угоду
шубу
общественныи
зубки
##452
грома
гроба
газета
политических
китаиская
китаискои
способами
помидорки
проживают
пытаетесь
пытаешься
запя
бомбу
хило
##906
отдыхала
отдыхающие
возвращение
зеленых
повода
##802
профсою
передам
поделится
оказывают
бзв
повысили
блядину
татьяне
##мммм
коммуняки
поганую
помешало
оскорблял
отоп
объясню
поплы
железные
дверью
штат
штаба
удивительныи
##натsарр
украинским
аис
слушал
даме
ворочать
разрешают
уиду
преступлении
привыкла
привычек
привыкнуть
тяжелое
вечность
нарушил
наркотои
подвешать
экономия
боико
чиновник
чиновника
поднимал
людского
поступках
отпустят
двоинои
здрасти
вспоминает
андрее
замечательному
трехлит
крупнои
крупнее
хранят
выкинут
глупое
сохранил
таины
заплатила
хвосты
ччо
близкими
снега
теплых
пидорасами
разваливается
5500
u9b
яице
выростить
частная
одинокии
одинокая
необходимое
губернаторы
##носите
похле
похую
незем
рыбалке
редкостныи
представляет
##летело
карманов
##1111
привязан
нелюдям
обмана
собственные
лошадеи
похожую
рукава
справится
##664
обратном
оправдание
представление
зажралась
клево
текста
мыслями
направлению
катались
жалобу
##ers
сельскои
вечерами
определенного
открою
добавят
соловеи
скрывают
позитивныи
ориента
достижении
ублюдками
музыкальныи
музыкант
обосра
оставшиеся
бросаи
присоедин
домини
обратное
заводят
кислорода
находились
находишься
мерзкое
производстве
бюджетных
понаехали
событиях
пирога
грешную
реинджер
позавиду
асфальте
настоять
одинаковы
кастрюля
путевку
учебы
блядво
игоря
сожгли
запрещает
винограда
шахтеры
сергею
моряки
аватар
оформлял
исчезла
существовало
автомобили
маринова
коляски
установки
капсу
волшебно
верхнем
заявили
порядочных
обнуление
сердечное
пятого
железнодорожники
духовку
фермы
поуча
привезу
аптека
испытание
садике
особого
повторяется
температуру
посещения
трудового
сборы
дополнительно
велосипеде
отважныи
сегодняшнеи
отмечают
голосуем
лопату
космоса
гитлеров
уборки
березов
ведущих
строительстве
премии
отключили
принесут
несчастная
улыбаитесь
отметили
раннего
немецкая
подвиги
способы
букварь
покинуть
мертвыи
спрятать
заведую
двигателя
трампа
выиграли
десятка
изобили
лимоном
паспортов
матушку
коррупцию
подъездах
валерьевна
трусливые
широкая
вредных
кончиная
развитии
построено
рубашка
многодетка
побоитесь
ванну
скотчем
##😀😀😀
старушка
визит
отвращение
bау
кандидата
приезжих
прежние
массовые
литровое
студентов
голубцы
минималку
оценку
напоказ
малолетние
набирает
остановился
дэф
отмена
выносли
платошки
полицеискии
засоря
узбекистана
справились
епт
избранных
кремлевскии
реалии
персонаж
беседу
кузнец
идеальное
управы
охуевшая
аренда
подготовки
котеику
наслаждаитесь
залупу
составлял
плитка
пидераст
абори
октябрьскои
арабы
пополнение
подлежит
самоизоляция
железо
недостатки
недостаточно
штукату
оленька
пределами
инструменты
обработать
гранит
пробег
дозволено
гвоздь
##вшаяся
пациентов
зеленое
льгот
заставлять
путиноид
миллионами
комсомольская
астрахан
вывезли
лизнул
отвратительная
оптимизма
гомосек
питомцев
сатаны
кадырова
обороты
##sho
дохода
доходов
плохим
алтаискии
незамени
бомбарди
ипотека
понесло
министерства
дрожжеи
барыги
доченьки
беззащитных
неповторимыи
выбрасывают
гордостью
карона
карьеру
правнуков
совершенство
аоперации
втб
расслаб
позорься
теплице
петрушка
периодичностью
гранаты
браузе
намеренно
фрукт
спутник
кубань
функции
челябинск
зарубе
воздаст
микрораион
виртуа
плодоно
иллюзии
преобрести
горчицы
##nye
лавочки
рекламировать
эрдо
разделить
палочек
рассчитывать
оскорбить
намордниках
призидент
вождь
сухари
бархат
солидарна
авантю
удобствами
шампанского
посоветовали
егип
##месяца
аналогично
тюльпаны
ознакомиться
калининград
олене
нехорошо
засыпать
застряла
монитор
предупреждали
прихлебатели
ожог
сцену
посреди
фигурка
осмотр
сметану
сметанои
насекомых
эваку
рекомендуется
отчиз
кефира
ненасытные
ноутбук
зачисление
надоест
беирута
рельсы
чипсы
крокодил
аплодис
усмотрение
опухоль
автовокзала
занятости
референдум
дебилоид
часовои
некоторое
шестои
спецназ
вероника
непосредственно
эксклюзив
митинговать
безмозглое
вьетнам
надюша
остео
поросенка
вслед
артефак
позавчера
саженцы
станиславовна
отребье
депортировать
превосходно
тшиттег
несанк
астрахань
реинджерс
1л
1ст
5л
fi
ot
ph
аву
агу
азо
втро
гю
гмо
гин
гемо
дроб
ежик
звании
ило
иги
иего
кит
ксер
лe
лгу
нп
ныи
оки
оков
одел
паси
сде
снеи
сходят
сформи
смяг
тбили
урю
упита
флок
чп
часи
чин
члено
шь
шри
шас
шлет
эо
як
яг
ядом
явныи
🎁🎂
👏🌜
💋💋
##dd
##сного
##огу
##рs
##рется
##рное
##тко
##еb
##жэ
##жков
##житель
##жемся
##юб
##пк
##вным
##вления
##aть
##чни
##чте
##чнеи
##унт
##ey
##эл
##гв
##гнули
##ru
##716
##178
##цои
##ъек
##👍👏
##ba
##bапк
##295
##xr
##🙂🙂
##🎊🎊
##🍒🍒
##▬▬
##тьева
поба
поха
погод
почер
попиз
##ровича
##раете
##раживать
нады
напло
напере
называться
##еныи
негр
##ливы
##лизма
##акои
##лас
##ереи
##вара
##вации
##ватели
##вавших
##кало
##нином
##коман
##дало
##даться
##далась
завар
затро
заехать
заграни
захлоп
##дочку
##льчик
косты
косят
кошкои
котику
##деж
##дею
проту
##ителем
выу
вывели
вынести
выходила
выходишь
молись
моментов
всезна
довы
доступа
##тином
##тироваться
отпа
отстоя
отхва
рау
##ляцию
##лятина
##неса
##лели
##лежа
##лечки
дадим
соня
сокол
сотовыи
приза
приплы
прикорм
##мают
вором
военко
водятся
##сиеи
##чину
##чивание
нины
нищими
##шивают
##шивает
ходо
росии
ровес
бука
будни
обро
обши
обзывать
обходится
##чание
##чанию
##лух
##стокра
кача
кавал
кабель
пика
писан
пижам
пишеш
жилои
жидам
живность
депо
декла
##гиs
##няися
##вывали
тыла
##стическую
разбит
разрабаты
подхва
##мее
##рову
##ровляю
жека
##поздрав
изле
изучи
изобраз
##жаешь
##пиа
пушку
пустя
бох
борец
суту
сугу
веках
самка
самсу
самов
самыми
самец
##дывается
чека
##пат
##паl
##паем
ручек
##щику
личную
лихие
престо
крана
красок
видет
кула
стада
сталь
стабили
паника
пашет
валом
варки
варени
важны
дупло
дурочка
базо
мина
мишки
мечет
мешаите
меченыи
мудо
муках
мучаются
поску
сигнал
наслы
реф
репер
решим
##006
##скова
просторах
##бую
##териа
##хались
##пуль
страшен
страдаю
распе
##обра
скачет
скарты
добе
луже
##зоо
##зости
беднои
саж
сани
садятся
##новения
##новская
##новские
перси
пердун
здоровью
##перы
вернись
версию
останемся
лечите
лечила
##просто
##платы
коню
концы
констру
контек
тупиз
чудные
тае
таган
тазик
плану
позу
галь
красить
продаи
##ленку
##щатся
чердак
головка
голодная
головнои
##ждены
лок
лод
локи
лодки
локти
##чьеи
полкре
опра
большевики
ребра
грустная
##фонов
харе
лан
блату
темное
дизель
##домет
##глазая
семя
исходит
кил
киз
труси
фила
предстоит
интересную
бесов
##евке
##евского
##спорно
##гея
##летнии
сыне
ударов
удалил
получалось
актива
оператора
дерутся
мразям
##ствию
горки
гордятся
путинского
всячески
добросовест
##совскии
обокра
105
полить
полизал
врагом
жоп
партои
паренек
ответите
трата
адоль
8910
8918
8999
антра
оску
рыжие
рынках
1961
крон
кропот
расстреляют
заказал
кредитов
обратил
обратился
шабол
шапку
шаговои
авторов
смеюсь
##мети
гуль
гуси
##делить
банками
целуи
словарь
тварью
крыси
##зуют
нормали
взяться
открытая
открытки
открытии
песнеи
трилли
триколо
отдадите
порции
порвут
надевать
надеитесь
денежных
подари
подают
попроси
тяжко
мозгу
волеи
нееее
надень
фуры
стихах
долбоебами
белому
легкое
##язательно
подскажи
подсказку
гречка
малых
малышева
вопросами
сторож
сторонке
считала
считаем
победим
##стеры
шеле
унижают
почете
проснитесь
дыни
дыбом
##возмо
обидит
обиделся
свинина
петли
##ехало
обязана
алекс
закрывали
закрывает
телефонам
морская
образе
подош
урны
##insho
растительного
попадется
курсы
начинаи
риф
слитно
отправляли
отправляла
козло
паса
пасси
идиотами
снаб
творение
готовности
выражаю
развелись
##блоки
недоро
недоеб
принимаете
##389
школои
марс
уничтожает
удивили
плечами
далеком
далекие
лукавого
кристи
[...]
